{
  "version": "1.0",
  "truncation": null,
  "padding": null,
  "added_tokens": [
    {
      "id": 0,
      "content": "<s>",
      "single_word": false,
      "lstrip": false,
      "rstrip": false,
      "normalized": false,
      "special": true
    },
    {
      "id": 1,
      "content": "<pad>",
      "single_word": false,
      "lstrip": false,
      "rstrip": false,
      "normalized": false,
      "special": true
    },
    {
      "id": 2,
      "content": "</s>",
      "single_word": false,
      "lstrip": false,
      "rstrip": false,
      "normalized": false,
      "special": true
    },
    {
      "id": 3,
      "content": "<unk>",
      "single_word": false,
      "lstrip": false,
      "rstrip": false,
      "normalized": false,
      "special": true
    },
    {
      "id": 4,
      "content": "<mask>",
      "single_word": false,
      "lstrip": false,
      "rstrip": false,
      "normalized": false,
      "special": true
    }
  ],
  "normalizer": {
    "type": "Sequence",
    "normalizers": [
      {
        "type": "NFKC"
      },
      {
        "type": "Lowercase"
      }
    ]
  },
  "pre_tokenizer": {
    "type": "Sequence",
    "pretokenizers": [
      {
        "type": "ByteLevel",
        "add_prefix_space": true,
        "trim_offsets": true,
        "use_regex": true
      }
    ]
  },
  "post_processor": {
    "type": "ByteLevel",
    "add_prefix_space": true,
    "trim_offsets": false,
    "use_regex": true
  },
  "decoder": {
    "type": "ByteLevel",
    "add_prefix_space": true,
    "trim_offsets": true,
    "use_regex": true
  },
  "model": {
    "type": "BPE",
    "dropout": null,
    "unk_token": null,
    "continuing_subword_prefix": null,
    "end_of_word_suffix": null,
    "fuse_unk": false,
    "byte_fallback": false,
    "vocab": {
      "<s>": 0,
      "<pad>": 1,
      "</s>": 2,
      "<unk>": 3,
      "<mask>": 4,
      "¡": 5,
      "¢": 6,
      "£": 7,
      "¤": 8,
      "¥": 9,
      "¦": 10,
      "§": 11,
      "¨": 12,
      "©": 13,
      "ª": 14,
      "«": 15,
      "¬": 16,
      "®": 17,
      "¯": 18,
      "°": 19,
      "±": 20,
      "²": 21,
      "³": 22,
      "´": 23,
      "µ": 24,
      "¶": 25,
      "·": 26,
      "¸": 27,
      "¹": 28,
      "º": 29,
      "»": 30,
      "¼": 31,
      "½": 32,
      "¾": 33,
      "¿": 34,
      "à": 35,
      "Ġ": 36,
      "Ģ": 37,
      "ģ": 38,
      "Ĥ": 39,
      "ĥ": 40,
      "Ħ": 41,
      "ħ": 42,
      "Ĩ": 43,
      "ĩ": 44,
      "Ī": 45,
      "ī": 46,
      "Ĭ": 47,
      "ĭ": 48,
      "Į": 49,
      "į": 50,
      "İ": 51,
      "ı": 52,
      "Ĳ": 53,
      "ĳ": 54,
      "Ĵ": 55,
      "ĵ": 56,
      "Ķ": 57,
      "ķ": 58,
      "ĸ": 59,
      "Ĺ": 60,
      "ĺ": 61,
      "Ļ": 62,
      "ļ": 63,
      "Ľ": 64,
      "ľ": 65,
      "Ŀ": 66,
      "ŀ": 67,
      "Ł": 68,
      "ł": 69,
      "Ń": 70,
      "Ġà": 71,
      "Ġà¤": 72,
      "à¥": 73,
      "¤¾": 74,
      "à¤¾": 75,
      "¤°": 76,
      "à¤°": 77,
      "à¥ĩ": 78,
      "à¥į": 79,
      "Ġà¤ķ": 80,
      "à¥Ģ": 81,
      "¤¿": 82,
      "à¤¿": 83,
      "¤Ĥ": 84,
      "à¤Ĥ": 85,
      "¤¨": 86,
      "à¤¨": 87,
      "à¥ĭ": 88,
      "¤¤": 89,
      "à¤¤": 90,
      "¤ķ": 91,
      "à¤ķ": 92,
      "¤²": 93,
      "à¤²": 94,
      "Ġà¤¸": 95,
      "¤¸": 96,
      "à¤¸": 97,
      "¤¯": 98,
      "à¤¯": 99,
      "Ġà¤¹": 100,
      "Ġà¤®": 101,
      "¤®": 102,
      "à¤®": 103,
      "à¤": 104,
      "Ġà¤ª": 105,
      "à¤¹": 106,
      "à¥ģ": 107,
      "à¤µ": 108,
      "à¥Ī": 109,
      "à¤ª": 110,
      "à¤¦": 111,
      "à¥ĩà¤Ĥ": 112,
      "à¤Ĺ": 113,
      "à¤Ł": 114,
      "Ġà¤¬": 115,
      "à¤ľ": 116,
      "Ġà¤¨": 117,
      "Ġà¤ľ": 118,
      "Ġà¤ħ": 119,
      "Ġà¤µ": 120,
      "Ġà¤¦": 121,
      "à¥Ĥ": 122,
      "à¤¡": 123,
      "Ġà¤²": 124,
      "Ġà¤°": 125,
      "à¤¶": 126,
      "à¤¬": 127,
      "à¥¤": 128,
      "Ġà¤Ĩ": 129,
      "à¥ĭà¤Ĥ": 130,
      "à¤ı": 131,
      "à¤ļ": 132,
      "à¤¼": 133,
      "Ġà¤ķà¤°": 134,
      "Ġà¤¤": 135,
      "Ġà¤Ĺ": 136,
      "à¤·": 137,
      "à¤§": 138,
      "Ġà¤Ń": 139,
      "Ġà¤ī": 140,
      "Ġà¤ĩ": 141,
      "Ġà¤Ķ": 142,
      "Ġà¤Ķà¤°": 143,
      "Ġà¤ªà¤°": 144,
      "Ġà¤¯": 145,
      "Ġà¤ļ": 146,
      "Ġà¤ı": 147,
      "Ġà¤¶": 148,
      "à¤¥": 149,
      "à¤ĸ": 150,
      "à¥Īà¤Ĥ": 151,
      "à¤Ī": 152,
      "à¤£": 153,
      "à¤Ń": 154,
      "à¤¾à¤Ĥ": 155,
      "Ġà¤«": 156,
      "Ġà¤ĸ": 157,
      "à¤«": 158,
      "à¥ī": 159,
      "Ġà¤ĩà¤¸": 160,
      "à¥Īà¥¤": 161,
      "Ġà¤ıà¤ķ": 162,
      "à¥Į": 163,
      "à¤ªà¤¨": 164,
      "Ġà¤°à¤¹": 165,
      "à¥Ģà¤Ĥ": 166,
      "Ġà¤¥": 167,
      "à¤¿à¤Ĥ": 168,
      "à¤ķà¤°": 169,
      "à¤ĩ": 170,
      "à¤°à¤¤": 171,
      "Ġà¤Ł": 172,
      "Ġà¤¸à¤®": 173,
      "Ġà¤¡": 174,
      "Ġà¤Ĩà¤ª": 175,
      "Ġà¤¨à¤¹": 176,
      "à¤°à¤ķ": 177,
      "Ġà¤ķà¤°à¤¨": 178,
      "Ġà¤ħà¤ªà¤¨": 179,
      "à¤Ľ": 180,
      "Ġà¤¯à¤¹": 181,
      "à¤¾à¥¤": 182,
      "à¤ķà¤¤": 183,
      "Ġà¤īà¤¨": 184,
      "à¤¤à¤°": 185,
      "à¤ł": 186,
      "à¥ĥ": 187,
      "à¤¢": 188,
      "Ġà¤ķà¤¹": 189,
      "Ġà¤¹à¤®": 190,
      "Ġà¤ħà¤¨": 191,
      "Ġà¤ªà¤¹": 192,
      "à¤ľà¤¨": 193,
      "à¤ģ": 194,
      "Ġà¤¬à¤¨": 195,
      "à¤¼à¤¾": 196,
      "Ġà¤®à¤¹": 197,
      "à¤µà¤°": 198,
      "à¤¬à¤°": 199,
      "Ġà¤ĺ": 200,
      "à¤Łà¤°": 201,
      "à¥Īà¤Ĥà¥¤": 202,
      "Ġà¤īà¤¸": 203,
      "à¤Ĩ": 204,
      "Ġà¤²à¤Ĺ": 205,
      "Ġà¤Ĺà¤¯": 206,
      "Ġà¤§": 207,
      "Ġà¤¸à¤ķà¤¤": 208,
      "à¤¯à¤°": 209,
      "à¤°à¤¦": 210,
      "à¤¶à¤¨": 211,
      "à¤ĵ": 212,
      "à¤¯à¤ķ": 213,
      "Ġà¤Ľ": 214,
      "Ġà¤Ĩà¤ªà¤ķ": 215,
      "Ġà¤ķà¤°à¤¤": 216,
      "à¤Ĺà¤°": 217,
      "Ġà¤ħà¤§": 218,
      "à¤¹à¤°": 219,
      "à¤¼à¥Ģ": 220,
      "à¤¸à¤°": 221,
      "à¤°à¤®": 222,
      "Ġà¤īà¤ª": 223,
      "Ġà¤¤à¤ķ": 224,
      "Ġà¤īà¤¤": 225,
      "Ġà¤ªà¤¹à¤²": 226,
      "à¤²à¤¨": 227,
      "Ġà¤Ĳ": 228,
      "Ġà¤µà¤¹": 229,
      "Ġà¥": 230,
      "Ġà¤µà¤°": 231,
      "Ġà¤ķà¤®": 232,
      "à¤¾à¤ģ": 233,
      "à¥Ģà¥¤": 234,
      "Ġà¤¸à¤¬": 235,
      "à¤°à¤£": 236,
      "à¤Ŀ": 237,
      "à¤°à¤¹": 238,
      "à¤ªà¤°": 239,
      "à¥ģà¤Ĥ": 240,
      "Ġà¤ĩà¤¨": 241,
      "à¥ĩà¥¤": 242,
      "à¤¯à¤®": 243,
      "Ġà¤ĳ": 244,
      "à¤µà¤¨": 245,
      "Ġà¤īà¤¨à¤ķ": 246,
      "à¤°à¤¸": 247,
      "Ġà¤¬à¤¹": 248,
      "à¤²à¤¤": 249,
      "Ġà¤ªà¤¤": 250,
      "Ġà¤Ĩà¤ľ": 251,
      "Ġà¤¸à¤°à¤ķ": 252,
      "à¤¼à¥ĩ": 253,
      "Ġà¤ĩà¤¸à¤ķ": 254,
      "à¤ī": 255,
      "à¤®à¤¨": 256,
      "à¤ļà¤¨": 257,
      "à¤¤à¤¨": 258,
      "Ġà¤ħà¤¬": 259,
      "à¤¯à¤¤": 260,
      "Ġà¤®à¤¨": 261,
      "Ġà¤¹à¤°": 262,
      "Ġà¤¸à¤¹": 263,
      "à¤ŀ": 264,
      "Ġà¤Ĩà¤°": 265,
      "Ġà¤Ĳà¤¸": 266,
      "Ġà¤ľà¤¨": 267,
      "Ġà¤¸à¤°": 268,
      "à¤¨à¤ķ": 269,
      "à¤°à¤µ": 270,
      "Ġà¤¬à¤¡": 271,
      "Ġà¥¤": 272,
      "à¤ķà¤²": 273,
      "Ġà¤ĵ": 274,
      "Ġà¤Ĩà¤¯": 275,
      "Ġà¤ľà¤¬": 276,
      "Ġà¤ħà¤Ń": 277,
      "à¤µà¤¸": 278,
      "Ġà¤¸à¤Ń": 279,
      "à¤Łà¤¨": 280,
      "Ġà¤ħà¤²": 281,
      "Ġà¤¬à¤ļ": 282,
      "à¤ľà¤°": 283,
      "Ġà¤īà¤¸à¤ķ": 284,
      "Ġà¤¬à¤¢": 285,
      "à¤ĺ": 286,
      "à¤®à¤¤": 287,
      "Ġà¤°à¤ĸ": 288,
      "Ġà¤¬à¤¤": 289,
      "à¤¹à¤¤": 290,
      "Ġà¤Ĺà¤Ī": 291,
      "à¤·à¤£": 292,
      "à¤¯à¤¨": 293,
      "Ġà¤¸à¤®à¤¯": 294,
      "à¤ªà¤¤": 295,
      "à¤¸à¤®": 296,
      "Ġà¤ħà¤®": 297,
      "à¤¦à¤°": 298,
      "à¤®à¤²": 299,
      "Ġà¤¦à¤°": 300,
      "à¤Ĺà¤²": 301,
      "à¤Ĺà¤¤": 302,
      "à¤ĩà¤¨": 303,
      "Ġà¤¤à¤°à¤¹": 304,
      "Ġà¤Ŀ": 305,
      "Ġà¤Ĺà¤ı": 306,
      "à¤ħ": 307,
      "à¤µà¤²": 308,
      "Ġà¤ĺà¤°": 309,
      "Ġà¤Ĩà¤µ": 310,
      "Ġà¤ªà¤¢": 311,
      "Ġà¤¶à¤°": 312,
      "à¤¸à¤²": 313,
      "Ġà¤¸à¤¬à¤¸": 314,
      "Ġà¤Ī": 315,
      "à¤ıà¤®": 316,
      "à¤¦à¤¨": 317,
      "Ġà¤Ĩà¤¤": 318,
      "Ġà¤ķà¤Ī": 319,
      "à¤¨à¤²": 320,
      "Ġà¤ħà¤°": 321,
      "Ġà¤ļà¤²": 322,
      "Ġà¤ľà¤°": 323,
      "à¤ıà¤Ĺ": 324,
      "à¤µà¤¤": 325,
      "à¤¸à¤ķ": 326,
      "à¤¨à¤¤": 327,
      "Ġà¤Ĩà¤¦": 328,
      "à¤²à¤¯": 329,
      "Ġà¤ħà¤ļ": 330,
      "à¤¼à¤¿": 331,
      "à¤ĩà¤Ł": 332,
      "Ġà¤ħà¤ª": 333,
      "Ġà¤ıà¤µ": 334,
      "à¥Ĥà¤Ĥ": 335,
      "à¤·à¤ķ": 336,
      "à¤¸à¤¨": 337,
      "à¥ĩà¤Ĥà¥¤": 338,
      "à¤ĸà¤¨": 339,
      "Ġà¤ıà¤¸": 340,
      "Ġà¤Ńà¤°": 341,
      "Ġà¤ħà¤ķ": 342,
      "Ġà¤ķà¤²": 343,
      "Ġà¤ªà¤¡": 344,
      "Ġà¤Ĩà¤Ī": 345,
      "à¤ıà¤¸": 346,
      "Ġà¤ł": 347,
      "Ġà¤¨à¤µ": 348,
      "à¤¨à¤¸": 349,
      "Ġà¤¸à¤ķ": 350,
      "à¤ĩà¤²": 351,
      "à¤°à¤¶": 352,
      "Ġà¤ħà¤µ": 353,
      "Ġà¤ħà¤¸": 354,
      "à¤§à¤¨": 355,
      "à¤²à¤¬": 356,
      "Ġà¤ĸà¤¬à¤°": 357,
      "Ġà¤¬à¤¦": 358,
      "à¤®à¤ķ": 359,
      "Ġà¤īà¤¦": 360,
      "à¤ķà¤°à¤£": 361,
      "Ġà¤Ĩà¤¨": 362,
      "à¤¯à¤²": 363,
      "Ġà¤¤à¤°": 364,
      "à¤°à¤Ń": 365,
      "Ġà¤Ĩà¤Ĺ": 366,
      "à¤Łà¤ķ": 367,
      "à¤ķà¤¡": 368,
      "Ġà¤ľà¤®": 369,
      "Ġà¤ľà¤²": 370,
      "à¤Łà¤²": 371,
      "Ġà¤²à¤¡": 372,
      "Ġà¤ħà¤Ĺà¤°": 373,
      "à¤¤à¤ķ": 374,
      "Ġà¤ľà¤µ": 375,
      "Ġà¤Ĩà¤§": 376,
      "à¤°à¤¯": 377,
      "à¤¹à¤¨": 378,
      "Ġà¤®à¤§": 379,
      "Ġà¤īà¤ªà¤¯": 380,
      "à¤°à¤ļ": 381,
      "Ġà¤¤à¤¥": 382,
      "Ġà¤ĸà¤°": 383,
      "Ġà¤¸à¤¤": 384,
      "à¤¬à¤²": 385,
      "Ġà¤īà¤®": 386,
      "à¤¨à¤®": 387,
      "Ġà¤Ĺà¤°": 388,
      "à¤¡à¤°": 389,
      "à¤ľà¤ª": 390,
      "à¤ªà¤¯": 391,
      "à¤¤à¤®": 392,
      "à¥Ĥà¤ģ": 393,
      "à¤²à¤ķ": 394,
      "Ġà¤¨à¤ı": 395,
      "Ġà¤¦à¤²": 396,
      "à¤ķà¤¸": 397,
      "à¤¯à¤ª": 398,
      "Ġà¤¬à¤²": 399,
      "Ġà¤ķà¤ª": 400,
      "à¤°à¤¨": 401,
      "à¤ļà¤°": 402,
      "à¤ªà¤ķ": 403,
      "à¤¡à¤²": 404,
      "à¤¨à¤¨": 405,
      "Ġà¤¯à¤¦": 406,
      "à¤®à¤°": 407,
      "à¤¦à¤¸": 408,
      "Ġà¤ĩà¤²": 409,
      "à¤°à¤§": 410,
      "Ġà¤Ĭ": 411,
      "à¤¶à¤²": 412,
      "à¤¼à¥ĩà¤Ĥ": 413,
      "Ġà¤¬à¤ľ": 414,
      "à¤¶à¤ķ": 415,
      "Ġà¤ªà¤¦": 416,
      "Ġà¤¶à¤¹à¤°": 417,
      "Ġà¤®à¤¦": 418,
      "Ġà¤Ĩà¤¸": 419,
      "Ġà¤¸à¤®à¤Ŀ": 420,
      "Ġà¤®à¤ľ": 421,
      "à¤Ĺà¤¢": 422,
      "à¤²à¤°": 423,
      "Ġà¤®à¤¤": 424,
      "à¤¸à¤¦": 425,
      "à¤Ĩà¤Ī": 426,
      "Ġà¤¸à¤«": 427,
      "Ġà¤§à¤°": 428,
      "Ġà¤¬à¤°": 429,
      "à¤¯à¤¦": 430,
      "à¤ĥ": 431,
      "à¤¬à¤¸": 432,
      "à¤ķà¤¨": 433,
      "Ġà¤īà¤ł": 434,
      "à¤®à¤¦": 435,
      "à¤ľà¤²": 436,
      "à¤¦à¤µ": 437,
      "Ġà¤¨à¤Ī": 438,
      "à¤²à¤ľ": 439,
      "Ġà¤ľà¤¹": 440,
      "Ġà¤ķà¤Ń": 441,
      "Ġà¤¬à¤¦à¤²": 442,
      "Ġà¤®à¤°": 443,
      "à¤ľà¤¸": 444,
      "à¤¨à¤°": 445,
      "à¤¯à¤µ": 446,
      "à¤¨à¤µ": 447,
      "Ġà¤ľà¤Ĺ": 448,
      "Ġà¤ħà¤¤": 449,
      "Ġà¤ĳà¤«": 450,
      "Ġà¤°à¤¹à¤¤": 451,
      "Ġà¤®à¤¹à¤¤": 452,
      "Ġà¤¬à¤¸": 453,
      "Ġà¤¸à¤®à¤¸": 454,
      "à¤¯à¤µà¤¸": 455,
      "Ġà¤ħà¤Ĺ": 456,
      "Ġà¤¤à¤¬": 457,
      "Ġà¤¸à¤ļ": 458,
      "Ġà¤®à¤¦à¤¦": 459,
      "à¤Ĭ": 460,
      "à¤²à¤µ": 461,
      "Ġà¤ĵà¤°": 462,
      "à¤ļà¤²": 463,
      "à¤°à¤ª": 464,
      "à¤ľà¤¯": 465,
      "à¤Ľà¤²": 466,
      "à¤ªà¤¸": 467,
      "Ġà¤«à¤°": 468,
      "Ġà¤ĩà¤¸à¤²": 469,
      "Ġà¤ıà¤®": 470,
      "Ġà¤¨à¤¯": 471,
      "Ġà¤¹à¤ľ": 472,
      "à¤°à¤²": 473,
      "Ġà¤¢": 474,
      "à¤µà¤ª": 475,
      "à¤ªà¤£": 476,
      "Ġà¤¸à¤²": 477,
      "à¤¤à¤µ": 478,
      "Ġà¤Ĩà¤µà¤¶": 479,
      "Ġà¤¸à¤µ": 480,
      "à¤Ńà¤µ": 481,
      "à¤Ĺà¤¨": 482,
      "Ġà¤Ĩà¤¶": 483,
      "à¤łà¤ķ": 484,
      "Ġà¤ĩà¤¤à¤¨": 485,
      "Ġà¤ħà¤²à¤Ĺ": 486,
      "Ġà¤ļà¤°": 487,
      "Ġà¤ķà¤°à¤ķ": 488,
      "à¤«à¤²": 489,
      "Ġà¤Ĩà¤ı": 490,
      "à¤¯à¤¸": 491,
      "Ġà¤°à¤¹à¤¨": 492,
      "Ġà¤²à¤ķ": 493,
      "Ġà¤ħà¤«": 494,
      "à¤°à¤¦à¤°": 495,
      "Ġà¤§à¤¨": 496,
      "à¤ĸà¤¤": 497,
      "Ġà¤ªà¤²": 498,
      "à¤°à¤ĸ": 499,
      "à¤¬à¤Ī": 500,
      "à¤µà¤ķ": 501,
      "à¤¼à¥į": 502,
      "à¥¦": 503,
      "Ġà¤¸à¤¦à¤¸": 504,
      "à¤ľà¤¹": 505,
      "Ġà¤¨à¤°": 506,
      "Ġà¤¸à¤ª": 507,
      "à¤°à¤¬": 508,
      "à¤¦à¤®": 509,
      "à¤Łà¤®": 510,
      "à¤ĩà¤ķ": 511,
      "Ġà¤ľà¤Ĺà¤¹": 512,
      "Ġà¤ĩà¤¤": 513,
      "à¤Ĺà¤µ": 514,
      "Ġà¤ªà¤¶": 515,
      "Ġà¤ıà¤¨": 516,
      "à¤¸à¤ª": 517,
      "Ġà¤ķà¤µ": 518,
      "Ġà¤²à¤Ĺà¤¤": 519,
      "à¤ĩà¤¡": 520,
      "à¤°à¤«": 521,
      "Ġà¤°à¤µ": 522,
      "Ġà¤ªà¤¸": 523,
      "Ġà¤ĩà¤¸à¤¸": 524,
      "à¤¯à¤°à¤¸": 525,
      "Ġà¤¨à¤Ĺà¤°": 526,
      "Ġà¤°à¤ĸà¤¨": 527,
      "Ġà¤īà¤ļ": 528,
      "Ġà¤Ĩà¤®": 529,
      "à¤¨à¤¦": 530,
      "Ġà¤ķà¤¹à¤¤": 531,
      "à¤§à¤°": 532,
      "à¤ķà¤Ł": 533,
      "à¤¹à¤®": 534,
      "Ġà¤ķà¤¬": 535,
      "Ġà¤ĳà¤¨à¤²": 536,
      "à¤Ĩà¤°": 537,
      "à¤ĩà¤µ": 538,
      "Ġà¤ĩà¤¸à¤®": 539,
      "à¤¨à¤ª": 540,
      "à¤łà¤¨": 541,
      "Ġà¤¸à¤®à¤°": 542,
      "à¤¹à¤¤à¤°": 543,
      "à¤¸à¤¸": 544,
      "Ġà¤īà¤ªà¤²à¤¬": 545,
      "à¤¼à¥ĭà¤Ĥ": 546,
      "Ġà¤µà¤ľà¤¹": 547,
      "à¤¦à¤Ĺ": 548,
      "Ġà¤ĩà¤¨à¤ķ": 549,
      "Ġà¤®à¤¸": 550,
      "à¤ĩà¤¸": 551,
      "à¤¼à¥ĭ": 552,
      "Ġà¤Ľà¤¤": 553,
      "à¤°à¤ľ": 554,
      "Ġà¤¶à¤¬": 555,
      "Ġà¤ķà¤¨": 556,
      "à¤®à¤ļ": 557,
      "à¤®à¤Ĺ": 558,
      "Ġà¤ļà¤²à¤¤": 559,
      "Ġà¤¤à¤¸": 560,
      "à¤·à¤¯": 561,
      "à¤¨à¤¸à¤Ń": 562,
      "Ġà¤°à¤ķ": 563,
      "à¤¹à¤²": 564,
      "Ġà¤ıà¤¡": 565,
      "Ġà¤¹à¤®à¤²": 566,
      "Ġà¤ħà¤Ĺà¤²": 567,
      "Ġà¤ıà¤²": 568,
      "à¤µà¤°à¤£": 569,
      "à¤¥à¤¨": 570,
      "Ġà¤ħà¤ľ": 571,
      "à¤¸à¤µ": 572,
      "Ġà¤¹à¤Ł": 573,
      "Ġà¤µà¤ķ": 574,
      "Ġà¤ħà¤¶": 575,
      "Ġà¤ªà¤ķ": 576,
      "Ġà¤Ĩà¤²": 577,
      "Ġà¤ĺà¤Łà¤¨": 578,
      "à¤°à¤®à¤£": 579,
      "Ġà¤ħà¤ĸ": 580,
      "à¤®à¤¸": 581,
      "à¤īà¤¨": 582,
      "à¤Ĩà¤¤": 583,
      "à¤ªà¤²": 584,
      "Ġà¤¸à¤ªà¤¨": 585,
      "Ġà¤ħà¤¦": 586,
      "Ġà¤Ĩà¤ķ": 587,
      "à¤ıà¤²": 588,
      "Ġà¤¶à¤ķ": 589,
      "à¤Ńà¤°": 590,
      "à¤¥à¤²": 591,
      "à¤¸à¤¤": 592,
      "Ġà¤Ńà¤Ĺà¤µ": 593,
      "Ġà¤¨à¤ľà¤°": 594,
      "à¤ĩà¤®": 595,
      "Ġà¤¹à¤¤": 596,
      "Ġà¤īà¤²": 597,
      "à¤¬à¤¹": 598,
      "à¤Ńà¤Ĺ": 599,
      "à¥Įà¤Ĥ": 600,
      "à¤¥à¤®": 601,
      "à¤Łà¤°à¤¨": 602,
      "Ġà¤ħà¤ªà¤°": 603,
      "à¤¸à¤Ĺà¤¢": 604,
      "Ġà¤Ńà¤µ": 605,
      "Ġà¤¸à¤¡": 606,
      "à¤ľà¤Ĺ": 607,
      "à¤¶à¤¨à¤²": 608,
      "Ġà¤Īà¤®": 609,
      "Ġà¤Ĺà¤£": 610,
      "à¤¦à¤ķ": 611,
      "Ġà¤²à¤Ĺà¤Ńà¤Ĺ": 612,
      "Ġà¤īà¤¸à¤¨": 613,
      "Ġà¤¤à¤¹à¤¤": 614,
      "à¤¶à¤¤": 615,
      "Ġà¤Ĭà¤ªà¤°": 616,
      "à¤·à¤¤": 617,
      "à¤¬à¤¨": 618,
      "Ġà¤¤à¤®": 619,
      "à¤°à¤ªà¤¤": 620,
      "à¤ħà¤²": 621,
      "§à¥": 622,
      "Ġà¤¸à¤¨": 623,
      "à¤¯à¤ķà¤¤": 624,
      "Ġà¤ķà¤¹à¤¨": 625,
      "Ġà¤ľà¤¨à¤¤": 626,
      "Ġà¤µà¤¸": 627,
      "Ġà¤°à¤¨": 628,
      "Ġà¤ĭ": 629,
      "Ġà¤ªà¤Ł": 630,
      "Ġà¤ľà¤¯": 631,
      "Ġà¤¹à¤µ": 632,
      "Ġà¤¹à¤²": 633,
      "à¤¹à¤¸": 634,
      "Ġà¤Ĺà¤²à¤¤": 635,
      "Ġà¤ĸà¤¡": 636,
      "à¥Ģà¤Ĥà¥¤": 637,
      "Ġà¤ªà¤°à¤®": 638,
      "à¤²à¤¸": 639,
      "à¤²à¤ķà¤°": 640,
      "Ġà¤ľà¤¨à¤µà¤°": 641,
      "Ġà¤®à¤ľà¤¬": 642,
      "Ġà¤¬à¤¯": 643,
      "Ġà¤ľà¤¬à¤ķ": 644,
      "Ġà¤¦à¤¸": 645,
      "Ġà¤Ĩà¤ĸ": 646,
      "à¤µà¤ľ": 647,
      "à¥ĭà¥¤": 648,
      "à¤°à¤Ĺ": 649,
      "Ġà¤¤à¤²": 650,
      "Ġà¤®à¤²": 651,
      "à¤ıà¤«": 652,
      "Ġà¤ªà¤¹à¤ļ": 653,
      "Ġà¤¦à¤ķ": 654,
      "à¤Łà¤«": 655,
      "à¤ªà¤ı": 656,
      "Ġà¤ıà¤ľ": 657,
      "à¤ĩà¤«": 658,
      "à¤Ĺà¤®": 659,
      "à¥ģà¤ģ": 660,
      "Ġà¤¨à¤ķ": 661,
      "Ġà¤¤à¤°à¤«": 662,
      "à¤ķà¤ª": 663,
      "Ġà¤ķà¤Ł": 664,
      "à¤¹à¤ķ": 665,
      "à¤īà¤¨à¤²": 666,
      "à¤¹à¤¦": 667,
      "à¤ĸà¤°": 668,
      "Ġà¤Ĺà¤¤": 669,
      "à¤Ĺà¤łà¤¨": 670,
      "à¤¯à¤°à¤²": 671,
      "Ġà¤ĸà¤¤à¤°": 672,
      "Ġà¤ıà¤ļ": 673,
      "Ġà¤ıà¤ª": 674,
      "à¤²à¤®": 675,
      "Ġà¤°à¤ĸà¤¤": 676,
      "Ġà¤ĵà¤®": 677,
      "à¤ıà¤¨": 678,
      "Ġà¤¬à¤¨à¤¨": 679,
      "à¤¸à¤¬": 680,
      "à¤µà¤ļ": 681,
      "Ġà¤ķà¤°à¤µ": 682,
      "à¤·à¤¦": 683,
      "Ġà¤¦à¤¬": 684,
      "à¤µà¤µ": 685,
      "Ġà¤®à¤Ī": 686,
      "Ġà¤¦à¤µ": 687,
      "Ġà¤īà¤¡": 688,
      "Ġà¤²à¤ĸà¤¨": 689,
      "Ġà¤°à¤¸": 690,
      "Ġà¤Ĳà¤ª": 691,
      "Ġà¤¤à¤¤": 692,
      "Ġà¤®à¤¤à¤²à¤¬": 693,
      "Ġà¤ļà¤ķ": 694,
      "à¤ĩà¤¯": 695,
      "Ġà¤ħà¤Ĺà¤¸": 696,
      "à¤®à¤µ": 697,
      "Ġà¤ķà¤¶": 698,
      "Ġà¤¸à¤¹à¤¯": 699,
      "Ġà¤ħà¤µà¤¸à¤°": 700,
      "à¤¥à¤µ": 701,
      "à¥°": 702,
      "Ġà¤ªà¤ķà¤¡": 703,
      "Ġà¤¹à¤®à¤¨": 704,
      "à¤ļà¤ķ": 705,
      "Ġà¤ħà¤ªà¤¡": 706,
      "Ġà¤®à¤¤à¤¦": 707,
      "Ġà¤ĩà¤ķ": 708,
      "à¤ĺà¤°": 709,
      "Ġà¤ķà¤¥": 710,
      "à¤¨à¤Ł": 711,
      "Ġà¥¨": 712,
      "à¤§à¤µ": 713,
      "Ġà¤Ĩà¤ķà¤°": 714,
      "à¤Ĺà¤¡": 715,
      "Ġà¤īà¤ªà¤Ń": 716,
      "à¤¡à¤¨": 717,
      "à¤¹à¤Ł": 718,
      "Ġà¤¨à¤ľ": 719,
      "Ġà¤²à¤ĸà¤¨à¤Ĭ": 720,
      "Ġà¤¹à¤¸": 721,
      "Ġà¤¸à¤¬à¤ķ": 722,
      "Ġà¤ıà¤¯à¤°": 723,
      "Ġà¤ļà¤°à¤£": 724,
      "à¤¯à¤¯": 725,
      "Ġà¤ĸà¤¤": 726,
      "Ġà¤ĩà¤®": 727,
      "à¤µà¤¯": 728,
      "à¤¦à¤²": 729,
      "Ġà¤¸à¤ľ": 730,
      "à¤ĩà¤ľ": 731,
      "Ġà¤Ĩà¤ªà¤¨": 732,
      "Ġà¤®à¤¶": 733,
      "à¤ķà¤µ": 734,
      "Ġà¤¨à¤¦": 735,
      "à¤«à¤°": 736,
      "à¤¦à¤¯": 737,
      "à¤Ĺà¤ľ": 738,
      "à¤£à¤¨": 739,
      "à¤ªà¤Ł": 740,
      "Ġà¤ķà¤¡": 741,
      "à¤¤à¤²": 742,
      "Ġà¤¤à¤¨": 743,
      "Ġà¤Ĺà¤²": 744,
      "à¤µà¤Ł": 745,
      "à¤ħà¤ª": 746,
      "Ġà¤īà¤ªà¤ļ": 747,
      "Ġà¤¸à¤¦": 748,
      "à¤ľà¤ķ": 749,
      "à¤Łà¤µ": 750,
      "à¤¥à¤°": 751,
      "à¤ªà¤·": 752,
      "Ġà¤¸à¤«à¤²à¤¤": 753,
      "à¤¤à¤°à¤°": 754,
      "Ġà¤ĳà¤Ł": 755,
      "à¤¡à¤ķ": 756,
      "Ġà¤µà¤¨": 757,
      "Ġà¤ħà¤¹": 758,
      "à¤®à¤ª": 759,
      "à¤ľà¤®": 760,
      "à¤ķà¤¸à¤Ń": 761,
      "Ġà¤¬à¤ľà¤Ł": 762,
      "à¤Īà¤ķ": 763,
      "à¤ªà¤¦": 764,
      "Ġà¤¤à¤¯": 765,
      "à¤¦à¤¶": 766,
      "Ġà¤Ĩà¤¦à¤®": 767,
      "Ġà¤ªà¤²à¤µà¤²": 768,
      "à¤Ĺà¤¦": 769,
      "Ġà¤¶à¤¹": 770,
      "Ġà¤ķà¤¦à¤®": 771,
      "Ġà¤¸à¤¸": 772,
      "Ġà¤®à¤®à¤¤": 773,
      "Ġà¤¤à¤ķà¤¨": 774,
      "à¤ĸà¤ķ": 775,
      "Ġà¤īà¤ľ": 776,
      "Ġà¤°à¤ľ": 777,
      "à¤ªà¤®": 778,
      "Ġà¤ħà¤®à¤°": 779,
      "à¤µà¤§": 780,
      "Ġà¤ħà¤¯": 781,
      "à¤Ľà¤¤": 782,
      "à¤¨à¤Ĺà¤°": 783,
      "Ġà¤¡à¤°": 784,
      "à¤ŀà¤ª": 785,
      "Ġà¤¨à¤µà¤®": 786,
      "à¤¥à¤ķ": 787,
      "à¤£à¤¯": 788,
      "à¤ıà¤ķ": 789,
      "Ġà¤®à¤ļ": 790,
      "à¤¯à¤£": 791,
      "Ġà¤°à¤ļà¤¨": 792,
      "à¤·à¤®à¤¤": 793,
      "à¤·à¤®": 794,
      "à¤µà¤¶": 795,
      "à¥ħ": 796,
      "à¤¤à¤ľ": 797,
      "à¤¶à¤µ": 798,
      "Ġà¥§à¥": 799,
      "à¤Ĥà¥¤": 800,
      "Ġà¤¶à¤¨": 801,
      "Ġà¤¶à¤²": 802,
      "Ġà¤¸à¤¹à¤®à¤¤": 803,
      "à¤ļà¤¤": 804,
      "Ġà¤«à¤²": 805,
      "Ġà¤īà¤¸à¤¸": 806,
      "à¤¨à¤ķà¤°": 807,
      "Ġà¤ħà¤¸à¤®": 808,
      "Ġà¤¬à¤¹à¤¨": 809,
      "Ġà¤ħà¤µà¤§": 810,
      "Ġà¤ķà¤¸": 811,
      "à¤¹à¤°à¤£": 812,
      "à¤ªà¤¡": 813,
      "à¤§à¤ķ": 814,
      "à¤Ńà¤ķ": 815,
      "à¤¹à¤¬": 816,
      "à¤ĸà¤ķà¤°": 817,
      "Ġà¤ıà¤ļà¤¡": 818,
      "Ġà¤ĳà¤¸": 819,
      "à¤¯à¤ķà¤°": 820,
      "à¤Łà¤¬": 821,
      "à¤¤à¤°à¤£": 822,
      "à¤°à¤µà¤°": 823,
      "à¤ĸà¤²": 824,
      "Ġà¤īà¤ªà¤¨": 825,
      "Ġà¤¨à¤®": 826,
      "Ġà¤ľà¤Ĺà¤¤": 827,
      "à¤¨à¤¤à¤®": 828,
      "à¤¡à¤µ": 829,
      "à¤¤à¤ļ": 830,
      "à¤ľà¤µ": 831,
      "à¤®à¤¯": 832,
      "à¤Ĳ": 833,
      "Ġà¤ķà¤ł": 834,
      "à¤¶à¤¦": 835,
      "Ġà¤īà¤°": 836,
      "Ġà¤ķà¤®à¤°": 837,
      "Ġà¤ļà¤¨": 838,
      "à¤§à¤¤": 839,
      "à¤¬à¤¦": 840,
      "à¤¼à¥ģ": 841,
      "Ġà¤ķà¤ķ": 842,
      "à¤¬à¤¤": 843,
      "Ġà¤®à¤¹à¤¸": 844,
      "Ġà¤¹à¤¡": 845,
      "à¤īà¤Ł": 846,
      "à¤¯à¤¯à¤¨": 847,
      "Ġà¤¸à¤«à¤²": 848,
      "à¤¡à¤¸": 849,
      "Ġà¤ķà¤ªà¤¡": 850,
      "à¤ıà¤ļ": 851,
      "Ġà¤ªà¤¨": 852,
      "à¤²à¤Ĺ": 853,
      "Ġà¤ĩà¤ļ": 854,
      "à¤²à¤ļ": 855,
      "à¤·à¤ľ": 856,
      "Ġà¤ļà¤¯à¤¨": 857,
      "Ġà¤ħà¤¸à¤°": 858,
      "Ġà¤ıà¤«": 859,
      "Ġà¤Ńà¤²": 860,
      "Ġà¤Ŀà¤Łà¤ķ": 861,
      "Ġà¤īà¤ªà¤¸": 862,
      "Ġà¤®à¤£": 863,
      "Ġà¤ªà¤Łà¤¨": 864,
      "Ġà¤Ĺà¤¹à¤°": 865,
      "Ġà¤Ĩà¤Īà¤ª": 866,
      "Ġà¤īà¤¸à¤®": 867,
      "Ġà¤Īà¤¸": 868,
      "à¥¨": 869,
      "à¥Ĥà¤Ĥà¥¤": 870,
      "à¤¡à¤®": 871,
      "Ġà¤ľà¤¤": 872,
      "Ġà¤Ĩà¤¹": 873,
      "Ġà¤ĺà¤Ł": 874,
      "à¤ķà¤¶": 875,
      "Ġà¤ļà¤¢": 876,
      "Ġà¤ľà¤¯à¤ª": 877,
      "à¤²à¤ª": 878,
      "à¤ľà¤§": 879,
      "Ġà¤Ľà¤¹": 880,
      "à¤°à¤¥à¤®": 881,
      "à¤¡à¤ķà¤°": 882,
      "Ġà¤Ĩà¤ĩ": 883,
      "Ġà¤Ĩà¤ļ": 884,
      "Ġà¤īà¤¤à¤°": 885,
      "à¤ķà¤®": 886,
      "Ġà¤Ĩà¤°à¤ķ": 887,
      "à¤¥à¤¸": 888,
      "à¤¶à¤°": 889,
      "à¤ĳ": 890,
      "Ġà¤Ĩà¤¸à¤ª": 891,
      "Ġà¤°à¤¦": 892,
      "Ġà¤Ĭà¤°": 893,
      "Ġà¤®à¤Ĺà¤°": 894,
      "à¤Īà¤Ł": 895,
      "Ġà¤Ĩà¤ªà¤¸": 896,
      "Ġà¤ħà¤¸à¤²": 897,
      "à¤ĩà¤¬": 898,
      "Ġà¤«à¤°à¤µà¤°": 899,
      "Ġà¤®à¤ķ": 900,
      "Ġà¤ıà¤ķà¤¤": 901,
      "à¤Łà¤µà¤°": 902,
      "Ġà¤Ĩà¤ł": 903,
      "Ġà¤Ĳà¤²": 904,
      "à¤īà¤¸": 905,
      "Ġà¤īà¤¨à¤¸": 906,
      "à¤¯à¤¬": 907,
      "à¤Łà¤¸": 908,
      "Ġà¤®à¤ľà¤¦": 909,
      "Ġà¤ļà¤²à¤¨": 910,
      "à¤²à¤¡": 911,
      "Ġà¤ħà¤°à¤¬": 912,
      "à¤®à¤£": 913,
      "à¤Ĺà¤²à¤µ": 914,
      "Ġà¤īà¤ªà¤ķà¤°à¤£": 915,
      "Ġà¤ľà¤¡": 916,
      "Ġà¤ıà¤¶": 917,
      "à¤¦à¤¬": 918,
      "Ġà¤¤à¤Ń": 919,
      "à¤¯à¤µà¤¹": 920,
      "Ġà¤Ĩà¤ıà¤Ĺ": 921,
      "à¤ıà¤¡": 922,
      "Ġà¤ªà¤¬": 923,
      "Ġà¤ªà¤µ": 924,
      "à¤ĩà¤¨à¤²": 925,
      "Ġà¤«à¤¸à¤²": 926,
      "Ġà¤¸à¤ĸ": 927,
      "Ġà¤¹à¤«": 928,
      "à¤ħà¤°": 929,
      "à¤ļà¤¯": 930,
      "à¤ħà¤²à¤Ĺ": 931,
      "à¤¬à¤¡": 932,
      "Ġà¤¸à¤²à¤®": 933,
      "Ġà¤ħà¤²à¤Ĺà¤ħà¤²à¤Ĺ": 934,
      "Ġà¤ľà¤¨à¤°à¤²": 935,
      "à¤°à¤¹à¤£": 936,
      "Ġà¤ĳà¤ª": 937,
      "à¥ĥà¤Ĥ": 938,
      "Ġà¤²à¤¹à¤°": 939,
      "Ġà¤ļà¤®": 940,
      "Ġà¤ľà¤¨à¤¸": 941,
      "à¤¸à¤²à¤®": 942,
      "Ġà¤ķà¤µà¤°": 943,
      "Ġà¤¸à¤Ł": 944,
      "Ġà¤¹à¤¥": 945,
      "Ġà¤Ĺà¤ł": 946,
      "Ġà¤ķà¤®à¤ľ": 947,
      "Ġà¤Ĩà¤¦à¤°": 948,
      "Ġà¤Ĩà¤¬": 949,
      "Ġà¤ķà¤®à¤²": 950,
      "Ġà¤ħà¤¹à¤®": 951,
      "Ġà¤ĳà¤ķ": 952,
      "Ġà¤¶à¤¤": 953,
      "Ġà¤Ĩà¤Ń": 954,
      "à¤®à¤¶": 955,
      "à¤¯à¤¶": 956,
      "à¤¸à¤ķà¤°": 957,
      "à¤ľà¤¤": 958,
      "Ġà¤ĵà¤²": 959,
      "Ġà¤īà¤ªà¤°": 960,
      "à¥§à¥": 961,
      "Ġà¤¬à¤§": 962,
      "à¤·à¤°": 963,
      "Ġà¤¹à¤¨": 964,
      "à¤£à¤µ": 965,
      "à¤¤à¤¤": 966,
      "Ġà¤µà¤ľà¤¨": 967,
      "Ġà¤ħà¤¹à¤®à¤¦": 968,
      "à¤ıà¤Ł": 969,
      "Ġà¤ĩà¤¨à¤®": 970,
      "Ġà¤¶à¤µ": 971,
      "Ġà¤ļà¤¤": 972,
      "à¤¯à¤°à¤®": 973,
      "Ġà¤¬à¤¨à¤¤": 974,
      "Ġà¤īà¤¨à¤®": 975,
      "Ġà¤ĩà¤¶": 976,
      "Ġà¤Īà¤¶": 977,
      "à¤²à¤¹": 978,
      "Ġà¤Ńà¤ķ": 979,
      "Ġà¤¦à¤¶à¤ķ": 980,
      "à¤°à¤·": 981,
      "à¤¨à¤ļ": 982,
      "Ġà¤¬à¤¦à¤²à¤¨": 983,
      "à¤¶à¤®": 984,
      "Ġà¤ħà¤¡": 985,
      "Ġà¤ĭà¤·": 986,
      "à¤²à¤¦": 987,
      "à¤¯à¤Łà¤¨": 988,
      "à¤Łà¤¤": 989,
      "Ġà¤¬à¤°à¤¸": 990,
      "Ġà¤²à¤Ĺà¤¨": 991,
      "Ġà¤Ńà¤¡": 992,
      "à¤Ĺà¤ķà¤°": 993,
      "Ġà¤ĵà¤µà¤°": 994,
      "Ġà¤ħà¤¥à¤µ": 995,
      "à¤µà¤ľà¤¨": 996,
      "Ġà¤¦à¤®": 997,
      "à¤¼à¥Ī": 998,
      "Ġà¤ħà¤ľà¤¯": 999,
      "Ġà¤ĩà¤ľ": 1000,
      "à¤¡à¤¬": 1001,
      "Ġà¤ĩà¤®à¤°": 1002,
      "à¤Ķ": 1003,
      "à¤¾à¥ħ": 1004,
      "à¤ıà¤¶à¤¨": 1005,
      "Ġà¤ĳà¤°": 1006,
      "Ġà¤ªà¤¹à¤¨": 1007,
      "Ġà¤¸à¤®à¤Ŀà¤¨": 1008,
      "Ġà¤Ńà¤µà¤¨": 1009,
      "à¤ĩà¤ª": 1010,
      "à¤ĺà¤¨": 1011,
      "Ġà¤ħà¤²à¤°": 1012,
      "Ġà¤īà¤¤à¤¨": 1013,
      "Ġà¤¬à¤¨à¤°": 1014,
      "Ġà¤Ĺà¤¢": 1015,
      "Ġà¤ħà¤Ł": 1016,
      "à¤²à¤Ń": 1017,
      "Ġà¤Ĳà¤¤": 1018,
      "Ġà¤ĳà¤ªà¤°": 1019,
      "Ġà¤ľà¤¬à¤°": 1020,
      "Ġà¤Ńà¤¯": 1021,
      "Ġà¤¹à¤ķ": 1022,
      "à¤¹à¤¨à¤¤": 1023,
      "à¤ľà¤¨à¤ķ": 1024,
      "à¤ĩà¤«à¤¸": 1025,
      "à¤ķà¤²à¤¨": 1026,
      "à¤£à¤µà¤¤": 1027,
      "Ġà¤ıà¤¯à¤°à¤ª": 1028,
      "Ġà¤¦à¤¤": 1029,
      "Ġà¤§à¤®": 1030,
      "à¥Ĥà¤ģà¥¤": 1031,
      "à¤ħà¤¸à¤²": 1032,
      "Ġà¤ĳà¤¡": 1033,
      "Ġà¤§à¤®à¤ķ": 1034,
      "Ġà¤¦à¤°à¤ħà¤¸à¤²": 1035,
      "à¤£à¤¸": 1036,
      "Ġà¤°à¤¤": 1037,
      "Ġà¤ıà¤¨à¤¸": 1038,
      "Ġà¤ħà¤µà¤¶": 1039,
      "Ġà¤®à¤ķà¤°": 1040,
      "Ġà¤¹à¤®à¤¸": 1041,
      "Ġà¤¸à¤°à¤¸": 1042,
      "Ġà¤ıà¤Ĺ": 1043,
      "à¥¦à¥¦": 1044,
      "à¤¨à¤Ī": 1045,
      "à¤°à¤°": 1046,
      "à¤µà¤¹à¤¨": 1047,
      "à¤¸à¤ļ": 1048,
      "à¥¤à¥¤": 1049,
      "à¤ļà¤®": 1050,
      "à¤ľà¤¬": 1051,
      "à¥§": 1052,
      "Ġà¤Ĩà¤īà¤Ł": 1053,
      "Ġà¤ĭà¤£": 1054,
      "à¤īà¤¤": 1055,
      "Ġà¤¬à¤ļà¤¨": 1056,
      "Ġà¤Ńà¤Ł": 1057,
      "à¥«": 1058,
      "Ġà¤ħà¤«à¤Ĺ": 1059,
      "Ġà¤Ĩà¤ľà¤®": 1060,
      "Ġà¤ľà¤¨à¤ªà¤¦": 1061,
      "à¤Ĺà¤ª": 1062,
      "Ġà¤ħà¤°à¤µ": 1063,
      "à¤°à¤ĸà¤ª": 1064,
      "à¤µà¤Ń": 1065,
      "à¥©": 1066,
      "à¥ª": 1067,
      "Ġà¤Īà¤°": 1068,
      "à¤ķà¤¥": 1069,
      "Ġà¤ķà¤ļ": 1070,
      "à¤¦à¤¤": 1071,
      "à¤°à¤¸à¤¨": 1072,
      "Ġà¤¦à¤¹": 1073,
      "à¤ķà¤ħà¤ª": 1074,
      "à¤¤à¤ª": 1075,
      "à¤ĸà¤Ń": 1076,
      "Ġà¤¨à¤¸": 1077,
      "à¤ķà¤¦à¤®": 1078,
      "Ġà¤ĵà¤ªà¤¨": 1079,
      "Ġà¤²à¤®": 1080,
      "à¤¯à¤¡": 1081,
      "à¤®à¤§": 1082,
      "Ġà¤ıà¤¡à¤®": 1083,
      "Ġà¤Ĩà¤Ĺà¤°": 1084,
      "Ġà¤ħà¤µà¤¸": 1085,
      "Ġà¤Īà¤ª": 1086,
      "à¤¨à¤¬": 1087,
      "à¤·à¤§": 1088,
      "Ġà¤¶à¤ĸ": 1089,
      "à¤°à¤ķà¤°": 1090,
      "à¤¯à¤ľ": 1091,
      "à¤®à¤¬": 1092,
      "Ġà¥©": 1093,
      "Ġà¤²à¤µ": 1094,
      "à¤ªà¤¥": 1095,
      "Ġà¤¦à¤¶": 1096,
      "Ġà¤Ĩà¤Īà¤Ł": 1097,
      "à¤Īà¤¸": 1098,
      "Ġà¤ıà¤°": 1099,
      "à¤ıà¤¸à¤ª": 1100,
      "Ġà¤¨à¤¶": 1101,
      "à¤£à¤ķ": 1102,
      "à¤ĺà¤Łà¤¨": 1103,
      "à¤¾à¥ĩ": 1104,
      "Ġà¤°à¤£à¤¨": 1105,
      "Ġà¤ľà¤®à¤ķà¤°": 1106,
      "Ġà¤ĩà¤°": 1107,
      "Ġà¤¨à¤¤": 1108,
      "Ġà¤Ľà¤ł": 1109,
      "à¤²à¤ļà¤¸": 1110,
      "Ġà¤°à¤«": 1111,
      "Ġà¤ľà¤²à¤µ": 1112,
      "Ġà¤ĵà¤¡": 1113,
      "Ġà¤°à¤®": 1114,
      "à¤®à¤¹": 1115,
      "à¤¯à¤¸à¤Ń": 1116,
      "Ġà¤·": 1117,
      "Ġà¤¸à¤°à¤²": 1118,
      "à¤ıà¤ª": 1119,
      "Ġà¤ıà¤¸à¤ª": 1120,
      "à¤¨à¤¯": 1121,
      "Ġà¤Ľà¤µ": 1122,
      "à¤°à¤Ĺà¤¤": 1123,
      "Ġà¤ļà¤®à¤ķ": 1124,
      "Ġà¤¦à¤°à¤µ": 1125,
      "Ġà¤Ńà¤°à¤¨": 1126,
      "Ġà¤ħà¤«à¤¸à¤°": 1127,
      "à¤µà¤¦": 1128,
      "Ġà¤¬à¤Ĺ": 1129,
      "à¤ľà¤¦": 1130,
      "Ġà¤¬à¤ļà¤ªà¤¨": 1131,
      "à¤¼à¥Ĥ": 1132,
      "à¤ıà¤¸à¤¸": 1133,
      "Ġà¤ķà¤°à¤£": 1134,
      "à¥¬": 1135,
      "à¤¨à¤µà¤°": 1136,
      "Ġà¤Ĩà¤ĩà¤ı": 1137,
      "à¥®": 1138,
      "à¥Ń": 1139,
      "à¤µà¤®": 1140,
      "à¤Łà¤ķà¤°": 1141,
      "Ġà¤ĵà¤ª": 1142,
      "Ġà¤Ķà¤·à¤§": 1143,
      "à¤¹à¤ª": 1144,
      "à¤¤à¤°à¤ª": 1145,
      "Ġà¤¸à¤®à¤Ŀà¤¤": 1146,
      "Ġà¤°à¤ļ": 1147,
      "Ġà¤¬à¤®": 1148,
      "Ġà¤Ĺà¤¡": 1149,
      "Ġà¤¸à¤®à¤ķ": 1150,
      "à¥¯": 1151,
      "à¤°à¤ķà¤Ł": 1152,
      "à¤Ńà¤µà¤¤": 1153,
      "à¤Ŀà¤¸": 1154,
      "à¤ľà¤«": 1155,
      "à¤°à¤ľà¤¨": 1156,
      "Ġà¤ıà¤Ł": 1157,
      "Ġà¤§à¤°à¤¤": 1158,
      "Ġà¤ĸà¤¤à¤°à¤¨": 1159,
      "à¤ĸà¤£": 1160,
      "Ġà¥§": 1161,
      "Ġà¤ªà¤°à¤¨": 1162,
      "à¤ĩà¤¬à¤°": 1163,
      "Ġà¤ĺà¤¨": 1164,
      "à¤ªà¤¹à¤°": 1165,
      "à¤ªà¤Łà¤¨": 1166,
      "à¤īà¤ľ": 1167,
      "à¤łà¤Ń": 1168,
      "à¤ªà¤ļ": 1169,
      "à¤¿à¥¤": 1170,
      "Ġà¤²à¤ĺ": 1171,
      "à¤Ķà¤°": 1172,
      "Ġà¤¬à¤ķ": 1173,
      "à¤°à¤ł": 1174,
      "à¤¶à¤¬": 1175,
      "à¤Ĺà¤¸": 1176,
      "à¤Ĩà¤²": 1177,
      "Ġà¤Ĩà¤¦à¤¤": 1178,
      "à¤¯à¤Ĺ": 1179,
      "Ġà¤¸à¤«à¤°": 1180,
      "à¤¶à¤Ńà¤°": 1181,
      "à¤¯à¤Ł": 1182,
      "Ġà¤ľà¤¸": 1183,
      "à¤Īà¤ĵ": 1184,
      "Ġà¤§à¤°à¤¨": 1185,
      "Ġà¤¹à¤¦": 1186,
      "à¤µà¤£": 1187,
      "Ġà¤ħà¤ĸà¤¬": 1188,
      "Ġà¤łà¤¹à¤°": 1189,
      "Ġà¤°à¤¹à¤¸": 1190,
      "Ġà¤Ĺà¤¨": 1191,
      "Ġà¤Ĺà¤łà¤¬": 1192,
      "à¤ļà¤µ": 1193,
      "à¤µà¤¸à¤¨": 1194,
      "Ġà¤Łà¤°": 1195,
      "Ġà¤ıà¤¡à¤µ": 1196,
      "à¤Łà¤ª": 1197,
      "Ġà¤Ńà¤°à¤ª": 1198,
      "à¤°à¤¥": 1199,
      "à¤¤à¤Ĺ": 1200,
      "Ġà¤Ķà¤°à¤¤": 1201,
      "Ġà¤¬à¤¨à¤µ": 1202,
      "Ġà¤²à¤ĸ": 1203,
      "Ġà¤«à¤¤": 1204,
      "à¤°à¤ķà¤¤": 1205,
      "Ġà¤Ĺà¤£à¤¤": 1206,
      "Ġà¤ľà¤ľ": 1207,
      "Ġà¤Ńà¤Ĺ": 1208,
      "à¤īà¤¥": 1209,
      "Ġà¤ľà¤¬à¤°à¤¦à¤¸": 1210,
      "à¤¼à¥ī": 1211,
      "à¤ıà¤®à¤¸": 1212,
      "à¤°à¤ļà¤¨": 1213,
      "à¤¶à¤¨à¤¶": 1214,
      "Ġà¤Ĩà¤ľà¤ķà¤²": 1215,
      "Ġà¤¦à¤¯": 1216,
      "à¤ķà¤Ń": 1217,
      "à¤¦à¤ª": 1218,
      "à¤ĺà¤¡": 1219,
      "à¤µà¤¹": 1220,
      "Ġà¤Ĩà¤ªà¤¦": 1221,
      "à¤ķà¤ľ": 1222,
      "à¤¨à¤¹": 1223,
      "à¤ªà¤°à¤µ": 1224,
      "à¤¸à¤«": 1225,
      "à¤¸à¤µà¤°": 1226,
      "Ġà¤²à¤²": 1227,
      "à¤¦à¤¦": 1228,
      "Ġà¤®à¤¶à¤¹": 1229,
      "Ġà¤¤à¤¹à¤¸": 1230,
      "Ġà¤ļà¤ª": 1231,
      "à¤ļà¤ķà¤°": 1232,
      "Ġà¤¤à¤Ł": 1233,
      "à¤Łà¤°à¤µ": 1234,
      "à¤ĸà¤¦": 1235,
      "à¤ĩà¤ı": 1236,
      "à¤¯à¤§": 1237,
      "Ġà¤Ĩà¤®à¤¤": 1238,
      "Ġà¤Łà¤ķ": 1239,
      "à¤ıà¤¸à¤ıà¤¸": 1240,
      "à¤°à¤ľà¤¨à¤¨": 1241,
      "Ġà¤Ĺà¤łà¤¨": 1242,
      "Ġà¤¬à¤¨à¤ķà¤°": 1243,
      "Ġà¤¬à¤¦à¤²à¤¤": 1244,
      "à¤®à¤¹à¤¤": 1245,
      "Ġà¤Ĩà¤Īà¤¡": 1246,
      "à¤Ĩà¤Īà¤Ł": 1247,
      "à¤¨à¤Ĺ": 1248,
      "Ġà¤®à¤¨à¤®": 1249,
      "Ġà¤¦à¤«": 1250,
      "à¤¼à¤¾à¥¤": 1251,
      "Ġà¤ıà¤¸à¤¡": 1252,
      "à¤£à¤®": 1253,
      "Ġà¤®à¤Ľà¤²": 1254,
      "à¤Ĺà¤¶": 1255,
      "à¤Ľà¤¡": 1256,
      "Ġà¤ľà¤¨à¤ľ": 1257,
      "Ġà¤Ĩà¤Īà¤¸": 1258,
      "à¤¸à¤Ł": 1259,
      "à¤¸à¤ıà¤ª": 1260,
      "Ġà¤ħà¤ľà¤¬": 1261,
      "à¤ķà¤¤à¤®": 1262,
      "Ġà¤°à¤£": 1263,
      "Ġà¤ĸà¤Ł": 1264,
      "Ġà¤ıà¤ķà¤¦": 1265,
      "Ġà¥¨à¥¦": 1266,
      "Ġà¤¬à¤ĺ": 1267,
      "Ġà¤¬à¤Łà¤¨": 1268,
      "Ġà¤ĳà¤²": 1269,
      "Ġà¤¥à¤ķ": 1270,
      "Ġà¤¡à¤¬": 1271,
      "Ġà¤¨à¤µà¤ľ": 1272,
      "à¤®à¤ľ": 1273,
      "Ġà¤Łà¤ķà¤°": 1274,
      "Ġà¤ľà¤¹à¤°": 1275,
      "Ġà¤Ĩà¤Īà¤ı": 1276,
      "Ġà¤ľà¤Ł": 1277,
      "à¤Ĩà¤ľ": 1278,
      "à¤¨à¤ľ": 1279,
      "Ġà¤¬à¤°à¤¤": 1280,
      "Ġà¤¨à¤Ĺ": 1281,
      "Ġà¤Ĺà¤µ": 1282,
      "à¤¸à¤ªà¤°": 1283,
      "à¤ĩà¤ľà¤°": 1284,
      "à¤¶à¤ª": 1285,
      "Ġà¤ĳà¤¨à¤ķ": 1286,
      "Ġà¤¨à¤®à¤¸": 1287,
      "à¤Ĳà¤Ł": 1288,
      "Ġà¤¨à¤®à¤ķ": 1289,
      "Ġà¤īà¤Ĺ": 1290,
      "à¤Ńà¤¦": 1291,
      "Ġà¤ĳà¤«à¤°": 1292,
      "à¤Łà¤¡": 1293,
      "à¤Īà¤¡": 1294,
      "Ġà¤¬à¤¹à¤°": 1295,
      "Ġà¤¨à¤¨": 1296,
      "à¤¼à¤¿à¤Ĥ": 1297,
      "Ġà¤¶à¤ªà¤¥": 1298,
      "Ġà¤¨à¤²": 1299,
      "Ġà¤īà¤ķ": 1300,
      "Ġà¤Ĩà¤¸à¤®": 1301,
      "à¤Īà¤¯": 1302,
      "Ġà¤Ķà¤¸à¤¤": 1303,
      "à¤§à¤ª": 1304,
      "Ġà¤µà¤ļà¤¨": 1305,
      "à¤Īà¤²": 1306,
      "Ġà¤į": 1307,
      "Ġà¤ĸà¤ľ": 1308,
      "Ġà¤ķà¤¦": 1309,
      "Ġà¤¨à¤µà¤°": 1310,
      "Ġà¤Ĺà¤ľ": 1311,
      "Ġà¤¯à¤ķ": 1312,
      "à¤¸à¤®à¤¯": 1313,
      "Ġà¤ªà¤°à¤µ": 1314,
      "à¤¶à¤ķà¤¶": 1315,
      "Ġà¤ħà¤ªà¤®": 1316,
      "à¤Łà¤¨à¤°": 1317,
      "Ġà¤²à¤¤": 1318,
      "Ġà¤Ĺà¤¹à¤²": 1319,
      "à¤ħà¤¨": 1320,
      "Ġà¤ıà¤ķà¤®": 1321,
      "Ġà¤¯à¤¥": 1322,
      "à¤²à¤«": 1323,
      "Ġà¤¬à¤¹à¤¸": 1324,
      "Ġà¤¬à¤¦à¤®": 1325,
      "Ġà¤ĩà¤§à¤°": 1326,
      "Ġà¤Ķà¤¦": 1327,
      "Ġà¤®à¤°à¤¨": 1328,
      "Ġà¤¸à¤¤à¤°": 1329,
      "Ġà¤ķà¤®à¤²à¤¨": 1330,
      "à¤ķà¤¹": 1331,
      "Ġà¤ªà¤µà¤¨": 1332,
      "Ġà¤¸à¤®à¤¨": 1333,
      "à¤¶à¤¯": 1334,
      "Ġà¤Ńà¤°à¤¤": 1335,
      "Ġà¤µà¤¯à¤¸": 1336,
      "Ġà¤¥à¤°": 1337,
      "Ġà¤°à¤ĺ": 1338,
      "Ġà¤¨à¤·": 1339,
      "à¤Īà¤µ": 1340,
      "à¤µà¤Ĺ": 1341,
      "à¤ĩà¤µà¤°": 1342,
      "Ġà¤ĸà¤¨": 1343,
      "à¥ĭà¤Ĥà¥¤": 1344,
      "à¤Ĺà¤®à¤¨": 1345,
      "à¤°à¤µà¤ķ": 1346,
      "à¤³": 1347,
      "Ġà¤®à¤¥": 1348,
      "Ġà¤ķà¤¹à¤°": 1349,
      "Ġà¤ªà¤¹à¤¨à¤¨": 1350,
      "Ġà¤ķà¤¤": 1351,
      "à¤®à¤°à¤£": 1352,
      "à¤Ĩà¤Īà¤Ĩà¤°": 1353,
      "Ġà¤ĺà¤¡": 1354,
      "à¤§à¤¡": 1355,
      "à¤¥à¤Ĺ": 1356,
      "à¤¯à¤¹": 1357,
      "Ġà¤¬à¤Ł": 1358,
      "à¤¤à¤ķà¤°": 1359,
      "à¤Ĺà¤¦à¤°": 1360,
      "Ġà¤®à¤¹à¤ľ": 1361,
      "à¤ıà¤¸à¤Ł": 1362,
      "à¤ħà¤ªà¤¨": 1363,
      "à¤ķà¤²à¤¤": 1364,
      "Ġà¤Ĩà¤ªà¤¤": 1365,
      "à¤°à¤ĸà¤£": 1366,
      "à¤Ĩà¤¨": 1367,
      "à¤¯à¤Łà¤ķ": 1368,
      "Ġà¤ªà¤°à¤«": 1369,
      "Ġà¤Ńà¤¦": 1370,
      "Ġà¤ĩà¤¨à¤¸": 1371,
      "à¤µà¤¡": 1372,
      "Ġà¤µà¤°à¤¨": 1373,
      "Ġà¤¨à¤ķà¤²": 1374,
      "à¤¤à¤¸": 1375,
      "Ġà¤¸à¤°à¤¦": 1376,
      "Ġà¥¤à¥¤": 1377,
      "à¤¬à¤ķ": 1378,
      "à¤Łà¤ħà¤ª": 1379,
      "Ġà¤¶à¤®": 1380,
      "Ġà¤ªà¤¦à¤ķ": 1381,
      "Ġà¤¬à¤ļà¤¤": 1382,
      "Ġà¤¸à¤¦à¤¨": 1383,
      "à¤¸à¤®à¤¸": 1384,
      "à¤¤à¤¦": 1385,
      "Ġà¤ĩà¤¬": 1386,
      "Ġà¤¸à¤¶à¤ķ": 1387,
      "à¤Ĭà¤¦": 1388,
      "Ġà¤Łà¤¨": 1389,
      "à¤ķà¤µà¤°": 1390,
      "à¤ĺà¤µ": 1391,
      "Ġà¤¶à¤°à¤£": 1392,
      "Ġà¤īà¤§à¤°": 1393,
      "Ġà¤¹à¤²à¤ļà¤²": 1394,
      "Ġà¤ķà¤¹à¤²": 1395,
      "à¤Ľà¤¨": 1396,
      "à¤ıà¤®à¤ıà¤¸": 1397,
      "Ġà¤²à¤Ĺà¤µ": 1398,
      "Ġà¤Ĩà¤°à¤¤": 1399,
      "Ġà¤ıà¤ķà¤¦à¤®": 1400,
      "Ġà¤¸à¤®à¤¯à¤¸à¤®à¤¯": 1401,
      "Ġà¤Ĩà¤«": 1402,
      "Ġà¤¬à¤µ": 1403,
      "Ġà¤ķà¤²à¤®": 1404,
      "à¤ıà¤¨à¤¸": 1405,
      "Ġà¤īà¤§": 1406,
      "Ġà¥ª": 1407,
      "Ġà¤ħà¤µà¤¤": 1408,
      "à¤£à¤¤": 1409,
      "à¤«à¤¡": 1410,
      "Ġà¤²à¤¦": 1411,
      "Ġà¤ĵà¤µ": 1412,
      "à¤Ĺà¤£": 1413,
      "Ġà¤ĭà¤¤": 1414,
      "à¤Ĩà¤µà¤ľ": 1415,
      "Ġà¤Ĺà¤£à¤¨": 1416,
      "à¤Łà¤°à¤Ł": 1417,
      "à¤¸à¤Ń": 1418,
      "Ġà¤ĩà¤µ": 1419,
      "à¥¥": 1420,
      "Ġà¤¸à¤ķà¤²": 1421,
      "Ġà¤®à¤¹à¤²": 1422,
      "Ġà¤ħà¤Łà¤²": 1423,
      "à¤¦à¤¨à¤¶": 1424,
      "Ġà¤ĩà¤«": 1425,
      "Ġà¤¬à¤ĸ": 1426,
      "à¤¯à¤¥": 1427,
      "Ġà¤Ńà¤¤": 1428,
      "Ġà¤Ĩà¤°à¤Ł": 1429,
      "à¤Ĩà¤īà¤Ł": 1430,
      "à¥ģà¤ĥ": 1431,
      "Ġà¤ĵà¤¬": 1432,
      "Ġà¤²à¤ķà¤¡": 1433,
      "Ġà¤°à¤¶": 1434,
      "Ġà¤Ĺà¤°à¤®": 1435,
      "Ġà¤¡à¤¬à¤²": 1436,
      "à¤Ĩà¤°à¤ª": 1437,
      "à¤īà¤¡à¤°": 1438,
      "Ġà¤Īà¤µ": 1439,
      "Ġà¤īà¤ªà¤ľ": 1440,
      "Ġà¤ļà¤Ł": 1441,
      "Ġà¤µà¤ľ": 1442,
      "Ġà¤¸à¤¹à¤ľ": 1443,
      "Ġà¤¤à¤¡": 1444,
      "Ġà¤ķà¤²à¤°": 1445,
      "Ġà¤īà¤®à¤°": 1446,
      "à¤«à¤¬": 1447,
      "à¤ıà¤¨à¤ıà¤¸": 1448,
      "Ġà¤«à¤Ł": 1449,
      "Ġà¥§à¥¯": 1450,
      "Ġà¤¹à¤¸à¤¨": 1451,
      "Ġà¤ħà¤ªà¤²": 1452,
      "Ġà¤Ŀà¤¡": 1453,
      "Ġà¤ªà¤ļ": 1454,
      "Ġà¤¶à¤°à¤¦": 1455,
      "Ġà¤īà¤łà¤¤": 1456,
      "Ġà¤°à¤ľà¤¨": 1457,
      "Ġà¤Ĳà¤¶": 1458,
      "Ġà¤®à¤¯": 1459,
      "à¤ĸà¤¬à¤°": 1460,
      "Ġà¤ªà¤¥": 1461,
      "Ġà¤Ĩà¤¨à¤¨": 1462,
      "à¤®à¤®": 1463,
      "à¤ĸà¤¡": 1464,
      "Ġà¤ıà¤®à¤ª": 1465,
      "Ġà¤ľà¤¬à¤²à¤ª": 1466,
      "Ġà¤ıà¤«à¤Ĩà¤Īà¤Ĩà¤°": 1467,
      "à¤Īà¤¨": 1468,
      "à¤Ĺà¤ł": 1469,
      "Ġà¤īà¤ªà¤¹": 1470,
      "Ġà¤¯à¤¶": 1471,
      "Ġà¤Ĺà¤µà¤°": 1472,
      "Ġà¤¬à¤¦à¤¨": 1473,
      "à¤Ĺà¤µà¤¤": 1474,
      "Ġà¤¸à¤°à¤ª": 1475,
      "à¤¯à¤¨à¤¶": 1476,
      "Ġà¤®à¤®": 1477,
      "Ġà¤ıà¤¨à¤¡": 1478,
      "Ġà¤²à¤Łà¤ķ": 1479,
      "à¤īà¤¦": 1480,
      "Ġà¤ıà¤¹à¤¸": 1481,
      "à¤¸à¤«à¤°": 1482,
      "Ġà¤§à¤¡": 1483,
      "Ġà¤¨à¤ľà¤¦": 1484,
      "Ġà¤¯à¤®": 1485,
      "Ġà¤§à¤ķ": 1486,
      "à¤¶à¤¹": 1487,
      "Ġà¤Ńà¤Ĺà¤¤": 1488,
      "Ġà¤¹à¤°à¤ķà¤¤": 1489,
      "Ġà¤ķà¤·": 1490,
      "Ġà¤°à¤ĸà¤ķà¤°": 1491,
      "Ġà¤¨à¤«": 1492,
      "à¤ıà¤¸à¤Ī": 1493,
      "à¤ħà¤¬": 1494,
      "à¤²à¤ĸ": 1495,
      "Ġà¤łà¤Ĺ": 1496,
      "à¤°à¤Ĺà¤°": 1497,
      "Ġà¤Ĳà¤ķ": 1498,
      "Ġà¤ħà¤ķà¤¬à¤°": 1499,
      "à¤¯à¤°à¤¤": 1500,
      "à¤¡à¤ª": 1501,
      "Ġà¤ĳà¤ªà¤ĩ": 1502,
      "à¤°à¤¤à¤²à¤¬": 1503,
      "à¤¨à¤¸à¤¨": 1504,
      "Ġà¤ħà¤®à¤²": 1505,
      "à¤¤à¤¬": 1506,
      "à¤¯à¤²à¤Ł": 1507,
      "à¤£à¤ª": 1508,
      "à¤Ŀà¤¤": 1509,
      "à¤ıà¤¸à¤ı": 1510,
      "à¤ķà¤¤à¤°": 1511,
      "à¤§à¤ķà¤°": 1512,
      "à¤¿à¤ĥ": 1513,
      "à¤ĸà¤ª": 1514,
      "Ġà¤¶à¤¶": 1515,
      "à¤¨à¤¶": 1516,
      "à¤«à¤¨": 1517,
      "à¤łà¤¤": 1518,
      "à¤ĩà¤¨à¤°": 1519,
      "Ġà¤Ńà¤ľà¤¨": 1520,
      "Ġà¤¬à¤°à¤ķà¤°": 1521,
      "Ġà¤¬à¤¸à¤ª": 1522,
      "à¤¾à¤ĥ": 1523,
      "à¤¼à¥Į": 1524,
      "Ġà¤¨à¤¡": 1525,
      "Ġà¤Ĺà¤¹à¤¨": 1526,
      "à¤ĩà¤¡à¤²": 1527,
      "Ġà¤ħà¤Ńà¤¯": 1528,
      "Ġà¤Ĺà¤¦": 1529,
      "à¤¹à¤µ": 1530,
      "Ġà¤¥à¤®": 1531,
      "Ġà¤ĳà¤¨": 1532,
      "à¤¦à¤°à¤¤": 1533,
      "à¤ħà¤®": 1534,
      "Ġà¤Ĺà¤®": 1535,
      "Ġà¥«": 1536,
      "Ġà¤ħà¤¨à¤¨": 1537,
      "à¤ķà¤ķà¤°": 1538,
      "à¤ªà¤°à¤¸": 1539,
      "Ġà¤ħà¤«à¤µ": 1540,
      "à¤«à¤°à¤ª": 1541,
      "Ġà¤®à¤¦à¤¨": 1542,
      "à¤Ļ": 1543,
      "Ġà¤¨à¤¬": 1544,
      "Ġà¤Ĩà¤Ł": 1545,
      "Ġà¤¸à¤¹à¤ķ": 1546,
      "Ġà¤®à¤ª": 1547,
      "Ġà¤īà¤¬": 1548,
      "à¤¹à¤¡": 1549,
      "Ġà¤¨à¤µà¤¨": 1550,
      "Ġà¤Ľà¤ª": 1551,
      "à¤ľà¤Ń": 1552,
      "à¤¤à¤°à¤ķ": 1553,
      "à¤Ĺà¤°à¤£": 1554,
      "à¤ĵà¤Ĺ": 1555,
      "Ġà¤īà¤¦à¤¯à¤ª": 1556,
      "à¤¨à¤¡": 1557,
      "Ġà¤¨à¤°à¤¸": 1558,
      "Ġà¤ĩà¤Ł": 1559,
      "à¤ķà¤ļ": 1560,
      "à¤¶à¤¸": 1561,
      "à¤¥à¤¡": 1562,
      "Ġà¤ĺà¤¬à¤°": 1563,
      "Ġà¤µà¤¶": 1564,
      "Ġà¤Ŀà¤²à¤ķ": 1565,
      "Ġà¤ĵà¤Ł": 1566,
      "à¤¯à¤¤à¤¨": 1567,
      "Ġà¤ľà¤Ĺà¤¦": 1568,
      "Ġà¤ļà¤®à¤¤": 1569,
      "Ġà¤®à¤¹à¤°": 1570,
      "à¤Ĺà¤²à¤ª": 1571,
      "Ġà¤ªà¤¤à¤²": 1572,
      "Ġà¤¯à¤ľ": 1573,
      "à¤Ĺà¤£à¤¨": 1574,
      "à¤°à¤¤à¤®": 1575,
      "Ġà¤°à¤£à¤µ": 1576,
      "Ġà¤¤à¤¹": 1577,
      "à¤°à¤ķà¤°à¤£": 1578,
      "à¤ĩà¤¡à¤°": 1579,
      "à¤¸à¤¨à¤²": 1580,
      "Ġà¤Ĩà¤¡": 1581,
      "à¤¥à¤ª": 1582,
      "Ġà¤ħà¤¹à¤¸": 1583,
      "Ġà¤ıà¤²à¤°": 1584,
      "à¤°à¤¨à¤Ĺà¤°": 1585,
      "à¤°à¤¡": 1586,
      "Ġà¤¸à¤¤à¤¹": 1587,
      "à¤Łà¤°à¤ª": 1588,
      "Ġà¤¨à¤ķà¤¦": 1589,
      "à¤²à¤Ŀ": 1590,
      "Ġà¤ħà¤ľà¤¬à¤Ĺà¤ľ": 1591,
      "à¤ĳà¤°": 1592,
      "à¤ĭ": 1593,
      "Ġà¤°à¤ķà¤®": 1594,
      "à¤Ĺà¤ªà¤¤": 1595,
      "à¤ĩà¤Ĺà¤°": 1596,
      "à¤¶à¤Ńà¤ķ": 1597,
      "Ġà¤¸à¤Ĭà¤¦": 1598,
      "à¤ªà¤¬": 1599,
      "Ġà¤ªà¤ł": 1600,
      "à¤ķà¤¬": 1601,
      "Ġà¤µà¤¨à¤¡": 1602,
      "à¤¸à¤°à¤¸": 1603,
      "à¤¤à¤°à¤¦": 1604,
      "Ġà¤ħà¤ķà¤¡": 1605,
      "à¤Ĺà¤ķ": 1606,
      "Ġà¤ıà¤¬": 1607,
      "à¤ķà¤ķ": 1608,
      "Ġà¤Ľà¤²": 1609,
      "Ġà¤¦à¤°à¤¬": 1610,
      "à¤ļà¤¸": 1611,
      "Ġà¤Ķà¤°à¤¯": 1612,
      "Ġà¤°à¤¬": 1613,
      "à¤¸à¤Ĺ": 1614,
      "à¤·à¤Ń": 1615,
      "Ġà¤£": 1616,
      "à¤¶à¤ĸà¤¬à¤°": 1617,
      "Ġà¤ľà¤²à¤¨": 1618,
      "Ġà¤¶à¤¤à¤ķ": 1619,
      "Ġà¤ĩà¤ľà¤°": 1620,
      "Ġà¤Ĩà¤ĩà¤¸": 1621,
      "à¤ĩà¤®à¤°": 1622,
      "à¤¹à¤«": 1623,
      "Ġà¤ıà¤ķà¤ľ": 1624,
      "à¤ľà¤¶": 1625,
      "à¤Ńà¤¯": 1626,
      "Ġà¤ħà¤¸à¤¹": 1627,
      "Ġà¤ħà¤µà¤Ĺà¤¤": 1628,
      "à¤¼à¥ĩà¥¤": 1629,
      "Ġà¤ħà¤·": 1630,
      "Ġà¤ĳà¤¯à¤²": 1631,
      "à¤Ĩà¤Īà¤¸": 1632,
      "Ġà¤īà¤²à¤Ŀ": 1633,
      "à¤ħà¤Ń": 1634,
      "à¤ļà¤°à¤£": 1635,
      "à¤ıà¤µ": 1636,
      "à¤ĩà¤Łà¤®": 1637,
      "Ġà¤¸à¤Ĺ": 1638,
      "à¤¸à¤¡": 1639,
      "à¤Ĺà¤Łà¤¨": 1640,
      "Ġà¤īà¤łà¤¨": 1641,
      "à¤®à¤Ń": 1642,
      "à¤ķà¤Ĺ": 1643,
      "à¤®à¤ķà¤¤": 1644,
      "Ġà¤ħà¤¨à¤ľ": 1645,
      "Ġà¤ħà¤²à¤µ": 1646,
      "Ġà¤ªà¤²à¤Ł": 1647,
      "à¤ķà¤Ī": 1648,
      "Ġà¤īà¤¦à¤¯": 1649,
      "à¤ķà¤Łà¤°": 1650,
      "à¤łà¤ķà¤°": 1651,
      "Ġà¤¤à¤²à¤µ": 1652,
      "Ġà¤ħà¤ľà¤®": 1653,
      "Ġà¤Ĩà¤ªà¤°": 1654,
      "à¤®à¤ļà¤°": 1655,
      "à¥Ģà¤ĥ": 1656,
      "à¤«à¤²à¤¤": 1657,
      "Ġà¤Ĩà¤Ĺà¤®à¤¨": 1658,
      "à¤Ĩà¤®": 1659,
      "Ġà¤ıà¤ķà¤²": 1660,
      "Ġà¤ıà¤®à¤ıà¤¸": 1661,
      "Ġà¤ªà¤°à¤¤": 1662,
      "Ġà¤ĩà¤¸à¤¨": 1663,
      "à¤¨à¤ĸ": 1664,
      "Ġà¤Ľà¤ķ": 1665,
      "Ġà¤ªà¤ª": 1666,
      "Ġà¤ĩà¤Łà¤²": 1667,
      "à¤Ĳà¤ª": 1668,
      "Ġà¤Ĺà¤ľà¤¬": 1669,
      "Ġà¤ªà¤°à¤¸": 1670,
      "Ġà¤ķà¤¥à¤¨": 1671,
      "à¤¨à¤µà¤¤": 1672,
      "à¤Łà¤°à¤¸": 1673,
      "Ġà¤ķà¤¹à¤ķà¤°": 1674,
      "Ġà¤Ĩà¤£à¤µ": 1675,
      "à¤Īà¤ľ": 1676,
      "Ġà¤Ŀà¤Ĺà¤¡": 1677,
      "à¤¶à¤¨à¤ķ": 1678,
      "à¤²à¤ªà¤¤": 1679,
      "à¤¯à¤Ń": 1680,
      "Ġà¤®à¤¹à¤¬": 1681,
      "Ġà¤¸à¤®à¤Ĺ": 1682,
      "à¤°à¤®à¤¶": 1683,
      "Ġà¤ħà¤ªà¤¹à¤°à¤£": 1684,
      "Ġà¤¹à¤°à¤¦": 1685,
      "à¤Īà¤¬": 1686,
      "à¤Ĺà¤¬": 1687,
      "Ġà¤Ĩà¤ľà¤®à¤Ĺà¤¢": 1688,
      "Ġà¤Īà¤Ł": 1689,
      "à¤¦à¤Ń": 1690,
      "Ġà¤°à¤¹à¤ķà¤°": 1691,
      "Ġà¤ıà¤ķà¤ıà¤ķ": 1692,
      "Ġà¤ĩà¤¨à¤ķà¤®": 1693,
      "Ġà¤ľà¤¶": 1694,
      "Ġà¤Ĩà¤ī": 1695,
      "Ġà¤īà¤Ń": 1696,
      "Ġà¤¸à¤®à¤²": 1697,
      "Ġà¤Ĩà¤¸à¤¨": 1698,
      "Ġà¤īà¤ªà¤¦": 1699,
      "Ġà¤¹à¤¬": 1700,
      "Ġà¤ļà¤°à¤®": 1701,
      "Ġà¤¦à¤¶à¤¹à¤°": 1702,
      "Ġà¤¦à¤®à¤¦": 1703,
      "Ġà¤ĩà¤¨à¤«": 1704,
      "Ġà¤°à¤¥": 1705,
      "à¤ģà¥¤": 1706,
      "Ġà¤ħà¤µà¤²": 1707,
      "à¤µà¤¯à¤¨": 1708,
      "Ġà¤Ĩà¤ĵ": 1709,
      "à¤ħà¤§": 1710,
      "Ġà¤°à¤¤à¤¨": 1711,
      "à¤°à¤ļà¤²": 1712,
      "Ġà¤Łà¤®": 1713,
      "à¤Ĩà¤Īà¤ı": 1714,
      "Ġà¤ĩà¤ķà¤Ł": 1715,
      "Ġà¤ªà¤²à¤Łà¤µ": 1716,
      "Ġà¤®à¤¸à¤²": 1717,
      "Ġà¤Īà¤¯à¤°": 1718,
      "à¤ĸà¤Ł": 1719,
      "à¤ļà¤¤à¤®": 1720,
      "Ġà¤°à¤¹à¤®": 1721,
      "à¤īà¤¡": 1722,
      "à¤¨à¤¹à¤°": 1723,
      "Ġà¤Ĩà¤²à¤®": 1724,
      "à¤¼à¤Ĥ": 1725,
      "Ġà¤¤à¤ķà¤²": 1726,
      "Ġà¤ĸà¤²": 1727,
      "à¤¯à¤°à¤¨": 1728,
      "Ġà¤ħà¤µà¤°": 1729,
      "Ġà¤¶à¤¹à¤¦": 1730,
      "Ġà¤ķà¤ļà¤°": 1731,
      "à¤¯à¤¶à¤¹à¤°": 1732,
      "Ġà¤ħà¤¨à¤²": 1733,
      "à¤°à¤¬à¤²": 1734,
      "à¤¹à¤¹": 1735,
      "à¤Ĩà¤§": 1736,
      "Ġà¤Ĩà¤°à¤ıà¤¸à¤ıà¤¸": 1737,
      "à¤¸à¤ľ": 1738,
      "Ġà¤īà¤Ńà¤°": 1739,
      "Ġà¤ıà¤¥à¤²": 1740,
      "Ġà¤«à¤Łà¤ķ": 1741,
      "à¤¼à¥ĩà¤Ĥà¥¤": 1742,
      "à¤ĵà¤²": 1743,
      "à¤ĩà¤ķà¤²": 1744,
      "Ġà¤īà¤®à¤¡": 1745,
      "Ġà¤ĸà¤¨à¤¨": 1746,
      "Ġà¤Īà¤ķ": 1747,
      "Ġà¤ĩà¤®à¤°à¤ľ": 1748,
      "à¤¶à¤¨à¤°": 1749,
      "à¤°à¤¤à¤¤": 1750,
      "à¤Īà¤¦": 1751,
      "Ġà¤ĺà¤Łà¤ķ": 1752,
      "Ġà¤²à¤¹": 1753,
      "à¤Ĩà¤ª": 1754,
      "Ġà¤¬à¤¬": 1755,
      "Ġà¥¬": 1756,
      "à¤·à¤µà¤°": 1757,
      "à¤ĩà¤¶": 1758,
      "Ġà¤®à¤ķà¤¸": 1759,
      "à¤·à¤Ŀà¤¤": 1760,
      "Ġà¤īà¤Ľ": 1761,
      "à¤Īà¤ª": 1762,
      "Ġà¤Ĩà¤®à¤¨": 1763,
      "à¤¬à¤¬": 1764,
      "Ġà¤ªà¤¢à¤¨": 1765,
      "Ġà¤ħà¤Łà¤ķ": 1766,
      "Ġà¤¤à¤°à¤ķ": 1767,
      "à¤¡à¤¶": 1768,
      "à¤ıà¤ļà¤ĵ": 1769,
      "à¤°à¤¹à¤µ": 1770,
      "à¤¸à¤Ĳà¤ª": 1771,
      "à¤°à¤¤à¤ª": 1772,
      "à¤ĩà¤Łà¤°": 1773,
      "Ġà¤¬à¤ķà¤°": 1774,
      "Ġà¤¸à¤¨à¤¸à¤¨": 1775,
      "Ġà¤¸à¤¹à¤°": 1776,
      "à¤¥à¤¶": 1777,
      "à¤°à¤µà¤£": 1778,
      "Ġà¤Ŀà¤°": 1779,
      "à¤¡à¤ķà¤°à¤¨à¤Ĺà¤°": 1780,
      "Ġà¥¯": 1781,
      "à¤°à¤¹à¤°": 1782,
      "Ġà¤ħà¤®à¤¨": 1783,
      "Ġà¤®à¤°à¤®": 1784,
      "Ġà¤Ĩà¤Īà¤ıà¤ıà¤¸": 1785,
      "Ġà¤Ĩà¤Īà¤Ĩà¤Īà¤Ł": 1786,
      "à¤°à¤¨à¤ª": 1787,
      "à¤¸à¤¹": 1788,
      "Ġà¤ķà¤Łà¤°": 1789,
      "à¤®à¤Ł": 1790,
      "Ġà¤ĳà¤¬": 1791,
      "Ġà¤¬à¤Ĺà¤²": 1792,
      "Ġà¤ķà¤«": 1793,
      "Ġà¤®à¤ķà¤¸à¤¦": 1794,
      "à¤°à¤¬à¤¨": 1795,
      "Ġà¤µà¤²": 1796,
      "Ġà¤Ĳà¤°": 1797,
      "à¤¼à¥Ģà¥¤": 1798,
      "à¤¶à¤¸à¤®": 1799,
      "à¤īà¤²": 1800,
      "à¤Ĺà¤ļ": 1801,
      "Ġà¤Ńà¤Łà¤ķ": 1802,
      "Ġà¤Ĩà¤ĩà¤¯": 1803,
      "Ġà¤ıà¤ķà¤¡": 1804,
      "à¤°à¤¹à¤®": 1805,
      "Ġà¤¨à¤«à¤°à¤¤": 1806,
      "Ġà¤§à¤µà¤¨": 1807,
      "Ġà¤Ĺà¤£à¤°": 1808,
      "Ġà¤ĸà¤£": 1809,
      "à¤¬à¤ª": 1810,
      "à¤Īà¤®": 1811,
      "Ġà¤³": 1812,
      "Ġà¤ķà¤ªà¤²": 1813,
      "Ġà¤¬à¤¹à¤¤": 1814,
      "Ġà¥Ń": 1815,
      "Ġà¤ħà¤¨à¤®": 1816,
      "à¤°à¤¤à¤µ": 1817,
      "Ġà¤Ĩà¤Īà¤ıà¤ıà¤¨à¤ıà¤¸": 1818,
      "Ġà¤¨à¤°à¤®": 1819,
      "Ġà¤¸à¤¦à¤°": 1820,
      "à¤°à¤Ł": 1821,
      "Ġà¤ıà¤®à¤¸": 1822,
      "Ġà¤ļà¤¶": 1823,
      "à¤ĩà¤¨à¤ħà¤ª": 1824,
      "Ġà¤ķà¤£": 1825,
      "à¤¯à¤µà¤°": 1826,
      "à¤ªà¤Ĺà¤¢": 1827,
      "à¤¯à¤«": 1828,
      "Ġà¤¶à¤®à¤¶": 1829,
      "Ġà¤ªà¤Łà¤°": 1830,
      "Ġà¤¦à¤¸à¤µ": 1831,
      "Ġà¤Ĺà¤§": 1832,
      "à¤Ĺà¤Ł": 1833,
      "à¤ľà¤®à¤¹à¤²": 1834,
      "Ġà¤®à¤¦à¤¦à¤Ĺ": 1835,
      "Ġà¤įà¤ª": 1836,
      "Ġà¤īà¤ªà¤®": 1837,
      "à¤Ĩà¤°à¤¸": 1838,
      "Ġà¤¨à¤ª": 1839,
      "à¥Ģà¥°": 1840,
      "Ġà¤Ĩà¤Īà¤«": 1841,
      "Ġà¤¦à¤¹à¤¶à¤¤": 1842,
      "à¤ĩà¤¡à¤¨": 1843,
      "à¤¨à¤ľà¤°": 1844,
      "Ġà¤ľà¤¸à¤ª": 1845,
      "Ġà¤ľà¤¬à¤°à¤¨": 1846,
      "à¤¥à¤¤": 1847,
      "à¤¯à¤«à¤²": 1848,
      "à¥ĩà¥ĩ": 1849,
      "à¤©": 1850,
      "à¤¯à¤¸à¤µ": 1851,
      "Ġà¤Ķà¤ªà¤ļ": 1852,
      "à¤«à¤°à¤¨à¤Ĺà¤°": 1853,
      "à¤ªà¤£à¤¨": 1854,
      "Ġà¥¨à¥¦à¥§à¥": 1855,
      "Ġà¤ľà¤¯à¤°": 1856,
      "Ġà¤ħà¤ľà¤¬à¤Ĺà¤ľà¤¬": 1857,
      "Ġà¤Ĩà¤¡à¤µ": 1858,
      "Ġà¤ĵà¤¸": 1859,
      "Ġà¤ıà¤¨à¤µ": 1860,
      "à¤¹à¤Ĺ": 1861,
      "Ġà¤¤à¤ª": 1862,
      "Ġà¤ħà¤µà¤ķ": 1863,
      "à¤ıà¤¸à¤Ĩà¤Ī": 1864,
      "à¤ľà¤°à¤¨": 1865,
      "Ġà¤ĺà¤£": 1866,
      "Ġà¤Ĩà¤°à¤¬": 1867,
      "à¤¦à¤ķà¤°": 1868,
      "à¤§à¤¶": 1869,
      "à¤ıà¤ļà¤¡": 1870,
      "Ġà¤ıà¤¸à¤Ł": 1871,
      "Ġà¤·à¤¡": 1872,
      "Ġà¤¸à¤¹à¤¨": 1873,
      "Ġà¤ıà¤²à¤Īà¤¡": 1874,
      "à¤¢à¤¨": 1875,
      "à¤¾à¥ĩà¤Ĥ": 1876,
      "à¤¤à¤«": 1877,
      "Ġà¤ĸà¤¦": 1878,
      "à¤§à¤°à¤£": 1879,
      "Ġà¤¬à¤ľà¤°": 1880,
      "à¤£à¤ªà¤¤": 1881,
      "à¤¡à¤«": 1882,
      "à¤ĩà¤°": 1883,
      "Ġà¤Ĩà¤¯à¤ķà¤°": 1884,
      "à¤ıà¤Łà¤°": 1885,
      "Ġà¤«à¤¹à¤°": 1886,
      "Ġà¤¸à¤¹à¤¸": 1887,
      "Ġà¤Ĩà¤ĩà¤¡": 1888,
      "à¤ķà¤Ĩà¤īà¤Ł": 1889,
      "Ġà¤ĵà¤ķ": 1890,
      "à¤®à¤¦à¤°": 1891,
      "Ġà¤ķà¤¸à¤°à¤¤": 1892,
      "Ġà¤ªà¤°à¤ĸ": 1893,
      "Ġà¤ħà¤¬à¤¤à¤ķ": 1894,
      "Ġà¤¬à¤²à¤°": 1895,
      "Ġà¤ĩà¤£": 1896,
      "Ġà¤ıà¤¨à¤ķ": 1897,
      "à¤¿à¤¼": 1898,
      "Ġà¤ªà¤¨à¤µ": 1899,
      "à¤¥à¤¬": 1900,
      "à¤°à¤¤à¤¦": 1901,
      "Ġà¤®à¤Łà¤°": 1902,
      "Ġà¤Ĩà¤°à¤ª": 1903,
      "Ġà¤¡à¤°à¤¤": 1904,
      "Ġà¤®à¤¦à¤°à¤¸": 1905,
      "à¤Ńà¤¨": 1906,
      "Ġà¤¨à¤¹à¤°": 1907,
      "à¤ķà¤«": 1908,
      "Ġà¤®à¤ł": 1909,
      "à¤°à¤§à¤°": 1910,
      "à¤¸à¤ĳà¤°": 1911,
      "à¤¹à¤ľà¤¹": 1912,
      "Ġà¤ıà¤¨à¤°": 1913,
      "Ġà¤īà¤¤à¤°à¤¨": 1914,
      "à¤Ŀà¤ķ": 1915,
      "à¤¬à¤µ": 1916,
      "Ġà¤Īà¤¡": 1917,
      "à¤µà¤¨à¤¸": 1918,
      "à¤īà¤°": 1919,
      "Ġà¤µà¤§": 1920,
      "Ġà¤ıà¤¸à¤¯": 1921,
      "Ġà¤¡à¤ķ": 1922,
      "Ġà¤Ĩà¤ļà¤°à¤£": 1923,
      "Ġà¤Ĺà¤¡à¤ķà¤°": 1924,
      "Ġà¤¸à¤¤à¤¤": 1925,
      "Ġà¤ľà¤ĸ": 1926,
      "Ġà¤²à¤¹à¤¸": 1927,
      "à¤¬à¤®": 1928,
      "à¤¤à¤²à¤¹à¤°": 1929,
      "à¤·à¤¸": 1930,
      "à¤¸à¤°à¤£": 1931,
      "Ġà¤¹à¤Łà¤ķ": 1932,
      "à¤ªà¤¹": 1933,
      "Ġà¤ħà¤¥": 1934,
      "à¤ªà¤ª": 1935,
      "Ġà¤ıà¤®à¤¬": 1936,
      "Ġà¤ªà¤Ľ": 1937,
      "Ġà¤ĩà¤¸à¤°": 1938,
      "Ġà¥§à¥¦": 1939,
      "à¤ªà¤¶": 1940,
      "à¤ĸà¤µ": 1941,
      "à¤µà¤Ĺà¤¨": 1942,
      "Ġà¤°à¤ľà¤¤": 1943,
      "à¤°à¤ħ": 1944,
      "Ġà¤ķà¤¤à¤°": 1945,
      "à¤ĳà¤«": 1946,
      "Ġà¤®à¤²à¤¯": 1947,
      "Ġà¤īà¤ªà¤Ĺ": 1948,
      "Ġà¤ħà¤¦à¤°à¤ķ": 1949,
      "à¤ıà¤¬": 1950,
      "à¤Łà¤°à¤®": 1951,
      "à¤®à¤¨à¤Ĺà¤°": 1952,
      "à¤Īà¤«": 1953,
      "Ġà¤īà¤ªà¤µ": 1954,
      "Ġà¤Ĩà¤°à¤¸": 1955,
      "à¤½": 1956,
      "à¤¦à¤°à¤²": 1957,
      "Ġà¥§à¥¨": 1958,
      "Ġà¥Ĳ": 1959,
      "à¤¯à¤¬à¤°": 1960,
      "à¤¹à¤¤à¤ķ": 1961,
      "à¤²à¤²": 1962,
      "à¤°à¤Ľ": 1963,
      "Ġà¤Łà¤²": 1964,
      "Ġà¤®à¤¹à¤®": 1965,
      "Ġà¤¸à¤Īà¤¦": 1966,
      "à¤«à¤Ł": 1967,
      "Ġà¤ıà¤¸à¤¬": 1968,
      "à¤¯à¤°à¤ªà¤°": 1969,
      "à¤¨à¤ªà¤°": 1970,
      "Ġà¤ľà¤®à¤¶": 1971,
      "à¤Ľà¤°": 1972,
      "Ġà¥§à¥«": 1973,
      "Ġà¤ĭà¤·à¤Ń": 1974,
      "Ġà¤ªà¤µà¤Ī": 1975,
      "à¤¶à¤ľ": 1976,
      "Ġà¤µà¤«": 1977,
      "Ġà¤ħà¤¨à¤¦": 1978,
      "Ġà¤Ĩà¤°à¤®": 1979,
      "à¤¸à¤°à¤¤": 1980,
      "à¤¶à¤ķà¤°": 1981,
      "à¤¤à¤¸à¤°": 1982,
      "à¤µà¤ķà¤°": 1983,
      "Ġà¤ĳà¤«à¤²": 1984,
      "Ġà¤Ĩà¤ĩà¤Łà¤®": 1985,
      "Ġà¤ļà¤²à¤ķà¤°": 1986,
      "à¤µà¤²à¤ªà¤®": 1987,
      "Ġà¤ıà¤®à¤¡": 1988,
      "Ġà¤«à¤°à¤®": 1989,
      "à¤²à¤¶": 1990,
      "Ġà¤Ĩà¤łà¤µ": 1991,
      "Ġà¤ľà¤¨à¤ª": 1992,
      "à¤Ńà¤²": 1993,
      "Ġà¤ıà¤®à¤ıà¤²": 1994,
      "à¤¤à¤®à¤¨": 1995,
      "Ġà¤Ńà¤¸": 1996,
      "à¤®à¤°à¤¸": 1997,
      "Ġà¤§à¤¨à¤°": 1998,
      "à¤®à¤ĸ": 1999,
      "Ġà¤¢à¤ķ": 2000,
      "Ġà¤ıà¤¨à¤ľ": 2001,
      "à¤Łà¤Ĺ": 2002,
      "Ġà¤²à¤ļ": 2003,
      "Ġà¤¬à¤°à¤¤à¤¨": 2004,
      "à¤¨à¤«": 2005,
      "Ġà¥§à¥®": 2006,
      "à¤ĳà¤ķ": 2007,
      "Ġà¤«à¤¡": 2008,
      "Ġà¤ĩà¤ķà¤¬": 2009,
      "à¤Ĥà¥°": 2010,
      "Ġà¤°à¤ĸà¤°à¤ĸ": 2011,
      "Ġà¤Ĩà¤ķà¤²à¤¨": 2012,
      "à¤ıà¤®à¤ĵ": 2013,
      "à¤ľà¤°à¤¤": 2014,
      "à¤ªà¤°à¤¹": 2015,
      "à¤ıà¤¨à¤¯": 2016,
      "à¤®à¤ķà¤¥": 2017,
      "à¤¨à¤Ńà¤°": 2018,
      "à¤¿à¥°": 2019,
      "à¤ĵà¤ıà¤¸": 2020,
      "à¥Ģà¤ģ": 2021,
      "Ġà¤ıà¤Ĩà¤Ī": 2022,
      "à¤Łà¤°à¤¨à¤²": 2023,
      "Ġà¤ľà¤¨à¤®": 2024,
      "à¤¤à¤¹": 2025,
      "à¤¯à¤ħ": 2026,
      "Ġà¤ļà¤¹": 2027,
      "à¤ĵà¤®": 2028,
      "à¤ĸà¤²à¤¨": 2029,
      "Ġà¤ķà¤¯": 2030,
      "à¤ıà¤¨à¤ı": 2031,
      "Ġà¤Ĩà¤ķà¤¸": 2032,
      "Ġà¥®": 2033,
      "Ġà¤¤à¤ªà¤¸": 2034,
      "Ġà¤Ńà¤Ĺà¤µà¤¤": 2035,
      "à¥ĩà¥°": 2036,
      "Ġà¤§à¤®à¤¨": 2037,
      "Ġà¤ªà¤²à¤ķ": 2038,
      "Ġà¥¨à¥¦à¥¦": 2039,
      "Ġà¤¸à¤ļà¤®": 2040,
      "Ġà¤ĵà¤¹": 2041,
      "à¤ŀà¤¤": 2042,
      "à¤ļà¤¡": 2043,
      "Ġà¤Ĩà¤¯à¤°à¤¨": 2044,
      "Ġà¤¸à¤®à¤Ŀà¤¦": 2045,
      "à¤§à¤®": 2046,
      "Ġà¤¨à¤®à¤¨": 2047,
      "Ġà¤ħà¤²à¤ķ": 2048,
      "à¤²à¤¨à¤ķ": 2049,
      "Ġà¤¸à¤¡à¤ķ": 2050,
      "Ġà¤¸à¤ľà¤Ĺ": 2051,
      "Ġà¤ªà¤Łà¤µ": 2052,
      "à¤ıà¤Ī": 2053,
      "à¤ĵà¤ª": 2054,
      "à¤µà¤°à¤ķ": 2055,
      "à¤±": 2056,
      "à¤¬à¤Ĺ": 2057,
      "à¤ĵà¤¨": 2058,
      "à¤Ĩà¤°à¤Ł": 2059,
      "à¤Īà¤Ī": 2060,
      "à¤Ĩà¤ĩ": 2061,
      "à¤ĵà¤µ": 2062,
      "à¤·à¤Ĺ": 2063,
      "Ġà¤īà¤·": 2064,
      "Ġà¤ªà¤£": 2065,
      "Ġà¤īà¤²à¤Ł": 2066,
      "à¤¹à¤£": 2067,
      "Ġà¤ļà¤¡": 2068,
      "Ġà¤ıà¤®à¤ıà¤¸à¤ª": 2069,
      "Ġà¤¦à¤°à¤Ń": 2070,
      "Ġà¤Īà¤¦": 2071,
      "Ġà¤ľà¤¯à¤¶": 2072,
      "Ġà¤ħà¤µà¤¯à¤µ": 2073,
      "Ġà¤°à¤£à¤¬": 2074,
      "à¤®à¤µà¤°": 2075,
      "Ġà¤ħà¤¸à¤«à¤²": 2076,
      "à¤®à¤ķà¤°": 2077,
      "Ġà¤ľà¤Ĺà¤ľ": 2078,
      "Ġà¤ĩà¤¨à¤ª": 2079,
      "Ġà¤¤à¤ķà¤°": 2080,
      "à¤®à¤Ĺà¤¢": 2081,
      "Ġà¤ħà¤£": 2082,
      "à¤¤à¤°à¤¹": 2083,
      "Ġà¤ıà¤¸à¤ıà¤®à¤ıà¤¸": 2084,
      "à¤ķà¤£": 2085,
      "à¤ľà¤ķà¤°": 2086,
      "à¤ħà¤ķ": 2087,
      "Ġà¤°à¤®à¤¨": 2088,
      "à¤Łà¤ªà¤Ł": 2089,
      "à¤¤à¤¯": 2090,
      "à¤·à¤°à¤¤": 2091,
      "à¤ĵà¤¸": 2092,
      "Ġà¤ªà¤¹à¤²à¤µ": 2093,
      "Ġà¤īà¤ªà¤ķ": 2094,
      "Ġà¤¤à¤¬à¤²": 2095,
      "Ġà¤Ŀà¤°à¤¨": 2096,
      "Ġà¤¤à¤°à¤²": 2097,
      "à¤¥à¤²à¤®": 2098,
      "Ġà¤Ĺà¤£à¤ªà¤¤": 2099,
      "Ġà¤Ĳà¤¡": 2100,
      "à¤®à¤¶à¤²": 2101,
      "à¤¤à¤°à¤«": 2102,
      "à¤ĳà¤Ł": 2103,
      "à¤°à¤¸à¤¤": 2104,
      "Ġà¤¬à¤¦à¤²à¤ķà¤°": 2105,
      "à¤ĺà¤²": 2106,
      "Ġà¤ľà¤¨à¤Ĺà¤£à¤¨": 2107,
      "à¤¼à¥¤": 2108,
      "à¤ħà¤ĸ": 2109,
      "Ġà¤ĳà¤ªà¤¥à¤²à¤®": 2110,
      "à¤°à¤¸à¤µ": 2111,
      "Ġà¤µà¤°à¤¦": 2112,
      "à¤°à¤ļà¤¢": 2113,
      "à¤ıà¤®à¤Ĩà¤Ī": 2114,
      "à¥¨à¥¦": 2115,
      "Ġà¤ĩà¤°à¤«": 2116,
      "Ġà¤ħà¤Łà¤ķà¤²": 2117,
      "à¥īà¤Ĥ": 2118,
      "Ġà¤ıà¤¸à¤ıà¤¸à¤ª": 2119,
      "à¤¯à¤ļ": 2120,
      "à¤Łà¤Ł": 2121,
      "à¤°à¤¯à¤¤": 2122,
      "Ġà¤¤à¤ĸ": 2123,
      "Ġà¤ļà¤ļ": 2124,
      "Ġà¤ĳà¤¬à¤¸": 2125,
      "à¤¤à¤¶": 2126,
      "à¤µà¤°à¤ķà¤°": 2127,
      "Ġà¤ªà¤¥à¤°": 2128,
      "à¤Ŀà¤ªà¤¨": 2129,
      "à¤Ĺà¤łà¤¬": 2130,
      "Ġà¤®à¤¨à¤°": 2131,
      "à¤Ĩà¤Īà¤ª": 2132,
      "Ġà¤ıà¤¸à¤¸": 2133,
      "Ġà¤®à¤Łà¤ķ": 2134,
      "Ġà¤¶à¤¹à¤¨": 2135,
      "Ġà¤ıà¤µà¤®": 2136,
      "à¤¨à¤¸à¤°": 2137,
      "Ġà¤®à¤¤à¤Ń": 2138,
      "Ġà¤µà¤¡": 2139,
      "Ġà¥¥": 2140,
      "Ġà¤ľà¤¦à¤¯": 2141,
      "à¤ıà¤¸à¤¬": 2142,
      "Ġà¤«à¤²à¤¸": 2143,
      "à¤Ĩà¤ĩà¤¸": 2144,
      "Ġà¤ªà¤°à¤¦": 2145,
      "Ġà¤ĸà¤Ĺ": 2146,
      "Ġà¤ķà¤Łà¤¨": 2147,
      "Ġà¤¬à¤¶": 2148,
      "à¤¯à¤ľà¤¨à¤ķ": 2149,
      "Ġà¤ľà¤²à¤¤": 2150,
      "à¤§à¤¶à¤¤à¤ķ": 2151,
      "Ġà¤ıà¤¯à¤°à¤²": 2152,
      "Ġà¤§à¤¨à¤¬": 2153,
      "à¤¡à¤Ĺ": 2154,
      "à¥§à¥¦": 2155,
      "à¤Łà¤°à¤«": 2156,
      "à¤¬à¤²à¤ª": 2157,
      "à¤ıà¤«à¤¸": 2158,
      "à¤®à¤¡": 2159,
      "Ġà¤²à¤ª": 2160,
      "à¤¯à¤°à¤µ": 2161,
      "Ġà¤ħà¤¸à¤®à¤°": 2162,
      "Ġà¤ħà¤«à¤¸": 2163,
      "à¤Łà¤²à¤°": 2164,
      "à¤¨à¤ľà¤¨": 2165,
      "à¤ĩà¤ļ": 2166,
      "Ġà¤ĸà¤ªà¤¤": 2167,
      "Ġà¤¤à¤²à¤¬": 2168,
      "à¤·à¤ª": 2169,
      "Ġà¤Łà¤ļ": 2170,
      "Ġà¤īà¤¬à¤°": 2171,
      "à¤ıà¤®à¤ª": 2172,
      "à¤Łà¤ĩ": 2173,
      "Ġà¤¦à¤®à¤¨": 2174,
      "Ġà¤ıà¤®à¤ı": 2175,
      "Ġà¤¸à¤¤à¤¨": 2176,
      "à¤Ńà¤ª": 2177,
      "Ġà¤Ľà¤¤à¤°à¤ª": 2178,
      "à¤¶à¤īà¤¤": 2179,
      "Ġà¤®à¤²à¤¬": 2180,
      "à¤§à¤²": 2181,
      "Ġà¤ªà¤Łà¤ķ": 2182,
      "Ġà¤ªà¤¹à¤¨à¤¤": 2183,
      "à¤Ĩà¤¯": 2184,
      "Ġà¤µà¤¨à¤¸": 2185,
      "Ġà¤¤à¤¹à¤°": 2186,
      "Ġà¤ħà¤°à¤®": 2187,
      "Ġà¤ħà¤µà¤¨": 2188,
      "Ġà¤¯à¤¤": 2189,
      "à¥Ĥà¥°": 2190,
      "à¤¬à¤°à¤®": 2191,
      "à¤®à¤¸à¤®": 2192,
      "Ġà¤Ĩà¤Īà¤¨": 2193,
      "à¤ĸà¤¬": 2194,
      "Ġà¤ĺà¤®": 2195,
      "Ġà¤ıà¤¨à¤ıà¤ļ": 2196,
      "Ġà¤ľà¤²à¤ª": 2197,
      "à¤°à¤¸à¤°": 2198,
      "Ġà¤¸à¤¬à¤®": 2199,
      "Ġà¤ªà¤¹à¤¨à¤ķà¤°": 2200,
      "Ġà¤ľà¤¨à¤¹": 2201,
      "Ġà¤¨à¤Ł": 2202,
      "à¤¬à¤ļ": 2203,
      "Ġà¤Ľà¤ªà¤°": 2204,
      "Ġà¤¨à¤µà¤Ń": 2205,
      "Ġà¤ľà¤¯à¤¦": 2206,
      "à¤¯à¤°à¤ķ": 2207,
      "à¤ķà¤ĳà¤Ł": 2208,
      "à¤°à¤ķà¤²": 2209,
      "Ġà¤ªà¤°à¤¹": 2210,
      "à¤ĸà¤ĸ": 2211,
      "à¤ķà¤²à¤ķ": 2212,
      "à¤ĩà¤®à¤«": 2213,
      "à¤¯à¤£à¤®à¤¹": 2214,
      "Ġà¤ĵà¤Ŀ": 2215,
      "à¤¨à¤Ĩà¤ľ": 2216,
      "Ġà¤¬à¤¦à¤°": 2217,
      "à¤Ŀà¤®": 2218,
      "à¤ĩà¤Łà¤²": 2219,
      "Ġà¤ıà¤¨à¤ıà¤¸": 2220,
      "à¤ªà¤µ": 2221,
      "à¤«à¤²à¤Ĩà¤ľ": 2222,
      "à¤®à¤Ĩà¤¨": 2223,
      "à¤ķà¤¤à¤µà¤°": 2224,
      "à¤°à¤¹à¤°à¤¤": 2225,
      "à¤ĸà¤¨à¤µà¤Ĺ": 2226,
      "à¤¨à¤¸à¤Ĩà¤²": 2227,
      "à¤ĩà¤²à¤®à¤§": 2228,
      "à¤ķà¤¸à¤¸à¤²à¤®": 2229,
      "Ġà¤ľà¤¨à¤¸à¤Ń": 2230,
      "Ġà¤Ĩà¤®à¤¦à¤¨": 2231,
      "Ġà¤Ĩà¤īà¤Łà¤²": 2232,
      "Ġà¤ľà¤Ĺà¤¨": 2233,
      "à¤ĩà¤Ĺ": 2234,
      "Ġà¥¨à¥¨": 2235,
      "Ġà¤ıà¤¯à¤°à¤Ł": 2236,
      "Ġà¤ħà¤ªà¤µ": 2237,
      "Ġà¤ĺà¤¨à¤¶": 2238,
      "à¤¨à¤Ńà¤¦": 2239,
      "à¤¸à¤¶": 2240,
      "à¤²à¤¶à¤¨": 2241,
      "Ġà¤¶à¤¹à¤¡": 2242,
      "Ġà¤¹à¤®à¤ķ": 2243,
      "Ġà¤ĺà¤°à¤ĺà¤°": 2244,
      "Ġà¤¸à¤¹à¤Ń": 2245,
      "Ġà¤ļà¤Łà¤¨": 2246,
      "à¤ĩà¤¸à¤ķ": 2247,
      "à¤Ĳà¤¸": 2248,
      "à¤Ĺà¤«à¤²": 2249,
      "à¤ıà¤¸à¤ıà¤«": 2250,
      "Ġà¤īà¤ĸ": 2251,
      "à¤§à¤¸": 2252,
      "Ġà¤¯à¤¶à¤µ": 2253,
      "à¤ĩà¤¤": 2254,
      "Ġà¤ħà¤²à¤µà¤°": 2255,
      "Ġà¤®à¤Ĺ": 2256,
      "Ġà¤«à¤¨": 2257,
      "Ġà¤ľà¤ª": 2258,
      "à¤ıà¤¨à¤ľ": 2259,
      "Ġà¤°à¤Ĺà¤¡": 2260,
      "à¤²à¤¹à¤°": 2261,
      "à¤µà¤¶à¤ķ": 2262,
      "Ġà¤¹à¤°à¤¸": 2263,
      "Ġà¤ľà¤¨à¤¨": 2264,
      "Ġà¤ļà¤¬": 2265,
      "à¤ĩà¤«à¤²": 2266,
      "Ġà¤ħà¤¨à¤¸": 2267,
      "à¤Łà¤¹": 2268,
      "Ġà¤ķà¤¬à¤¡": 2269,
      "Ġà¤Ľà¤²à¤ķ": 2270,
      "Ġà¥¦": 2271,
      "Ġà¤Ĭà¤¨": 2272,
      "Ġà¤ķà¤²à¤ķà¤¤": 2273,
      "à¤Łà¤¦": 2274,
      "Ġà¤ħà¤¨à¤¶à¤¨": 2275,
      "Ġà¤§à¤¨à¤¤": 2276,
      "Ġà¤Ńà¤°à¤ķà¤°": 2277,
      "à¤Ĩà¤ªà¤ķ": 2278,
      "Ġà¤ªà¤¸à¤¨": 2279,
      "à¤²à¤Ł": 2280,
      "à¤īà¤£": 2281,
      "à¤¶à¤²à¤¤": 2282,
      "à¤¦à¤¨à¤¤": 2283,
      "Ġà¤®à¤¶à¤°": 2284,
      "à¤Łà¤®à¤°": 2285,
      "Ġà¤ıà¤®à¤Ĩà¤Ī": 2286,
      "à¤¥à¤°à¤¸": 2287,
      "Ġà¤¦à¤¹à¤²": 2288,
      "Ġà¤°à¤¤à¤²": 2289,
      "à¤Ĺà¤¯": 2290,
      "à¥§à¥ª": 2291,
      "Ġà¤Ĺà¤ľà¤²": 2292,
      "à¤ĸà¤®": 2293,
      "Ġà¤¥à¤ª": 2294,
      "à¤¦à¤¶à¤¹à¤°": 2295,
      "Ġà¤ħà¤ªà¤Ĺ": 2296,
      "à¤µà¤²à¤ªà¤°": 2297,
      "à¤ħà¤¸": 2298,
      "à¤Ŀà¤ķà¤°": 2299,
      "Ġà¤Ķà¤¸": 2300,
      "Ġà¤ĩà¤¨à¤«à¤°": 2301,
      "Ġà¤ħà¤ĺ": 2302,
      "Ġà¤ĩà¤Ĺ": 2303,
      "à¥ĩà¤ģ": 2304,
      "Ġà¤ħà¤ªà¤ķà¤®": 2305,
      "à¤Īà¤¬à¤¹à¤¨": 2306,
      "Ġà¤¸à¤ķà¤¨": 2307,
      "Ġà¤ĩà¤¥": 2308,
      "Ġà¤ľà¤¦": 2309,
      "à¤ªà¤°à¤®": 2310,
      "à¤¯à¤®à¤¯": 2311,
      "Ġà¤²à¤¡à¤ķ": 2312,
      "Ġà¤īà¤łà¤ķà¤°": 2313,
      "à¤ªà¤¢": 2314,
      "Ġà¤Ĩà¤¹à¤¤": 2315,
      "Ġà¤ĸà¤°à¤Ĺ": 2316,
      "Ġà¤ĺà¤°à¤µ": 2317,
      "à¤ĸà¤¸": 2318,
      "Ġà¥¨à¥©": 2319,
      "à¤¨à¤ļà¤°": 2320,
      "à¤¯à¤¸à¤®": 2321,
      "à¤¥à¤¯": 2322,
      "Ġà¤®à¤¤à¤Ĺà¤£à¤¨": 2323,
      "Ġà¤ħà¤°à¤°": 2324,
      "à¤ľà¤Ĺà¤¢": 2325,
      "à¤Ĩà¤°à¤¡": 2326,
      "Ġà¤¶à¤«": 2327,
      "à¤¬à¤ªà¤¥à¤°": 2328,
      "à¤·à¤ķà¤°": 2329,
      "à¤ıà¤®à¤Ī": 2330,
      "Ġà¤ľà¤¯à¤¤": 2331,
      "à¤Łà¤ļ": 2332,
      "Ġà¥§à¥§": 2333,
      "Ġà¤ªà¤¤à¤¨": 2334,
      "Ġà¤¤à¤¹à¤²à¤ķ": 2335,
      "Ġà¤īà¤Ńà¤°à¤¤": 2336,
      "Ġà¤ıà¤¥": 2337,
      "Ġà¤®à¤Ł": 2338,
      "à¤¡à¤¤": 2339,
      "à¤¦à¤°à¤Ĺ": 2340,
      "Ġà¤®à¤Ĭ": 2341,
      "à¤¯à¤ľà¤²": 2342,
      "à¤ĺà¤®": 2343,
      "à¤¬à¤°à¤¤": 2344,
      "à¤ļà¤¬": 2345,
      "Ġà¤ķà¤Ľ": 2346,
      "à¤²à¤¬à¤°": 2347,
      "Ġà¤ħà¤«à¤°": 2348,
      "à¤¨à¤Ĺà¤¢": 2349,
      "à¤¯à¤®à¤¸à¤¨": 2350,
      "Ġà¤¸à¤¬à¤¨": 2351,
      "Ġà¤ıà¤¯à¤°à¤«": 2352,
      "Ġà¤ħà¤Ľ": 2353,
      "à¤ıà¤ļà¤¸": 2354,
      "Ġà¤ľà¤¯à¤¨": 2355,
      "Ġà¤ıà¤µà¤°": 2356,
      "Ġà¤¦à¤¹à¤¨": 2357,
      "à¤ĺà¤ķ": 2358,
      "à¤ĵà¤¡": 2359,
      "à¤¯à¤²à¤ľ": 2360,
      "Ġà¤¸à¤¹à¤Ĺà¤²": 2361,
      "Ġà¤¢à¤¹": 2362,
      "Ġà¤¨à¤Ĺà¤°à¤ª": 2363,
      "Ġà¤ĩà¤¨à¤¶": 2364,
      "à¤ľà¤¯à¤µà¤°": 2365,
      "Ġà¥§à¥¬": 2366,
      "Ġà¤ķà¤ľ": 2367,
      "à¤¡à¤ĩ": 2368,
      "Ġà¤¶à¤¸": 2369,
      "Ġà¤ĩà¤¸à¤ªà¤°": 2370,
      "à¤ľà¤¨à¤²": 2371,
      "Ġà¤µà¤Ĺ": 2372,
      "à¤Ńà¤®à¤¨": 2373,
      "Ġà¤¸à¤¶à¤¸": 2374,
      "à¤µà¤¬": 2375,
      "Ġà¤¡à¤°à¤®": 2376,
      "à¤°à¤Ĺà¤¸": 2377,
      "à¤¥à¤ķà¤®": 2378,
      "Ġà¤µà¤¨à¤°": 2379,
      "à¤łà¤µ": 2380,
      "à¤µà¤¨à¤¶": 2381,
      "Ġà¤Ĩà¤¬à¤ķ": 2382,
      "à¤¹à¤¶à¤ķ": 2383,
      "Ġà¤ĳà¤²à¤Łà¤°à¤¨": 2384,
      "Ġà¤®à¤µ": 2385,
      "Ġà¥¨à¥ª": 2386,
      "Ġà¤ªà¤²à¤®à¤¨": 2387,
      "Ġà¤ķà¤¸à¤®": 2388,
      "Ġà¤¸à¤°à¤Ĺ": 2389,
      "Ġà¤Ĳà¤¨à¤¡": 2390,
      "Ġà¤ıà¤£": 2391,
      "Ġà¤¬à¤ķà¤µ": 2392,
      "Ġà¤ĩà¤®à¤°à¤ľà¤¨": 2393,
      "à¤Łà¤¯": 2394,
      "Ġà¤Ķà¤¸à¤¤à¤¨": 2395,
      "à¤²à¤°à¤¶": 2396,
      "Ġà¤Ĩà¤°à¤ľ": 2397,
      "Ġà¤¶à¤¤à¤°": 2398,
      "Ġà¤Ĩà¤Īà¤ıà¤®": 2399,
      "Ġà¤¨à¤¯à¤¨": 2400,
      "à¤ĺà¤Ł": 2401,
      "Ġà¤¤à¤ľ": 2402,
      "à¤Ĺà¤¡à¤®": 2403,
      "à¤ıà¤¸à¤ıà¤²à¤µ": 2404,
      "Ġà¤¬à¤¹à¤°à¤¹": 2405,
      "à¤¨à¤Ń": 2406,
      "Ġà¥©à¥¦": 2407,
      "Ġà¤Ĩà¤Īà¤¬": 2408,
      "à¤¨à¤ı": 2409,
      "à¤¤à¤¬à¤¹": 2410,
      "Ġà¤įà¤®": 2411,
      "à¤°à¤¦à¤¯": 2412,
      "Ġà¤²à¤ľ": 2413,
      "à¤°à¤£à¤¬": 2414,
      "Ġà¤Ĩà¤²à¤¸": 2415,
      "Ġà¤Ńà¤Łà¤¨": 2416,
      "à¤ľà¤Ńà¤°": 2417,
      "Ġà¤¬à¤¬à¤²": 2418,
      "à¤ªà¤ķà¤°": 2419,
      "à¤¹à¤°à¤²": 2420,
      "Ġà¤¨à¤°à¤ķ": 2421,
      "Ġà¤¦à¤ĸà¤²": 2422,
      "à¤ĩà¤¬à¤²": 2423,
      "à¤µà¤¤à¤¨": 2424,
      "à¤¦à¤¹": 2425,
      "Ġà¤ħà¤ľà¤¨": 2426,
      "Ġà¤ĵà¤®à¤ª": 2427,
      "à¤Łà¤°à¤²": 2428,
      "Ġà¤ļà¤°à¤ĸ": 2429,
      "à¥Īà¤ĥ": 2430,
      "à¤¤à¤°à¤®": 2431,
      "Ġà¤Ķà¤ķ": 2432,
      "Ġà¤Ńà¤£": 2433,
      "Ġà¤Ĩà¤Īà¤ľ": 2434,
      "à¤¯à¤®à¤¨": 2435,
      "Ġà¤¹à¤Łà¤¨": 2436,
      "Ġà¤ľà¤¸à¤µ": 2437,
      "à¤°à¤¶à¤¸": 2438,
      "Ġà¤Ĩà¤®à¤ľà¤¨": 2439,
      "Ġà¤ļà¤®à¤ķà¤¤": 2440,
      "à¥¤à¥¤à¥¤": 2441,
      "à¤¨à¤¦à¤¯": 2442,
      "à¤¯à¤Ĺà¤¢": 2443,
      "Ġà¤ķà¤²à¤¶": 2444,
      "à¤Łà¤ľ": 2445,
      "à¤Īà¤ļ": 2446,
      "à¤ĩà¤ªà¤°": 2447,
      "Ġà¤ħà¤ľà¤¹à¤°": 2448,
      "Ġà¥§à¥ª": 2449,
      "à¤Ńà¤®": 2450,
      "à¥¨à¥§": 2451,
      "à¤¯à¤ķà¤µ": 2452,
      "à¤ıà¤¸à¤ķ": 2453,
      "à¤Ńà¤°à¤¤": 2454,
      "Ġà¤ªà¤¹à¤°": 2455,
      "à¤°à¤®à¤¨": 2456,
      "Ġà¤ķà¤Ĺ": 2457,
      "Ġà¤¹à¤²à¤µ": 2458,
      "à¤ıà¤°": 2459,
      "à¤¤à¤¨à¤®": 2460,
      "à¤ķà¤°à¤¶": 2461,
      "Ġà¤®à¤¦à¤°": 2462,
      "Ġà¤¹à¤®à¤°": 2463,
      "Ġà¤ıà¤²à¤¬": 2464,
      "à¤Ĩà¤Īà¤µ": 2465,
      "Ġà¤®à¤°à¤¤": 2466,
      "Ġà¤ıà¤ıà¤¨": 2467,
      "Ġà¤ħà¤Ńà¤¦": 2468,
      "à¤ķà¤°à¤®": 2469,
      "à¤²à¤ĩ": 2470,
      "à¤ħà¤®à¤°": 2471,
      "à¤¤à¤¨à¤ª": 2472,
      "Ġà¤īà¤«": 2473,
      "Ġà¤ľà¤²à¤¸": 2474,
      "à¤µà¤ľà¤¹": 2475,
      "Ġà¤¤à¤Ĺà¤¡": 2476,
      "Ġà¤īà¤¤à¤°à¤¤": 2477,
      "Ġà¤ıà¤¡à¤µà¤°": 2478,
      "Ġà¤¦à¤£": 2479,
      "à¤¸à¤°à¤ķ": 2480,
      "à¤ķà¤¦": 2481,
      "Ġà¤®à¤¹à¤«": 2482,
      "à¤°à¤«à¤²": 2483,
      "Ġà¤¦à¤«à¤¨": 2484,
      "Ġà¤Ĩà¤¦à¤°à¤£": 2485,
      "à¤ħà¤¤": 2486,
      "à¤ĩà¤¨à¤¸": 2487,
      "à¤Ĺà¤°à¤ª": 2488,
      "Ġà¤¹à¤µà¤¨": 2489,
      "Ġà¤ıà¤¨à¤ıà¤¸à¤ıà¤¸": 2490,
      "à¤ķà¤²à¤ķà¤°": 2491,
      "Ġà¤ħà¤¸à¤¦": 2492,
      "à¥Ĥà¥¤": 2493,
      "Ġà¤ıà¤¨à¤Ł": 2494,
      "Ġà¤¸à¤¹à¤°à¤¸": 2495,
      "à¤°à¤ħà¤¨": 2496,
      "à¤¸à¤ĸ": 2497,
      "Ġà¤·à¤·": 2498,
      "Ġà¤®à¤°à¤ķ": 2499,
      "Ġà¤ļà¤Łà¤ķ": 2500,
      "Ġà¤ªà¤°à¤¶": 2501,
      "Ġà¤¸à¤°à¤¨": 2502,
      "Ġà¤®à¤ĸ": 2503,
      "Ġà¤¦à¤¶à¤°": 2504,
      "Ġà¤īà¤Ľà¤²": 2505,
      "Ġà¤¬à¤ľà¤ķà¤°": 2506,
      "à¤Ŀà¤¨": 2507,
      "à¤Ĺà¤¨à¤¬": 2508,
      "Ġà¤ķà¤¢": 2509,
      "Ġà¤¨à¤µà¤Ĺ": 2510,
      "Ġà¤®à¤¨à¤¸": 2511,
      "Ġà¤¸à¤¹à¤²": 2512,
      "à¤«à¤¸": 2513,
      "à¤®à¤ĺ": 2514,
      "à¤īà¤ª": 2515,
      "Ġà¤ħà¤¨à¤µà¤°": 2516,
      "à¤¬à¤¹à¤¨": 2517,
      "Ġà¤²à¤¯": 2518,
      "Ġà¤łà¤ª": 2519,
      "Ġà¥¨à¥«": 2520,
      "à¤§à¤®à¤¸": 2521,
      "Ġà¤¸à¤µà¤°": 2522,
      "à¤¤à¤°à¤¤": 2523,
      "Ġà¤Ĩà¤ĩà¤²": 2524,
      "Ġà¤Ĩà¤¯à¤°à¤²": 2525,
      "Ġà¤ıà¤²à¤ľ": 2526,
      "Ġà¤µà¤¨à¤µ": 2527,
      "à¤ıà¤ı": 2528,
      "Ġà¤ıà¤ļà¤Ĩà¤Īà¤µ": 2529,
      "Ġà¤ľà¤¨à¤ķ": 2530,
      "à¤ľà¤¡": 2531,
      "à¤¬à¤Ł": 2532,
      "à¤Ĺà¤¨à¤µ": 2533,
      "à¥ĩà¤¼": 2534,
      "Ġà¥§à¥©": 2535,
      "à¤ıà¤¨à¤ıà¤²": 2536,
      "à¤·à¤¯à¤µà¤¸": 2537,
      "à¤¦à¤¡": 2538,
      "à¤Ĩà¤°à¤Ĩà¤Ī": 2539,
      "Ġà¥¨à¥Ń": 2540,
      "Ġà¤ĵà¤°à¤²": 2541,
      "à¤®à¤ªà¤¤": 2542,
      "Ġà¤Ŀà¤Łà¤ªà¤Ł": 2543,
      "Ġà¤¡à¤¬à¤°": 2544,
      "à¥§à¥©": 2545,
      "Ġà¤Ĩà¤¶à¤¯": 2546,
      "Ġà¤īà¤²à¤Ŀà¤¨": 2547,
      "Ġà¤Ķà¤±": 2548,
      "à¤ħà¤¹": 2549,
      "Ġà¤ªà¤¸à¤°": 2550,
      "à¤Ĩà¤Ĺà¤°": 2551,
      "à¤į": 2552,
      "Ġà¤Ĭà¤¤à¤ķ": 2553,
      "Ġà¤ĳà¤¨à¤°": 2554,
      "Ġà¤ıà¤¸à¤ķ": 2555,
      "Ġà¤ħà¤ļà¤²": 2556,
      "à¥ģà¥¤": 2557,
      "à¤¯à¤ķà¤Ł": 2558,
      "Ġà¤Ńà¤°à¤¤à¤ª": 2559,
      "à¤ıà¤¸à¤¡": 2560,
      "Ġà¤¦à¤¶à¤®": 2561,
      "à¤µà¤°à¤«": 2562,
      "à¤¸à¤²à¤°": 2563,
      "à¤¹à¤Ń": 2564,
      "Ġà¤¸à¤¹à¤ķà¤°": 2565,
      "Ġà¤¤à¤¨à¤µ": 2566,
      "Ġà¤¢à¤²": 2567,
      "Ġà¤¹à¤²à¤«à¤¨": 2568,
      "à¤ļà¤ª": 2569,
      "Ġà¤ħà¤¦à¤¨": 2570,
      "Ġà¤Ķà¤¨": 2571,
      "Ġà¤ľà¤¨à¤°": 2572,
      "Ġà¤ĳà¤²à¤°": 2573,
      "à¤¾à¤ģà¥¤": 2574,
      "à¤¨à¤ľà¤¨à¤ķ": 2575,
      "Ġà¤ıà¤¸à¤Ĩà¤Ī": 2576,
      "Ġà¤ıà¤¨à¤Ĩà¤Īà¤ı": 2577,
      "à¤¾à¥¤à¥¤": 2578,
      "à¤īà¤¨à¤ķ": 2579,
      "à¤ıà¤ľ": 2580,
      "à¤Īà¤ħ": 2581,
      "Ġà¤¨à¤ľà¤°à¤ħ": 2582,
      "Ġà¤Ĺà¤°à¤ľ": 2583,
      "à¤łà¤¶": 2584,
      "Ġà¤ķà¤µà¤ļ": 2585,
      "Ġà¤¤à¤¬à¤ķ": 2586,
      "Ġà¤ľà¤¨à¤µ": 2587,
      "à¤°à¤¤à¤ļ": 2588,
      "à¥īà¥°": 2589,
      "Ġà¤®à¤¨à¤Ń": 2590,
      "Ġà¤ĵà¤¢": 2591,
      "Ġà¤ĺà¤Łà¤ķà¤°": 2592,
      "Ġà¤¹à¤°à¤ľ": 2593,
      "Ġà¤ĩà¤·": 2594,
      "à¤ļà¤²à¤°": 2595,
      "Ġà¤¨à¤Ĺà¤¦": 2596,
      "Ġà¤¹à¤°à¤ķ": 2597,
      "à¤µà¤°à¤¤": 2598,
      "à¤®à¤²à¤¤": 2599,
      "Ġà¤ħà¤®à¤°à¤¨": 2600,
      "Ġà¤ĩà¤ķà¤²": 2601,
      "Ġà¤ħà¤ªà¤¶": 2602,
      "Ġà¤²à¤°": 2603,
      "à¤¶à¤Ń": 2604,
      "Ġà¤īà¤ªà¤²à¤ķ": 2605,
      "Ġà¤¦à¤°à¤ķ": 2606,
      "Ġà¥§à¥Ń": 2607,
      "à¤¶à¤°à¤£": 2608,
      "à¤ľà¤®à¤°": 2609,
      "Ġà¤¹à¤¸à¤°à¤¤": 2610,
      "Ġà¤¹à¤²à¤ķ": 2611,
      "à¤ľà¤ªà¤¤": 2612,
      "à¤ıà¤¶": 2613,
      "Ġà¤¬à¤²à¤µ": 2614,
      "à¤¯à¤ķà¤²": 2615,
      "Ġà¤ħà¤²à¤®": 2616,
      "à¤µà¤°à¤°": 2617,
      "Ġà¤ķà¤ĩà¤¯": 2618,
      "Ġà¤Īà¤¨": 2619,
      "Ġà¤īà¤¦à¤ĺ": 2620,
      "à¤ªà¤ħà¤ª": 2621,
      "Ġà¤ıà¤¨à¤ª": 2622,
      "Ġà¤¸à¤®à¤Ŀà¤ķà¤°": 2623,
      "Ġà¤ĺà¤Łà¤¤": 2624,
      "Ġà¤ĩà¤¯à¤°": 2625,
      "à¤łà¤²": 2626,
      "à¤¡à¤Ī": 2627,
      "à¤Ĩà¤Īà¤¡": 2628,
      "à¤Ĩà¤°à¤ıà¤«": 2629,
      "Ġà¤¤à¤®à¤¨": 2630,
      "Ġà¤ıà¤«à¤¡": 2631,
      "Ġà¤ıà¤µà¤ľ": 2632,
      "Ġà¤¥à¤²": 2633,
      "à¤¯à¤¦à¤°": 2634,
      "Ġà¤°à¤ĸà¤µ": 2635,
      "à¤¼à¥Ģà¤Ĥ": 2636,
      "à¤ĳà¤ªà¤°": 2637,
      "Ġà¤Ľà¤¡": 2638,
      "à¤µà¤°à¤®": 2639,
      "Ġà¤¬à¤²à¤¬": 2640,
      "à¤ľà¤µà¤²": 2641,
      "Ġà¤µà¤¤à¤¨": 2642,
      "Ġà¤¸à¤®à¤ķà¤ķ": 2643,
      "à¤®à¤¢": 2644,
      "à¤¬à¤§": 2645,
      "Ġà¤ļà¤°à¤£à¤ľ": 2646,
      "Ġà¤²à¤Ł": 2647,
      "à¤µà¤µà¤°": 2648,
      "à¤¨à¤°à¤¸": 2649,
      "Ġà¤¤à¤Łà¤¸": 2650,
      "à¥ĩà¥į": 2651,
      "à¤ķà¤ĺà¤°": 2652,
      "Ġà¤īà¤¸à¤ªà¤°": 2653,
      "Ġà¤ļà¤®à¤ķà¤¦": 2654,
      "à¤¹à¤ľ": 2655,
      "à¤®à¤¬à¤¤": 2656,
      "Ġà¤«à¤¡à¤£à¤µ": 2657,
      "Ġà¤ıà¤²à¤ª": 2658,
      "Ġà¤Ĩà¤¯à¤¤": 2659,
      "à¤µà¤²à¤ª": 2660,
      "Ġà¤ħà¤²à¤¸": 2661,
      "à¤ľà¤¨à¤¯": 2662,
      "à¤Ĩà¤¦": 2663,
      "à¤¨à¤¯à¤¨": 2664,
      "à¤ħà¤Ĺà¤°": 2665,
      "Ġà¤ıà¤¸à¤Ĩà¤Īà¤Ł": 2666,
      "à¥ĭà¤ģ": 2667,
      "Ġà¤¸à¤°à¤²à¤¤": 2668,
      "Ġà¤ĵà¤ľ": 2669,
      "à¤Ĺà¤¤à¤¨": 2670,
      "à¤¾à¤¾": 2671,
      "Ġà¤¦à¤¶à¤°à¤¥": 2672,
      "à¤¶à¤¨à¤¸": 2673,
      "Ġà¤ķà¤°à¤ª": 2674,
      "Ġà¤ıà¤®à¤ıà¤²à¤ı": 2675,
      "Ġà¤Ĩà¤Īà¤ĵà¤ıà¤¸": 2676,
      "à¤¢à¤ķ": 2677,
      "à¤Ĺà¤¹": 2678,
      "Ġà¥¨à¥®": 2679,
      "à¤¾à¤Ĥà¥¤": 2680,
      "Ġà¤Ĩà¤ľà¤¤à¤ķ": 2681,
      "à¤ľà¤°à¤²": 2682,
      "à¤¸à¤¯": 2683,
      "à¤¶à¤¨à¤Ĺ": 2684,
      "Ġà¤ļà¤®à¤¡": 2685,
      "Ġà¤Ĩà¤Īà¤ıà¤¸": 2686,
      "Ġà¤ħà¤§à¤°": 2687,
      "à¤¬à¤ĸ": 2688,
      "à¤¦à¤¨à¤Ĺà¤°": 2689,
      "Ġà¤Ĺà¤ª": 2690,
      "à¤ıà¤®à¤Ł": 2691,
      "à¤ĩà¤²à¤Ł": 2692,
      "Ġà¤ªà¤°à¤µà¤°": 2693,
      "Ġà¤ħà¤®à¤°à¤ª": 2694,
      "à¤¸à¤¨à¤ķ": 2695,
      "à¤Ĩà¤°à¤ıà¤¸": 2696,
      "Ġà¤ªà¤Ĺà¤¡": 2697,
      "Ġà¤§à¤¬": 2698,
      "Ġà¤®à¤¨à¤ķ": 2699,
      "Ġà¤Ĩà¤ĸà¤°": 2700,
      "Ġà¤ķà¤°à¤¦": 2701,
      "Ġà¤®à¤°à¤£": 2702,
      "à¤¸à¤¡à¤°": 2703,
      "Ġà¤²à¤¶": 2704,
      "Ġà¤¤à¤µ": 2705,
      "Ġà¤®à¤ľà¤¹à¤¬": 2706,
      "Ġà¤Ĩà¤ĺ": 2707,
      "à¤µà¤¦à¤²": 2708,
      "Ġà¤ĩà¤¤à¤°": 2709,
      "Ġà¤¬à¤¦à¤¤à¤°": 2710,
      "Ġà¤Ĩà¤¹à¤Ł": 2711,
      "Ġà¤ħà¤¸à¤°à¤¦": 2712,
      "à¤°à¤¬à¤¦à¤²": 2713,
      "à¤¨à¤ªà¤¤": 2714,
      "à¤¸à¤®à¤Ŀ": 2715,
      "à¤Ńà¤¤": 2716,
      "à¥§à¥¯": 2717,
      "à¤īà¤¸à¤ķ": 2718,
      "à¤īà¤§à¤°": 2719,
      "Ġà¤®à¤Ľ": 2720,
      "à¤ıà¤Ĩà¤Ī": 2721,
      "à¤¬à¤ľ": 2722,
      "à¥¦à¥¦à¥¦": 2723,
      "à¤ıà¤®à¤Ĩà¤°": 2724,
      "à¤ĵà¤µà¤°": 2725,
      "Ġà¤ıà¤¹": 2726,
      "à¤¡à¤°à¤µ": 2727,
      "Ġà¤Ŀà¤®": 2728,
      "à¤¨à¤ķà¤®": 2729,
      "Ġà¤¸à¤¤à¤ª": 2730,
      "Ġà¤¬à¤¦à¤¬": 2731,
      "Ġà¤¡à¤Ł": 2732,
      "Ġà¤ħà¤¨à¤Ĺ": 2733,
      "Ġà¤ķà¤¦à¤°": 2734,
      "Ġà¤īà¤¨à¤ªà¤°": 2735,
      "à¤īà¤¦à¤¯à¤ª": 2736,
      "à¤®à¤¸à¤®à¤°": 2737,
      "Ġà¤Ĩà¤ĩà¤ķ": 2738,
      "Ġà¤Ĩà¤īà¤Łà¤ª": 2739,
      "Ġà¤¨à¤ķà¤µ": 2740,
      "Ġà¤ıà¤®à¤Ł": 2741,
      "à¤ľà¤ķà¤¤": 2742,
      "Ġà¤Ĺà¤Ĺà¤¨": 2743,
      "à¤¥à¤°à¤¬": 2744,
      "Ġà¤ħà¤¸à¤¹à¤®à¤¤": 2745,
      "à¤¹à¤²à¤µ": 2746,
      "Ġà¤īà¤ķà¤¸": 2747,
      "Ġà¤Ĳà¤¨": 2748,
      "à¤°à¤Ĺà¤¢": 2749,
      "Ġà¤®à¤¸à¤²à¤¨": 2750,
      "Ġà¤ıà¤¨à¤¬": 2751,
      "à¤§à¤¨à¤¬": 2752,
      "Ġà¤¸à¤°à¤¹": 2753,
      "Ġà¤Ĺà¤ĩà¤²": 2754,
      "Ġà¤ªà¤Ľà¤¤": 2755,
      "Ġà¤Ĩà¤ĩà¤ķà¤¨": 2756,
      "à¤®à¤ķà¤°à¤£": 2757,
      "à¤¸à¤¨à¤Ĺà¤°": 2758,
      "à¤°à¤®à¤¬à¤¦": 2759,
      "à¤ľà¤Ĺà¤¤": 2760,
      "Ġà¤ħà¤¸à¤«à¤²à¤¤": 2761,
      "à¤ĩà¤¨à¤¦": 2762,
      "Ġà¤ıà¤¸à¤ıà¤¸à¤¸": 2763,
      "à¤¶à¤®à¤¹": 2764,
      "à¤Ĺà¤²à¤ķ": 2765,
      "à¤ķà¤Ŀ": 2766,
      "Ġà¤²à¤¸": 2767,
      "Ġà¤¬à¤¶à¤°": 2768,
      "Ġà¤ĺà¤¸": 2769,
      "Ġà¤¤à¤°à¤¹à¤¤à¤°à¤¹": 2770,
      "Ġà¤ĸà¤«": 2771,
      "Ġà¤Ĺà¤¶": 2772,
      "à¥ĩà¥ĩà¤Ĥ": 2773,
      "à¤¢à¤¤": 2774,
      "Ġà¤Ĺà¤£à¤®": 2775,
      "à¤¯à¤ľà¤¨": 2776,
      "à¤Ĺà¤«": 2777,
      "à¤¼à¤¾à¤Ĥ": 2778,
      "à¤¦à¤µà¤¨": 2779,
      "Ġà¤ĸà¤®": 2780,
      "à¤¡à¤īà¤¤": 2781,
      "Ġà¤Łà¤¨à¤²": 2782,
      "Ġà¤ıà¤¯à¤°à¤µ": 2783,
      "à¤°à¤Ŀ": 2784,
      "à¥§à¥¨": 2785,
      "à¥§à¥Ń": 2786,
      "Ġà¤²à¤ĸà¤¨à¤Ĭà¤µ": 2787,
      "Ġà¤ļà¤¹à¤²": 2788,
      "à¤Īà¤ıà¤¸": 2789,
      "à¤īà¤®": 2790,
      "à¤¦à¤°à¤ª": 2791,
      "à¤°à¤ħà¤ľà¤®": 2792,
      "Ġà¤ľà¤¨à¤¸à¤¤": 2793,
      "Ġà¤¸à¤¯": 2794,
      "Ġà¤ıà¤ļà¤ª": 2795,
      "Ġà¤¸à¤°à¤¯": 2796,
      "Ġà¤Ĩà¤ªà¤¬": 2797,
      "à¤§à¤¯": 2798,
      "à¤²à¤īà¤¤": 2799,
      "à¤Īà¤Ĩà¤°à¤Ł": 2800,
      "à¤¹à¤¤à¤¯": 2801,
      "Ġà¤ıà¤¸à¤ĵ": 2802,
      "Ġà¤ĸà¤Łà¤ĸà¤Ł": 2803,
      "Ġà¤ĩà¤§à¤°à¤īà¤§à¤°": 2804,
      "à¤¦à¤ķà¤¤": 2805,
      "Ġà¤ĭà¤ļ": 2806,
      "à¤°à¤īà¤¦à¤¯à¤ª": 2807,
      "Ġà¤ķà¤¤à¤Ī": 2808,
      "à¤°à¤ľà¤¬à¤²à¤ª": 2809,
      "à¤Ĩà¤Ĺ": 2810,
      "à¤¡à¤Ľà¤¤": 2811,
      "à¤¹à¤ħà¤®": 2812,
      "Ġà¤ļà¤Łà¤°": 2813,
      "Ġà¤ıà¤¹à¤¤": 2814,
      "à¤µà¤¸à¤°à¤ķ": 2815,
      "à¤ļà¤¨à¤¦": 2816,
      "à¤®à¤ļà¤¨": 2817,
      "à¤¯à¤°à¤ħà¤²": 2818,
      "à¤°à¤Ĺà¤¯": 2819,
      "à¤Ĭà¤§à¤®à¤¸": 2820,
      "à¤¨à¤¤à¤Ī": 2821,
      "à¤ªà¤²à¤Ł": 2822,
      "à¤Ĺà¤ļà¤®": 2823,
      "Ġà¥¨à¥¯": 2824,
      "à¤ļà¤°à¤£à¤ľ": 2825,
      "à¤ľà¤Ĺà¤¹": 2826,
      "à¤ļà¤¤à¤¤": 2827,
      "à¤¶à¤Ŀ": 2828,
      "à¤¨à¤ħà¤®à¤°": 2829,
      "Ġà¤ľà¤Ĺà¤¤à¤¤": 2830,
      "Ġà¤¬à¤¸à¤¨": 2831,
      "à¤¬à¤®à¤§": 2832,
      "à¤µà¤¤à¤Ł": 2833,
      "Ġà¤ĩà¤¨à¤µ": 2834,
      "à¤¨à¤ļà¤®": 2835,
      "Ġà¤¬à¤¢à¤¤": 2836,
      "à¤ľà¤Ńà¤µà¤¨": 2837,
      "Ġà¤ħà¤ľà¤¬à¤Ĺà¤ľà¤¬à¤°": 2838,
      "à¤¦à¤µà¤¨à¤µà¤ľ": 2839,
      "Ġà¤Ńà¤°à¤®": 2840,
      "Ġà¤¸à¤¦à¤®": 2841,
      "Ġà¤ıà¤®à¤ľ": 2842,
      "Ġà¤ªà¤®": 2843,
      "Ġà¤ªà¤°à¤ļà¤®": 2844,
      "Ġà¤ħà¤ł": 2845,
      "Ġà¤Łà¤Ł": 2846,
      "Ġà¤Īà¤¬": 2847,
      "Ġà¤ħà¤ĸà¤°": 2848,
      "Ġà¤ħà¤ľà¤¨à¤¬": 2849,
      "à¤Ĥà¤Ĥ": 2850,
      "Ġà¤Ĩà¤«à¤¤": 2851,
      "à¤²à¤ĺà¤°": 2852,
      "Ġà¤ıà¤¸à¤ıà¤¸": 2853,
      "Ġà¤Ĩà¤µà¤°à¤£": 2854,
      "Ġà¤ĭà¤Ĺ": 2855,
      "Ġà¤¡à¤ļ": 2856,
      "à¤®à¤«": 2857,
      "Ġà¤ľà¤ķ": 2858,
      "à¤łà¤®": 2859,
      "Ġà¤ķà¤¸à¤°": 2860,
      "Ġà¤Ĩà¤·": 2861,
      "à¤łà¤°": 2862,
      "Ġà¤¬à¤ľà¤¨": 2863,
      "Ġà¤ĸà¤¬à¤°à¤¤": 2864,
      "Ġà¤ħà¤¤à¤°": 2865,
      "Ġà¤µà¤¤": 2866,
      "Ġà¤¬à¤¦à¤¹": 2867,
      "à¤°à¤µà¤ļà¤¨": 2868,
      "Ġà¤ľà¤Ĺà¤¹à¤ľà¤Ĺà¤¹": 2869,
      "à¤ħà¤µ": 2870,
      "à¤ķà¤¨à¤Ĺà¤°": 2871,
      "Ġà¤ªà¤°à¤®à¤¬": 2872,
      "Ġà¤¬à¤¹à¤²": 2873,
      "à¤µà¤«": 2874,
      "Ġà¤Ĩà¤ĩà¤¸à¤ķ": 2875,
      "Ġà¤ķà¤²à¤¹": 2876,
      "Ġà¤Ķà¤ļ": 2877,
      "à¤¦à¤µà¤ķà¤°": 2878,
      "à¤¡à¤Ł": 2879,
      "à¤łà¤Ĺ": 2880,
      "à¤Łà¤ĸ": 2881,
      "à¤µà¤¸à¤®": 2882,
      "Ġà¤ĵà¤¶": 2883,
      "Ġà¤¬à¤²à¤¦": 2884,
      "Ġà¤ªà¤§": 2885,
      "à¤²à¤ķà¤®": 2886,
      "à¤¡à¤°à¤®": 2887,
      "à¤ıà¤®à¤ıà¤²": 2888,
      "à¤ªà¤¹à¤²": 2889,
      "Ġà¤ħà¤¦à¤®": 2890,
      "Ġà¤«à¤²à¤¦": 2891,
      "Ġà¤ªà¤¦à¤Ń": 2892,
      "Ġà¤§à¤¨à¤µ": 2893,
      "Ġà¤¹à¤¸à¤¨à¤ª": 2894,
      "Ġà¤ªà¤¦à¤¸": 2895,
      "Ġà¤¡à¤°à¤¨": 2896,
      "à¤Īà¤ħà¤¡": 2897,
      "Ġà¥¨à¥¦à¥¨à¥§": 2898,
      "à¤ļà¤²à¤¨": 2899,
      "Ġà¤¸à¤®à¤¤": 2900,
      "à¤·à¤¨": 2901,
      "Ġà¤«à¤Łà¤¨": 2902,
      "Ġà¤§à¤ľ": 2903,
      "à¤¨à¤¹à¤Ĺ": 2904,
      "à¤ļà¤¤à¤°": 2905,
      "à¤ľà¤¨à¤¸": 2906,
      "à¤¸à¤ı": 2907,
      "Ġà¤¯à¤®à¤°": 2908,
      "à¤¶à¤ĸ": 2909,
      "à¤Īà¤Ĺ": 2910,
      "à¤²à¤¬à¤²": 2911,
      "à¤¶à¤¬à¤°": 2912,
      "Ġà¤°à¤¡": 2913,
      "Ġà¤ıà¤²à¤¨": 2914,
      "à¥ĩà¤¾": 2915,
      "à¤ªà¤°à¤«": 2916,
      "à¤¯à¤°à¤¬": 2917,
      "Ġà¤ıà¤®à¤ıà¤¸à¤ıà¤®à¤Ī": 2918,
      "Ġà¤ĩà¤®à¤²": 2919,
      "Ġà¤¸à¤¹à¤ľà¤¤": 2920,
      "Ġà¤Ľà¤¨": 2921,
      "Ġà¤ĵà¤²à¤®": 2922,
      "à¤¹à¤°à¤¬": 2923,
      "Ġà¤²à¤ªà¤ķ": 2924,
      "Ġà¤¨à¤Łà¤°": 2925,
      "Ġà¤¹à¤ķà¤¦": 2926,
      "Ġà¤ĸà¤¯": 2927,
      "à¤ħà¤¶": 2928,
      "à¤¹à¤¯": 2929,
      "Ġà¤ıà¤®à¤ıà¤®": 2930,
      "à¤¸à¤°à¤ª": 2931,
      "Ġà¤¤à¤°à¤¸": 2932,
      "à¤ĵà¤ķ": 2933,
      "Ġà¤ªà¤¦à¤¯": 2934,
      "à¤Łà¤°à¤ķ": 2935,
      "Ġà¤Ĩà¤Ĭ": 2936,
      "à¤īà¤ļ": 2937,
      "à¤ªà¤ļà¤¨": 2938,
      "Ġà¤¸à¤¬à¤¬": 2939,
      "Ġà¤ªà¤²à¤Łà¤¨": 2940,
      "à¤®à¤ħà¤§": 2941,
      "à¤¹à¤¹à¤¹à¤¹": 2942,
      "à¤«à¤¤": 2943,
      "à¤µà¤ĺà¤°": 2944,
      "Ġà¤Ľà¤Ł": 2945,
      "à¤Ĩà¤°à¤ľ": 2946,
      "à¤¹à¤¤à¤®": 2947,
      "à¤ªà¤°à¤ķ": 2948,
      "à¤ľà¤¯à¤¨": 2949,
      "à¤¡à¤¬à¤°": 2950,
      "Ġà¤ľà¤ķà¤¡": 2951,
      "à¤ĸà¤¨à¤Ĭ": 2952,
      "à¤¡à¤°à¤¸à¤¨": 2953,
      "Ġà¤ľà¤¨à¤¸à¤®": 2954,
      "Ġà¤¸à¤¨à¤°": 2955,
      "Ġà¤ħà¤°à¤¸": 2956,
      "Ġà¤¸à¤¬à¤°": 2957,
      "à¤µà¤¨à¤ķ": 2958,
      "Ġà¤Ĩà¤Īà¤ıà¤¸à¤Ĩà¤Ī": 2959,
      "Ġà¤¶à¤¹à¤ľ": 2960,
      "Ġà¤¶à¤®à¤¸": 2961,
      "à¤¡à¤©": 2962,
      "à¥¨à¥«": 2963,
      "Ġà¤®à¤¨à¤µ": 2964,
      "Ġà¤¬à¤¤à¤²": 2965,
      "à¤ıà¤®à¤¯": 2966,
      "Ġà¤®à¤¹à¤ķ": 2967,
      "Ġà¤¯à¤®à¤¨": 2968,
      "Ġà¤ıà¤ķà¤¬": 2969,
      "à¤ķà¤°à¤¤": 2970,
      "Ġà¤¬à¤¦à¤¸à¤²": 2971,
      "à¤ķà¤¯": 2972,
      "Ġà¤¸à¤¹à¤µ": 2973,
      "à¤°à¤®à¤µ": 2974,
      "Ġà¤ħà¤Ĺà¤µ": 2975,
      "à¤®à¤¨à¤µà¤®": 2976,
      "Ġà¤®à¤¶à¤ķ": 2977,
      "Ġà¤ļà¤²à¤ļ": 2978,
      "Ġà¤ªà¤Łà¤ķà¤¥": 2979,
      "Ġà¤Ĩà¤Īà¤¯": 2980,
      "à¤ıà¤®à¤ķ": 2981,
      "Ġà¤²à¤£": 2982,
      "à¤µà¤¯à¤ķ": 2983,
      "à¤°à¤¤à¤µà¤°": 2984,
      "Ġà¤ķà¤Łà¤µ": 2985,
      "Ġà¤¦à¤°à¤Ĺ": 2986,
      "à¤¸à¤ĩ": 2987,
      "Ġà¤Ĩà¤°à¤īà¤¤": 2988,
      "à¤®à¤°à¤¨": 2989,
      "Ġà¤¬à¤ª": 2990,
      "Ġà¤®à¤¡": 2991,
      "à¤¤à¤§": 2992,
      "à¤£à¤Ĺ": 2993,
      "à¥Īà¥Ī": 2994,
      "à¥¦à¥¦à¥¦à¥¦": 2995,
      "à¤°à¤ļà¤²à¤¨": 2996,
      "Ġà¤¸à¤°à¤Ĺà¤¨": 2997,
      "Ġà¤¯à¤¶à¤ª": 2998,
      "à¤µà¤°à¤ª": 2999,
      "à¤ķà¤®à¤Ĺà¤¢": 3000,
      "à¤¹à¤°à¤¤": 3001,
      "Ġà¤ķà¤²à¤ķ": 3002,
      "Ġà¤¡à¤¸": 3003,
      "à¤¨à¤ľà¤®": 3004,
      "Ġà¤¸à¤®à¤¯à¤¸": 3005,
      "Ġà¤ĩà¤¡": 3006,
      "Ġà¤ıà¤«à¤ª": 3007,
      "Ġà¤¥à¤®à¤¨": 3008,
      "Ġà¤ªà¤¨à¤¡": 3009,
      "à¤µà¤¤à¤®": 3010,
      "Ġà¤µà¤¹à¤¨": 3011,
      "Ġà¤ıà¤ķà¤°": 3012,
      "à¤Ĺà¤Ń": 3013,
      "Ġà¤Ńà¤¯à¤Ń": 3014,
      "à¤ķà¤ł": 3015,
      "à¤ħà¤¹à¤®à¤¦": 3016,
      "Ġà¤ľà¤¯à¤¸": 3017,
      "à¤¼à¥Ĥà¤Ĥ": 3018,
      "à¤²à¤ķà¤¤": 3019,
      "à¤¬à¤¢": 3020,
      "à¤Łà¤¶": 3021,
      "Ġà¤łà¤£": 3022,
      "Ġà¤ħà¤µà¤®": 3023,
      "à¤Ĩà¤Īà¤ıà¤ıà¤¨à¤ıà¤¸": 3024,
      "à¤°à¤£à¤µ": 3025,
      "Ġà¤ĸà¤¸": 3026,
      "à¤ķà¤Łà¤¤à¤®": 3027,
      "à¤ķà¤·": 3028,
      "Ġà¤Īà¤ľ": 3029,
      "à¤¸à¤ıà¤²": 3030,
      "Ġà¤ĩà¤¨à¤¬": 3031,
      "à¤ľà¤¨à¤Ĺà¤°": 3032,
      "à¤ļà¤ħà¤ª": 3033,
      "à¤ĳà¤¨": 3034,
      "Ġà¤īà¤ªà¤¨à¤Ĺà¤°": 3035,
      "Ġà¤¤à¤°à¤¬": 3036,
      "à¤ĵà¤°": 3037,
      "à¤Łà¤°à¤¸à¤¨": 3038,
      "Ġà¤Īà¤²": 3039,
      "Ġà¤«à¤ķ": 3040,
      "à¥ĩà¤Ĥà¤Ĥ": 3041,
      "à¤ļà¤®à¤¢": 3042,
      "Ġà¤Ķà¤ľ": 3043,
      "à¤¸à¤ıà¤ķ": 3044,
      "Ġà¤²à¤ĸà¤¨à¤µ": 3045,
      "Ġà¤ıà¤²à¤ıà¤¸": 3046,
      "à¤¤à¤¡": 3047,
      "Ġà¥¨à¥¬": 3048,
      "à¤¨à¤¬à¤°": 3049,
      "à¤Ĥà¥ĩ": 3050,
      "à¤®à¤¬à¤°": 3051,
      "à¤µà¤¨à¤°": 3052,
      "Ġà¤®à¤¨à¤ª": 3053,
      "à¤¶à¤Ĺ": 3054,
      "à¤ħà¤Ĺ": 3055,
      "Ġà¤°à¤£à¤ľ": 3056,
      "Ġà¤¸à¤°à¤Ĺà¤°": 3057,
      "Ġà¤¬à¤°à¤®": 3058,
      "à¤¶à¤¨à¤ª": 3059,
      "Ġà¤«à¤¸": 3060,
      "Ġà¤®à¤¹à¤ķà¤®": 3061,
      "Ġà¤¨à¤µà¤²": 3062,
      "Ġà¤ıà¤®à¤ķ": 3063,
      "Ġà¤¡à¤¯": 3064,
      "à¥įà¥¤": 3065,
      "à¤®à¤ł": 3066,
      "à¤°à¤ªà¤°": 3067,
      "Ġà¤īà¤Ĺà¤¤": 3068,
      "Ġà¤§à¤®à¤¤à¤°": 3069,
      "Ġà¤¬à¤°à¤ķ": 3070,
      "à¤Ŀà¤°": 3071,
      "Ġà¤Ĩà¤¨à¤²": 3072,
      "Ġà¤®à¤¨à¤ļ": 3073,
      "Ġà¤ľà¤Ĺà¤®à¤Ĺ": 3074,
      "Ġà¤ıà¤ķà¤¤à¤°à¤«": 3075,
      "à¤¸à¤ķà¤¤": 3076,
      "Ġà¤ķà¤®à¤¬à¤ĸ": 3077,
      "à¤ĩà¤Łà¤¨": 3078,
      "à¤ªà¤ķà¤¤": 3079,
      "à¤¡à¤¯à¤¨": 3080,
      "Ġà¤²à¤¬": 3081,
      "Ġà¤ªà¤ļà¤®à¤¢": 3082,
      "Ġà¤«à¤ľ": 3083,
      "à¤°à¤¬à¤°": 3084,
      "à¤¼à¥ħ": 3085,
      "Ġà¤ħà¤ľà¤µ": 3086,
      "Ġà¤¸à¤°à¤¹à¤¦": 3087,
      "à¤¯à¤Ńà¤µ": 3088,
      "Ġà¤ħà¤²à¤¬à¤¤": 3089,
      "Ġà¤²à¤«": 3090,
      "à¤°à¤ľà¤ª": 3091,
      "à¤¦à¤ľ": 3092,
      "Ġà¤īà¤¥à¤²": 3093,
      "Ġà¤ıà¤¨à¤ıà¤®": 3094,
      "à¤ıà¤¨à¤¬": 3095,
      "à¤«à¤¸à¤«": 3096,
      "Ġà¤ıà¤«à¤¸": 3097,
      "Ġà¤§à¤¨à¤ķà¤°": 3098,
      "Ġà¤ĵà¤ªà¤¨à¤°": 3099,
      "Ġà¤īà¤ªà¤ķà¤ª": 3100,
      "à¤ªà¤°à¤¬": 3101,
      "à¤°à¤®à¤ª": 3102,
      "Ġà¤ĸà¤²à¤¬à¤²": 3103,
      "Ġà¤¸à¤¨à¤®": 3104,
      "à¤¯à¤«à¤²à¤¹à¤°": 3105,
      "à¥Ģà¥¤à¥¤": 3106,
      "Ġà¤¹à¤°à¤®": 3107,
      "à¤Łà¤¨à¤µ": 3108,
      "à¤ĸà¤¶": 3109,
      "à¤®à¤µà¤¤": 3110,
      "Ġà¤ħà¤¸à¤¤": 3111,
      "Ġà¤ıà¤²à¤¬à¤®": 3112,
      "Ġà¤ĩà¤¯": 3113,
      "à¥§à¥®": 3114,
      "à¤ĩà¤¸à¤²": 3115,
      "Ġà¤ıà¤ķà¤¸": 3116,
      "Ġà¤¹à¤Łà¤ķà¤°": 3117,
      "à¤¸à¤¬à¤°": 3118,
      "Ġà¤Ļ": 3119,
      "Ġà¤ļà¤Łà¤ªà¤Ł": 3120,
      "Ġà¤ıà¤¨à¤ıà¤«": 3121,
      "Ġà¤Ĩà¤µà¤°": 3122,
      "à¤Łà¤¨à¤°à¤¶": 3123,
      "à¤·à¤§à¤°": 3124,
      "à¤°à¤¤à¤°": 3125,
      "à¤¯à¤ļà¤ķ": 3126,
      "Ġà¤Ńà¤°à¤£": 3127,
      "à¤Ńà¤ľà¤¨": 3128,
      "à¤ķà¤®à¤¤": 3129,
      "Ġà¤ĸà¤Ĺà¤¡": 3130,
      "à¥§à¥«": 3131,
      "à¤¯à¤µà¤§": 3132,
      "Ġà¤Īà¤ĵ": 3133,
      "Ġà¤¡à¤µ": 3134,
      "à¤¡à¤²à¤°": 3135,
      "Ġà¤Īà¤ıà¤®à¤Ĩà¤Ī": 3136,
      "Ġà¤ľà¤²à¤ķà¤°": 3137,
      "Ġà¤°à¤¹à¤²": 3138,
      "à¤¾à¤¼": 3139,
      "à¤Ńà¤Ĺà¤¤": 3140,
      "à¤ħà¤¸à¤°": 3141,
      "Ġà¤Ŀà¤ľ": 3142,
      "Ġà¤°à¤®à¤£": 3143,
      "Ġà¤Ĩà¤Īà¤Ĩà¤Ī": 3144,
      "à¤Ńà¤¸": 3145,
      "Ġà¤²à¤¥": 3146,
      "Ġà¤ĸà¤²à¤¨": 3147,
      "Ġà¤ıà¤¨à¤Ĩà¤°à¤¸": 3148,
      "Ġà¤µà¤Ł": 3149,
      "à¤¤à¤Ń": 3150,
      "à¤ħà¤ļ": 3151,
      "Ġà¤ªà¤°à¤ļ": 3152,
      "Ġà¤Ĭà¤·": 3153,
      "Ġà¤ªà¤Ĺ": 3154,
      "Ġà¤Ľà¤¤à¤°": 3155,
      "Ġà¤Ĩà¤Ĺà¤ľà¤¨": 3156,
      "à¤®à¤¥": 3157,
      "à¤°à¤£à¤¯": 3158,
      "à¤¬à¤°à¤²": 3159,
      "Ġà¤ªà¤¨à¤ª": 3160,
      "à¤Ĩà¤°à¤ıà¤¨": 3161,
      "à¤ļà¤°à¤²": 3162,
      "à¤°à¤¦à¤¤": 3163,
      "à¥ĩà¤ĥ": 3164,
      "Ġà¤ħà¤¬à¤ķ": 3165,
      "à¤¯à¤£à¤ª": 3166,
      "à¤¿à¥į": 3167,
      "Ġà¤¯à¤¸": 3168,
      "Ġà¤įà¤Ł": 3169,
      "à¤§à¤°à¤¨": 3170,
      "à¤ªà¤ľ": 3171,
      "Ġà¤ıà¤¸à¤ıà¤®": 3172,
      "à¤ªà¤ķà¤¬": 3173,
      "à¤Ĩà¤ķ": 3174,
      "à¥§à¥¬": 3175,
      "à¤Ĩà¤°à¤¬": 3176,
      "à¥¥à¥¥": 3177,
      "Ġà¤¦à¤¨": 3178,
      "Ġà¤¬à¤Łà¤°": 3179,
      "Ġà¤¸à¤°à¤®": 3180,
      "à¤«à¤¹à¤®": 3181,
      "Ġà¤Łà¤¹": 3182,
      "Ġà¤¡à¤²": 3183,
      "Ġà¤°à¤®à¤ľ": 3184,
      "à¤Ĩà¤ĸ": 3185,
      "Ġà¤Ĩà¤ĩà¤ª": 3186,
      "à¤ĩà¤ªà¤²": 3187,
      "à¤¿à¤¾": 3188,
      "à¤²à¤Ńà¤Ĺà¤¢": 3189,
      "à¥Īà¤ģ": 3190,
      "à¤ļà¤²à¤¤": 3191,
      "Ġà¤ħà¤¨à¤µà¤°à¤¤": 3192,
      "Ġà¤Ĩà¤ĩà¤¸à¤²": 3193,
      "à¤¶à¤¹à¤°": 3194,
      "à¤ıà¤¨à¤ıà¤¨": 3195,
      "à¤¦à¤²à¤ª": 3196,
      "à¤ľà¤¤à¤¨": 3197,
      "Ġà¤ıà¤¤": 3198,
      "à¤ĩà¤¨à¤®": 3199,
      "à¤ıà¤«à¤ĵ": 3200,
      "à¤°à¤®à¤°": 3201,
      "à¤ķà¤°à¤¨": 3202,
      "à¤¨à¤Ŀ": 3203,
      "Ġà¤¬à¤¹à¤ķ": 3204,
      "à¤ļà¤¢": 3205,
      "à¤ĵà¤¬": 3206,
      "Ġà¤ħà¤®à¤ľ": 3207,
      "à¥©à¥¦": 3208,
      "à¤°à¤ĸà¤°": 3209,
      "Ġà¤ªà¤¡à¤¤": 3210,
      "à¤ıà¤¦": 3211,
      "à¤¡à¤¹à¤°": 3212,
      "à¤Ĺà¤ĩà¤¨": 3213,
      "Ġà¤¸à¤¶": 3214,
      "à¤ªà¤²à¤¬": 3215,
      "à¤¯à¤®à¤µà¤°": 3216,
      "Ġà¤¥à¤ªà¤¥": 3217,
      "à¤µà¤°à¤¸": 3218,
      "Ġà¤ħà¤¥à¤°": 3219,
      "Ġà¤ħà¤ķà¤¸à¤°": 3220,
      "à¤ľà¤¯à¤ª": 3221,
      "à¤¯à¤¨à¤ķ": 3222,
      "à¤¬à¤°à¤¦": 3223,
      "Ġà¤¥à¤ªà¤¥à¤ª": 3224,
      "Ġà¤¦à¤¬à¤¦à¤¬": 3225,
      "Ġà¤ıà¤¨à¤ıà¤¸à¤¯": 3226,
      "à¤²à¤Ĺà¤¢": 3227,
      "Ġà¤ªà¤ĸà¤µ": 3228,
      "Ġà¤ķà¤¸à¤¨": 3229,
      "à¤°à¤Ĩà¤¨": 3230,
      "Ġà¤¹à¤ł": 3231,
      "Ġà¤§à¤¨à¤ĸà¤¡": 3232,
      "à¤ľà¤¨à¤µ": 3233,
      "à¤¡à¤°à¤¶": 3234,
      "Ġà¤ľà¤ıà¤¬": 3235,
      "Ġà¤ħà¤¸à¤²à¤®": 3236,
      "Ġà¤ıà¤ļà¤¸": 3237,
      "à¤Ĩà¤°à¤ıà¤²": 3238,
      "à¤°à¤µà¤¶": 3239,
      "Ġà¤Ĩà¤īà¤Łà¤«": 3240,
      "Ġà¤ľà¤¶à¤ª": 3241,
      "à¤Ĺà¤²à¤®à¤¯": 3242,
      "Ġà¤¹à¤°à¤Ńà¤ľà¤¨": 3243,
      "Ġà¥©à¥¨": 3244,
      "à¤ľà¤ķà¤®à¤²": 3245,
      "Ġà¤Ńà¤Łà¤ķà¤¤": 3246,
      "Ġà¤¸à¤§": 3247,
      "à¤¤à¤°à¤ľ": 3248,
      "à¤īà¤ľà¤°": 3249,
      "Ġà¤Ńà¤Ī": 3250,
      "Ġà¤²à¤µà¤²": 3251,
      "à¤·à¤¶": 3252,
      "Ġà¥ł": 3253,
      "Ġà¤ıà¤¯à¤°à¤¬": 3254,
      "Ġà¤ĸà¤°à¤¬": 3255,
      "Ġà¤ªà¤ķà¤µ": 3256,
      "Ġà¤ļà¤£": 3257,
      "à¤Ĺà¤Ĺ": 3258,
      "à¤Ĩà¤¶": 3259,
      "Ġà¤ıà¤¸à¤ľ": 3260,
      "Ġà¤ħà¤īà¤°": 3261,
      "Ġà¤Ĩà¤Īà¤ķ": 3262,
      "Ġà¤ļà¤µ": 3263,
      "à¥Ĩ": 3264,
      "Ġà¤¹à¤°à¤ª": 3265,
      "à¤ķà¤°à¤¬à¤°": 3266,
      "Ġà¤Ĩà¤µà¤·": 3267,
      "à¥ģà¥ģ": 3268,
      "Ġà¤¨à¤ıà¤¨à¤ı": 3269,
      "Ġà¤Ĩà¤ĩà¤¨": 3270,
      "à¤µà¤ķà¤ª": 3271,
      "à¤¯à¤²à¤®": 3272,
      "Ġà¤²à¤¨": 3273,
      "Ġà¤²à¤¥à¤ªà¤¥": 3274,
      "Ġà¤¤à¤Ĩà¤²": 3275,
      "Ġà¤ĵà¤µà¤¨": 3276,
      "Ġà¤īà¤ĸà¤¡": 3277,
      "Ġà¤ħà¤¶à¤°à¤«": 3278,
      "Ġà¤Ńà¤Łà¤ķà¤¨": 3279,
      "à¤°à¤§à¤¨": 3280,
      "à¤°à¤Ńà¤¦": 3281,
      "Ġà¤ıà¤ļà¤ıà¤¸": 3282,
      "Ġà¤ıà¤®à¤°": 3283,
      "Ġà¤ıà¤²à¤Ĩà¤Īà¤¸": 3284,
      "Ġà¤¤à¤¦": 3285,
      "Ġà¥§à¥¯à¥¯": 3286,
      "Ġà¤ĩà¤¨à¤¡": 3287,
      "Ġà¤¸à¤¹à¤®": 3288,
      "à¤ĺà¤ļ": 3289,
      "Ġà¤ķà¤°à¤µà¤Ł": 3290,
      "à¤Łà¤ł": 3291,
      "à¤®à¤ľà¤¦": 3292,
      "Ġà¤¹à¤ľà¤°à¤¤": 3293,
      "à¤°à¤¤à¤¨": 3294,
      "Ġà¤īà¤¬à¤°à¤¨": 3295,
      "à¤ĭà¤·": 3296,
      "à¤ıà¤ļà¤¯": 3297,
      "Ġà¤¬à¤°à¤¹": 3298,
      "Ġà¤¨à¤µà¤¦": 3299,
      "Ġà¤Ĺà¤łà¤ľ": 3300,
      "Ġà¤ıà¤®à¤ĵ": 3301,
      "Ġà¤ķà¤²à¤¯": 3302,
      "Ġà¤ıà¤²à¤ıà¤²": 3303,
      "à¤¦à¤ĸ": 3304,
      "Ġà¤¸à¤°à¤«": 3305,
      "Ġà¤ªà¤łà¤¨": 3306,
      "Ġà¤°à¤¬à¤°": 3307,
      "Ġà¤īà¤¬à¤²": 3308,
      "Ġà¤ħà¤ķà¤²": 3309,
      "Ġà¤ıà¤¸à¤ıà¤ļà¤ĵ": 3310,
      "à¤Īà¤ķà¤®": 3311,
      "à¤¡à¤ĩà¤¨": 3312,
      "à¤¨à¤¸à¤®": 3313,
      "à¤Ĺà¤§": 3314,
      "à¤ªà¤Ĺ": 3315,
      "Ġà¤ľà¤¯à¤ķ": 3316,
      "Ġà¤ļà¤ªà¤¤": 3317,
      "à¤Ńà¤Ĺà¤µ": 3318,
      "Ġà¤«à¤£": 3319,
      "Ġà¤Ĺà¤²à¤¤à¤«à¤¹à¤®": 3320,
      "Ġà¤Ĩà¤īà¤Łà¤¡": 3321,
      "à¤¨à¤°à¤²": 3322,
      "à¤¸à¤²à¤µ": 3323,
      "Ġà¤ªà¤Łà¤²": 3324,
      "Ġà¤Ĩà¤°à¤ĵà¤¡": 3325,
      "à¤°à¤ĺ": 3326,
      "Ġà¤ķà¤Łà¤ĳà¤«": 3327,
      "à¤ıà¤®à¤ı": 3328,
      "Ġà¤°à¤Ĺ": 3329,
      "à¤²à¤¯à¤¨": 3330,
      "Ġà¤¬à¤°à¤¨": 3331,
      "Ġà¤Ńà¤Ń": 3332,
      "à¤ıà¤¸à¤ıà¤¨à¤ıà¤²": 3333,
      "Ġà¤¦à¤®à¤ķà¤²": 3334,
      "Ġà¤ħà¤ªà¤¸": 3335,
      "Ġà¤ĵà¤µà¤°à¤²": 3336,
      "Ġà¤ľà¤Ĺà¤®": 3337,
      "Ġà¤¸à¤¨à¤ķ": 3338,
      "Ġà¤ĩà¤ľà¤¹": 3339,
      "Ġà¤Ķà¤ļà¤ķ": 3340,
      "à¤¦à¤ĸà¤²": 3341,
      "Ġà¤¸à¤ĺà¤¨": 3342,
      "à¤¬à¤ķà¤°": 3343,
      "Ġà¤īà¤§à¤®": 3344,
      "à¤°à¤ķà¤®": 3345,
      "à¤¥à¤¨à¤Ĺà¤°": 3346,
      "Ġà¤ıà¤²à¤ı": 3347,
      "Ġà¤ıà¤«à¤ıà¤®": 3348,
      "Ġà¤ķà¤ļà¤¹à¤°": 3349,
      "à¤¾à¥Ī": 3350,
      "Ġà¤ıà¤¡à¤²": 3351,
      "Ġà¤ħà¤¸à¤®à¤¯": 3352,
      "à¤¦à¤°à¤ķ": 3353,
      "Ġà¤İ": 3354,
      "à¤¤à¤ĸ": 3355,
      "à¥Ģà¤Ĥà¤Ĥ": 3356,
      "Ġà¤Ńà¤¨": 3357,
      "Ġà¤ħà¤¨à¤ļ": 3358,
      "à¤¬à¤¹à¤°": 3359,
      "Ġà¥§à¥¦à¥¦": 3360,
      "à¤¯à¤¸à¤¨": 3361,
      "à¤Īà¤°": 3362,
      "à¤¤à¤°à¤¬": 3363,
      "à¤·à¤¯à¤ķ": 3364,
      "à¤Ĺà¤²à¤ªà¤¨": 3365,
      "à¤·à¤ľà¤¨à¤ķ": 3366,
      "Ġà¤Łà¤ªà¤ķ": 3367,
      "à¤Īà¤¶": 3368,
      "à¤Ĺà¤ľà¤¨": 3369,
      "à¤Ĩà¤°à¤ĵ": 3370,
      "à¤¡à¤¹": 3371,
      "à¤¨à¤µà¤ľ": 3372,
      "Ġà¤ħà¤¨à¤°": 3373,
      "à¤ĩà¤ľà¤¨": 3374,
      "à¤ĩà¤°à¤¸": 3375,
      "Ġà¥¨à¥§": 3376,
      "à¤¡à¤¡": 3377,
      "à¤µà¤²à¤®": 3378,
      "Ġà¤²à¤²à¤ķ": 3379,
      "à¤Ĩà¤µ": 3380,
      "à¤Ĺà¤²à¤¸": 3381,
      "Ġà¤ĺà¤¨à¤¤": 3382,
      "à¤Ĩà¤Īà¤ľ": 3383,
      "à¤ĳà¤¸": 3384,
      "Ġà¤ľà¤¨à¤§à¤¨": 3385,
      "Ġà¤ľà¤Ĺà¤¦à¤²à¤ª": 3386,
      "à¤²à¤ķà¤¨": 3387,
      "Ġà¤ıà¤¸à¤ı": 3388,
      "à¤Ľà¤µ": 3389,
      "à¥§à¥§": 3390,
      "à¤ħà¤¬à¤¤à¤ķ": 3391,
      "à¤Łà¤²à¤®": 3392,
      "à¥Īà¥¤à¥¤": 3393,
      "Ġà¤ľà¤¨à¤ľà¤¨": 3394,
      "à¤µà¤¥": 3395,
      "Ġà¤ıà¤ļà¤Ł": 3396,
      "à¥§à¥§à¥": 3397,
      "à¤®à¤Ŀ": 3398,
      "Ġà¤¹à¤®à¤®": 3399,
      "Ġà¤Īà¤¦à¤Ĺ": 3400,
      "Ġà¤®à¤Ŀ": 3401,
      "Ġà¤°à¤¸à¤¦": 3402,
      "à¤µà¤²à¤ķà¤°": 3403,
      "à¤¥à¤¦": 3404,
      "à¥«à¥¦": 3405,
      "à¤Ĺà¤°à¤®": 3406,
      "à¤ıà¤®à¤ıà¤ķ": 3407,
      "à¤ľà¤¯à¤ķ": 3408,
      "à¤Ĩà¤¸": 3409,
      "à¤ĵà¤¶": 3410,
      "Ġà¤Ŀà¤Ł": 3411,
      "Ġà¤¡à¤Ĺ": 3412,
      "Ġà¤ħà¤ķà¤°": 3413,
      "Ġà¤Ķà¤²": 3414,
      "à¤²à¤ĸà¤¨à¤Ĭ": 3415,
      "à¤«à¤°à¤²": 3416,
      "Ġà¤¬à¤°à¤ª": 3417,
      "à¤°à¤¤à¤²": 3418,
      "à¤¯à¤°à¤«": 3419,
      "Ġà¤ĵà¤¨": 3420,
      "Ġà¤ıà¤¯à¤°à¤¸": 3421,
      "à¤·à¤µ": 3422,
      "Ġà¤¬à¤°à¤ĸ": 3423,
      "à¤Īà¤ı": 3424,
      "Ġà¤ķà¤°à¤ķà¤°": 3425,
      "Ġà¤ķà¤Łà¤ĺà¤°": 3426,
      "à¤ķà¤®à¤²": 3427,
      "Ġà¤ıà¤¸à¤Īà¤ĵ": 3428,
      "à¤²à¤¹à¤¨": 3429,
      "Ġà¤¸à¤¹à¤ª": 3430,
      "à¤®à¤¦à¤Ĺ": 3431,
      "à¤°à¤ªà¤¦": 3432,
      "à¤²à¤Ĺà¤ª": 3433,
      "Ġà¤ªà¤¤à¤°": 3434,
      "à¤¶à¤¨à¤¬": 3435,
      "Ġà¤Ĩà¤Īà¤ıà¤«": 3436,
      "Ġà¤ħà¤¹à¤²": 3437,
      "Ġà¤Ŀà¤ķà¤Ŀ": 3438,
      "Ġà¤®à¤ķà¤¬à¤°": 3439,
      "Ġà¤ļà¤¯à¤¨à¤ķà¤°": 3440,
      "Ġà¤®à¤°à¤ķà¤ľ": 3441,
      "à¤¹à¤¨à¤¤à¤ķà¤¶": 3442,
      "Ġà¤¹à¤¯": 3443,
      "à¤ľà¤¸à¤®": 3444,
      "à¤ĩà¤¸à¤®": 3445,
      "Ġà¤ħà¤®à¤°à¤ķ": 3446,
      "Ġà¤®à¤ľà¤°": 3447,
      "Ġà¤ĵà¤¶à¤¨": 3448,
      "à¤ıà¤®à¤ľ": 3449,
      "à¤ªà¤Łà¤ķ": 3450,
      "à¤ªà¤°à¤¤": 3451,
      "à¤¶à¤ıà¤®": 3452,
      "Ġà¤ĵà¤ıà¤¸": 3453,
      "Ġà¤ıà¤ıà¤¸à¤ª": 3454,
      "à¤ĸà¤ľ": 3455,
      "à¤ļà¤Ĺ": 3456,
      "Ġà¤ħà¤ķà¤°à¤®": 3457,
      "à¤¨à¤¦à¤¤": 3458,
      "Ġà¤·à¤¡à¤¯": 3459,
      "Ġà¤¸à¤Ī": 3460,
      "Ġà¤°à¤ªà¤Ł": 3461,
      "Ġà¤ľà¤®à¤¨": 3462,
      "à¥īà¥¤": 3463,
      "à¤°à¤¥à¤²": 3464,
      "Ġà¤ķà¤°à¤®": 3465,
      "Ġà¤Ľà¤®": 3466,
      "à¤¥à¤²à¤Ĺ": 3467,
      "à¤£à¤¤à¤¯": 3468,
      "Ġà¤¸à¤°à¤¤": 3469,
      "à¤®à¤¨à¤Ĺ": 3470,
      "Ġà¤Ľà¤¦": 3471,
      "à¤ıà¤²à¤ıà¤«": 3472,
      "Ġà¤¨à¤°à¤µà¤£": 3473,
      "Ġà¤ħà¤°à¤¬à¤ªà¤¤": 3474,
      "Ġà¤®à¤°à¤µ": 3475,
      "Ġà¤ıà¤Ĩà¤°": 3476,
      "à¤ĳà¤ª": 3477,
      "Ġà¤°à¤ľà¤µ": 3478,
      "Ġà¤¡à¤®": 3479,
      "Ġà¤¨à¤¯à¤¨à¤ª": 3480,
      "à¤®à¤¦à¤¤": 3481,
      "Ġà¤¨à¤°à¤µ": 3482,
      "Ġà¤Ĺà¤ľà¤°": 3483,
      "à¤ıà¤²à¤ı": 3484,
      "Ġà¤¬à¤Łà¤²à¤°": 3485,
      "Ġà¤¤à¤«": 3486,
      "à¤°à¤µà¤¤": 3487,
      "Ġà¤§à¤¤": 3488,
      "à¤¡à¤°à¤²": 3489,
      "à¥¨à¥¬": 3490,
      "à¤¬à¤¹à¤¸": 3491,
      "à¤Ĺà¤ªà¤°": 3492,
      "Ġà¤¶à¤¤à¤ª": 3493,
      "Ġà¤®à¤¨à¤ªà¤¸": 3494,
      "à¤°à¤Ī": 3495,
      "Ġà¤¦à¤°à¤®": 3496,
      "à¤®à¤Ńà¤ķ": 3497,
      "Ġà¤¯à¤µà¤¤à¤®": 3498,
      "Ġà¤ļà¤®à¤ļ": 3499,
      "à¤ĸà¤®à¤°": 3500,
      "à¤ķà¤°à¤ª": 3501,
      "à¤Ĺà¤²à¤°": 3502,
      "Ġà¤ĸà¤ª": 3503,
      "Ġà¤ķà¤Łà¤¹à¤²": 3504,
      "à¤¶à¤²à¤ķ": 3505,
      "à¤¥à¤ľ": 3506,
      "à¤ıà¤®à¤¡à¤¬": 3507,
      "à¤µà¤¹à¤°": 3508,
      "Ġà¤ĸà¤¸à¤°": 3509,
      "Ġà¤¨à¤ļ": 3510,
      "à¤«à¤µ": 3511,
      "à¤°à¤¤à¤Ł": 3512,
      "à¤Ŀà¤Ł": 3513,
      "à¤¹à¤¤à¤Ĺ": 3514,
      "à¤²à¤ıà¤ķ": 3515,
      "Ġà¤ĳà¤°à¤²": 3516,
      "Ġà¤ľà¤¨à¤®à¤¤": 3517,
      "à¤Ĩà¤°à¤ķ": 3518,
      "Ġà¤¹à¤¶": 3519,
      "Ġà¤¬à¤ľà¤¤": 3520,
      "Ġà¤ıà¤®à¤µ": 3521,
      "Ġà¤¸à¤ļà¤¦": 3522,
      "Ġà¤«à¤°à¤¹": 3523,
      "à¤®à¤¸à¤¨": 3524,
      "à¤¤à¤°à¤¨": 3525,
      "à¤²à¤®à¤Īà¤ľ": 3526,
      "à¤ļà¤µà¤Ł": 3527,
      "Ġà¤¤à¤¸à¤²": 3528,
      "à¤¸à¤°à¤«": 3529,
      "Ġà¤łà¤¹à¤°à¤¨": 3530,
      "à¤¥à¤ķà¤¤": 3531,
      "Ġà¤¨à¤¨à¤¦": 3532,
      "Ġà¥§à¥§à¥": 3533,
      "Ġà¤ļà¤¤à¤°": 3534,
      "à¤°à¤¤à¤ħà¤®": 3535,
      "Ġà¤¸à¤²à¤µ": 3536,
      "Ġà¤Ĩà¤¯à¤°": 3537,
      "Ġà¤ķà¤£à¤ķ": 3538,
      "Ġà¤ļà¤¯": 3539,
      "à¤¯à¤°à¤¸à¤Ń": 3540,
      "à¤°à¤¹à¤²": 3541,
      "à¤¤à¤®à¤¬": 3542,
      "Ġà¤®à¤Ĺà¤°à¤®à¤ļ": 3543,
      "à¤¤à¤Ńà¤°": 3544,
      "à¤µà¤ļà¤¨": 3545,
      "Ġà¤ļà¤®à¤ķà¤¨": 3546,
      "à¤°à¤²à¤¯": 3547,
      "Ġà¤ħà¤¸à¤¹à¤ľ": 3548,
      "Ġà¤ıà¤ıà¤¨à¤ıà¤®": 3549,
      "Ġà¤¸à¤¨à¤¸": 3550,
      "Ġà¤¶à¤Ĺ": 3551,
      "à¤¸à¤ĺ": 3552,
      "Ġà¤°à¤£à¤¦": 3553,
      "Ġà¤Ķà¤ªà¤¨": 3554,
      "Ġà¤ıà¤¸à¤ĵà¤ľ": 3555,
      "à¤²à¤¨à¤ª": 3556,
      "à¤¬à¤°à¤¦à¤¸": 3557,
      "Ġà¤®à¤¢": 3558,
      "à¤¸à¤ıà¤¨à¤¯": 3559,
      "Ġà¤®à¤Ĺà¤§": 3560,
      "à¤ıà¤¸à¤ıà¤®": 3561,
      "Ġà¤¦à¤¦à¤²": 3562,
      "Ġà¤ħà¤¥à¤ķ": 3563,
      "Ġà¤ļà¤ĸ": 3564,
      "à¤ıà¤¤": 3565,
      "Ġà¤¸à¤®à¤¤à¤²": 3566,
      "Ġà¤ķà¤£à¤ķà¤£": 3567,
      "Ġà¤Ĩà¤ªà¤®": 3568,
      "à¤Łà¤¸à¤¨": 3569,
      "Ġà¤Ńà¤°à¤µ": 3570,
      "Ġà¤¤à¤µà¤ľ": 3571,
      "à¤¼à¥ĩà¤Ĥà¤ĥ": 3572,
      "Ġà¤ļà¤ķà¤¨": 3573,
      "Ġà¤¹à¤¨à¤¨": 3574,
      "à¤¼à¤¼": 3575,
      "Ġà¤ªà¤°à¤ĸà¤¨": 3576,
      "Ġà¤Ĳà¤®à¤ľ": 3577,
      "Ġà¤¬à¤¸à¤¤": 3578,
      "Ġà¤°à¤¯": 3579,
      "Ġà¤ķà¤¨à¤ķ": 3580,
      "Ġà¤Ĺà¤¬": 3581,
      "à¤°à¤¸à¤ª": 3582,
      "à¤ļà¤¯à¤¨": 3583,
      "Ġà¤ıà¤ıà¤¸à¤Ĩà¤Ī": 3584,
      "à¤Łà¤ħà¤¹à¤®à¤¦": 3585,
      "à¤Ĩà¤°à¤ı": 3586,
      "à¤¸à¤¨à¤¹": 3587,
      "Ġà¤¬à¤«": 3588,
      "à¤µà¤¨à¤¦": 3589,
      "Ġà¤Ĩà¤Īà¤ıà¤¨à¤ıà¤¸": 3590,
      "à¥įà¤Ĥ": 3591,
      "à¥ĭà¤Ĥà¤Ĥ": 3592,
      "à¤Łà¤¨à¤®": 3593,
      "à¤ķà¤°à¤ķ": 3594,
      "à¤ªà¤ķà¤²": 3595,
      "à¤ķà¤Ĺà¤£": 3596,
      "à¤°à¤¦à¤¨": 3597,
      "Ġà¤ľà¤²à¤Ĺ": 3598,
      "Ġà¤¤à¤¹à¤ĸ": 3599,
      "Ġà¤¨à¤¸à¤°": 3600,
      "à¤µà¤°à¤¨": 3601,
      "Ġà¤¨à¤µà¤µ": 3602,
      "Ġà¤µà¤¨à¤ª": 3603,
      "à¤¯à¤ķà¤°à¤£": 3604,
      "Ġà¥©à¥§": 3605,
      "Ġà¤Ĩà¤¹à¤°": 3606,
      "Ġà¤Ĩà¤£": 3607,
      "à¤Ĩà¤¹": 3608,
      "à¤£à¤°": 3609,
      "Ġà¤¬à¤¢à¤©": 3610,
      "à¤¤à¤ī": 3611,
      "à¤¯à¤¤à¤ķà¤°": 3612,
      "Ġà¤¨à¤ľà¤°à¤¬": 3613,
      "Ġà¤ªà¤²à¤ªà¤²": 3614,
      "Ġà¤¸à¤°à¤µ": 3615,
      "Ġà¤¤à¤°à¤¸à¤¤": 3616,
      "Ġà¤¦à¤²à¤¦à¤²": 3617,
      "Ġà¤ħà¤²à¤¬": 3618,
      "Ġà¤ĩà¤¹": 3619,
      "Ġà¤ħà¤¨à¤¹": 3620,
      "à¤®à¤°à¤¤": 3621,
      "Ġà¤Ĩà¤°à¤¡": 3622,
      "à¤²à¤¨à¤ľ": 3623,
      "Ġà¤¹à¤°à¤²": 3624,
      "Ġà¤ľà¤¸à¤¦": 3625,
      "Ġà¤ħà¤ľà¤Ĺà¤°": 3626,
      "Ġà¤²à¤Łà¤ķà¤¤": 3627,
      "à¤ıà¤«à¤Ĩà¤Ī": 3628,
      "à¤ªà¤¸à¤¨": 3629,
      "à¤Ĺà¤²à¤¬": 3630,
      "Ġà¤īà¤¤à¤°à¤ķà¤°": 3631,
      "à¤¨à¤®à¤°": 3632,
      "à¥ĩà¥¤à¥¤": 3633,
      "Ġà¤Ĩà¤¯à¤¶": 3634,
      "Ġà¤§à¤¨à¤¸": 3635,
      "Ġà¤ļà¤ķà¤°": 3636,
      "à¤®à¤¨à¤µ": 3637,
      "Ġà¤Ĩà¤Īà¤µ": 3638,
      "à¤ļà¤¦": 3639,
      "à¤Ńà¤§": 3640,
      "à¤ªà¤ļà¤¯": 3641,
      "Ġà¤ħà¤µà¤¹": 3642,
      "Ġà¤¸à¤¹à¤ľà¤¨": 3643,
      "Ġà¤²à¤¹à¤ľ": 3644,
      "Ġà¤Ľà¤Ĺ": 3645,
      "Ġà¤ļà¤¸": 3646,
      "à¤Ķà¤§": 3647,
      "à¤¶à¤ļ": 3648,
      "à¤¹à¤¨à¤²": 3649,
      "à¤°à¤ķà¤ª": 3650,
      "Ġà¤²à¤ĸà¤¨à¤ª": 3651,
      "à¤²à¤Ĺà¤ĩà¤¨": 3652,
      "à¥¨à¥¯": 3653,
      "Ġà¤¿": 3654,
      "Ġà¤ķà¤®à¤¸": 3655,
      "Ġà¤Ĩà¤Īà¤ıà¤®à¤ı": 3656,
      "Ġà¤ļà¤®à¤¨": 3657,
      "à¤¸à¤°à¤²": 3658,
      "Ġà¥§à¥¯à¥Ń": 3659,
      "Ġà¤Ĩà¤°à¤ıà¤¨à¤ı": 3660,
      "à¤¨à¤¦à¤¹": 3661,
      "Ġà¤ħà¤¨à¤ª": 3662,
      "Ġà¤¸à¤°à¤Ĺà¤®": 3663,
      "à¤¨à¤®à¤¨": 3664,
      "Ġà¤Ĭà¤¬": 3665,
      "à¤ĩà¤²à¤«": 3666,
      "à¤²à¤ļà¤°": 3667,
      "Ġà¤¶à¤Łà¤°": 3668,
      "Ġà¤¨à¤°à¤Ĺ": 3669,
      "Ġà¤°à¤Īà¤¸": 3670,
      "Ġà¤®à¤¸à¤°": 3671,
      "Ġà¤¬à¤ł": 3672,
      "à¤¶à¤Ł": 3673,
      "à¤°à¤¶à¤°": 3674,
      "à¤¤à¤«à¤°": 3675,
      "Ġà¤ħà¤ķà¤¬à¤°à¤ª": 3676,
      "Ġà¤¬à¤Ľà¤¡": 3677,
      "à¤µà¤°à¤µ": 3678,
      "à¤·à¤²": 3679,
      "à¤¸à¤°à¤¬": 3680,
      "Ġà¤ªà¤¢à¤¤": 3681,
      "à¤Ńà¤Ł": 3682,
      "Ġà¤µà¤¯": 3683,
      "Ġà¤®à¤¦à¤¨à¤®": 3684,
      "Ġà¤¤à¤¦à¤¨": 3685,
      "à¤ĸà¤¸à¤®": 3686,
      "à¤¯à¤²à¤°": 3687,
      "à¤®à¤¨à¤¸": 3688,
      "Ġà¤¨à¤µà¤µà¤°": 3689,
      "Ġà¤ľà¤µà¤¨": 3690,
      "Ġà¤Ĩà¤°à¤ıà¤¸": 3691,
      "à¤Ĩà¤¡": 3692,
      "à¤¯à¤ªà¤°": 3693,
      "Ġà¤łà¤¨": 3694,
      "Ġà¤®à¤²à¤ª": 3695,
      "Ġà¤ħà¤²à¤ĸ": 3696,
      "Ġà¤ľà¤«à¤°": 3697,
      "Ġà¤ĥ": 3698,
      "Ġà¤¬à¤°à¤Ĺà¤¦": 3699,
      "à¤¡à¤¯": 3700,
      "à¤°à¤®à¤¸": 3701,
      "à¤µà¤°à¤¹": 3702,
      "Ġà¤¸à¤ªà¤°": 3703,
      "Ġà¥ªà¥§": 3704,
      "à¤¶à¤®à¤¨": 3705,
      "à¤ľà¤ªà¤¥": 3706,
      "à¤ķà¤Łà¤ķ": 3707,
      "Ġà¤ľà¤¬à¤ľà¤¬": 3708,
      "à¤Ńà¤²à¤Ĺà¤¢": 3709,
      "Ġà¤ıà¤²à¤¸": 3710,
      "à¤°à¤¶à¤¨": 3711,
      "Ġà¤«à¤«": 3712,
      "Ġà¤Ľà¤Łà¤ªà¤Ł": 3713,
      "Ġà¤°à¤¨à¤µ": 3714,
      "à¤·à¤¯à¤µ": 3715,
      "Ġà¤Ĺà¤ªà¤¶à¤ª": 3716,
      "Ġà¤ıà¤Łà¤²": 3717,
      "à¤Ĺà¤Ī": 3718,
      "à¤ľà¤°à¤®": 3719,
      "à¤¹à¤¨à¤µ": 3720,
      "à¤ħà¤«": 3721,
      "Ġà¤ķà¤µà¤¯": 3722,
      "Ġà¤¯à¤¨": 3723,
      "Ġà¤ªà¤°à¤ķ": 3724,
      "à¥ģà¥į": 3725,
      "Ġà¤ľà¤¬à¤¸": 3726,
      "à¤®à¤ķà¤¶": 3727,
      "à¤¹à¤µà¤°": 3728,
      "Ġà¤Ĳà¤ľ": 3729,
      "Ġà¤¹à¤Łà¤µ": 3730,
      "Ġà¤§à¤µà¤²": 3731,
      "Ġà¤®à¤¤à¤²": 3732,
      "à¤¨à¤¨à¤Ĺà¤°": 3733,
      "à¥ħà¤Ĥ": 3734,
      "Ġà¥§à¥¯à¥®": 3735,
      "à¤§à¤µà¤¨": 3736,
      "Ġà¤ķà¤ľà¤°": 3737,
      "Ġà¤Ĩà¤¯à¤¨": 3738,
      "à¤Ĩà¤Īà¤ıà¤¸": 3739,
      "à¤ľà¤¨à¤ªà¤¦": 3740,
      "Ġà¤¸à¤ķà¤Ł": 3741,
      "Ġà¤ªà¤¸à¤²": 3742,
      "à¤¤à¤ķà¤¬": 3743,
      "à¤ľà¤¹à¤¦": 3744,
      "Ġà¤ļà¤ķà¤®": 3745,
      "à¤¸à¤ĸà¤£": 3746,
      "à¤ľà¤Ł": 3747,
      "Ġà¤īà¤ľà¤¡": 3748,
      "à¥Ģà¥¤à¥¤à¥¤": 3749,
      "à¤²à¤ĸà¤£": 3750,
      "à¤®à¤ķà¤²": 3751,
      "à¤²à¤¸à¤¨": 3752,
      "à¤¯à¤Łà¤°": 3753,
      "Ġà¤ªà¤ŀ": 3754,
      "à¤ªà¤¤à¤µ": 3755,
      "à¤¬à¤Īà¤ķà¤°": 3756,
      "à¤°à¤ĵà¤¶": 3757,
      "Ġà¤Ľà¤ªà¤¨": 3758,
      "Ġà¤¤à¤¸à¤µ": 3759,
      "Ġà¤ľà¤¸à¤²": 3760,
      "à¤ļà¤°à¤°": 3761,
      "à¤²à¤¬à¤Ĺà¤¢": 3762,
      "à¤²à¤¦à¤¸": 3763,
      "Ġà¤¨à¤°à¤ķà¤Ł": 3764,
      "à¤īà¤ļà¤°": 3765,
      "à¥¤à¥¤à¥¤à¥¤": 3766,
      "Ġà¤ķà¤łà¤ª": 3767,
      "Ġà¤Ĺà¤¹": 3768,
      "Ġà¤Ĩà¤¨à¤¨à¤«": 3769,
      "Ġà¤ĳà¤¨à¤¸": 3770,
      "Ġà¤ªà¤ķà¤¨": 3771,
      "à¤ªà¤®à¤¨": 3772,
      "Ġà¤²à¤ªà¤Ł": 3773,
      "Ġà¤Ĩà¤¦à¤¤à¤¨": 3774,
      "à¥¨à¥ª": 3775,
      "à¤¦à¤¶à¤®": 3776,
      "à¤ľà¤¨à¤Ĺ": 3777,
      "Ġà¤Ŀà¤²": 3778,
      "Ġà¤¸à¤°à¤µà¤°": 3779,
      "Ġà¤ķà¤¸à¤¤": 3780,
      "à¤µà¤²à¤¨": 3781,
      "Ġà¤¨à¤µà¤¯": 3782,
      "Ġà¤İà¤¸": 3783,
      "Ġà¤Ĩà¤ĵà¤Ĺ": 3784,
      "Ġà¤ªà¤°à¤®à¤¹": 3785,
      "Ġà¤ªà¤¨à¤ķ": 3786,
      "Ġà¤Ĩà¤īà¤Łà¤¸": 3787,
      "Ġà¤¶à¤¬à¤¨à¤®": 3788,
      "à¤Ĺà¤ľà¤Ĺà¤¤": 3789,
      "Ġà¤²à¤ķà¤µ": 3790,
      "à¤Ńà¤ļ": 3791,
      "Ġà¤ļà¤°à¤£à¤¬à¤¦": 3792,
      "Ġà¤Īà¤Ĺ": 3793,
      "à¤ıà¤«à¤ı": 3794,
      "à¤ĩà¤®à¤²": 3795,
      "Ġà¤¨à¤ĩ": 3796,
      "à¤¸à¤ł": 3797,
      "à¤ķà¤²à¤µ": 3798,
      "Ġà¤¤à¤¨à¤ĸ": 3799,
      "à¤¬à¤°à¤ķ": 3800,
      "à¤£à¤ªà¤¶": 3801,
      "à¤¤à¤¨à¤¤": 3802,
      "à¥¨à¥©": 3803,
      "à¤Ĩà¤Īà¤¯": 3804,
      "à¤ľà¤¨à¤°": 3805,
      "à¤Ĺà¤²à¤¨": 3806,
      "à¤¡à¤¸à¤¨": 3807,
      "à¤µà¤°à¤£à¤ı": 3808,
      "à¤²à¤ªà¤°à¤®à¤µ": 3809,
      "à¤Ĭà¤¨": 3810,
      "à¤ĸà¤°à¤¸": 3811,
      "à¤ıà¤¨à¤Ł": 3812,
      "Ġà¤°à¤Ł": 3813,
      "Ġà¤ħà¤°à¤µà¤²": 3814,
      "à¤Ĺà¤®à¤°à¤®à¤°": 3815,
      "à¤°à¤®à¤£à¤ķ": 3816,
      "Ġà¤¹à¤°à¤Ĺ": 3817,
      "à¤ıà¤²à¤ª": 3818,
      "Ġà¤Ŀà¤£": 3819,
      "Ġà¥§à¥¯à¥¬": 3820,
      "Ġà¤īà¤ªà¤®à¤¹": 3821,
      "à¤°à¤¬à¤¸": 3822,
      "à¤°à¤ĺà¤°": 3823,
      "à¥ĩà¥¤à¥¤à¥¤": 3824,
      "Ġà¤¶à¤°à¤ľ": 3825,
      "à¤®à¤²à¤²": 3826,
      "Ġà¤ĸà¤°à¤ªà¤¤à¤µ": 3827,
      "Ġà¤ļà¤°à¤¸": 3828,
      "à¤ħà¤ľ": 3829,
      "à¤£à¤ķà¤Ł": 3830,
      "Ġà¤ķà¤Łà¤ķ": 3831,
      "Ġà¤Īà¤¯": 3832,
      "Ġà¤ħà¤«à¤ľà¤²": 3833,
      "Ġà¤¶à¤°à¤®": 3834,
      "à¤¹à¤°à¤¦": 3835,
      "à¤¤à¤°à¤ªà¤¶": 3836,
      "à¤°à¤®à¤¯": 3837,
      "à¤¸à¤Łà¤¨": 3838,
      "Ġà¤ħà¤°à¤£": 3839,
      "à¤ĩà¤ķà¤°": 3840,
      "Ġà¤¬à¤°à¤¬": 3841,
      "Ġà¤¤à¤²à¤¤": 3842,
      "à¤²à¤®à¤¨": 3843,
      "à¤¹à¤¨à¤°": 3844,
      "à¤ĩà¤¨à¤ķ": 3845,
      "à¤ıà¤²à¤¸": 3846,
      "à¤¡à¤ħà¤ª": 3847,
      "Ġà¤ħà¤¨à¤ķà¤¹": 3848,
      "à¤ħà¤¦à¤¬": 3849,
      "Ġà¤¶à¤¹à¤°à¤¯": 3850,
      "à¤īà¤¡à¤¸": 3851,
      "Ġà¤«à¤²à¤¤": 3852,
      "à¤²à¤§": 3853,
      "à¤ıà¤®à¤¡": 3854,
      "à¤¤à¤ķà¤µ": 3855,
      "Ġà¤ªà¤¦à¤®": 3856,
      "à¤¨à¤§à¤¨": 3857,
      "Ġà¤īà¤¹": 3858,
      "Ġà¤ªà¤£à¤ľ": 3859,
      "Ġà¤¸à¤¤à¤Ĺ": 3860,
      "à¤īà¤°à¤ķ": 3861,
      "à¤¡à¤°à¤Ĺ": 3862,
      "Ġà¤īà¤Ĺà¤²": 3863,
      "à¤¤à¤¨à¤Ĺà¤°": 3864,
      "Ġà¥«à¥¦": 3865,
      "Ġà¤¾": 3866,
      "Ġà¤Ľà¤łà¤µ": 3867,
      "Ġà¤ķà¤¤à¤°à¤¨": 3868,
      "à¤°à¤ľà¤®": 3869,
      "à¤µà¤Ńà¤°": 3870,
      "à¤ķà¤Ĩà¤°": 3871,
      "Ġà¤¶à¤¯à¤¨": 3872,
      "à¤¦à¤«": 3873,
      "à¤ĸà¤¨à¤²": 3874,
      "à¤ªà¤ıà¤ķ": 3875,
      "Ġà¤¤à¤°à¤ľ": 3876,
      "Ġà¤Ĩà¤Īà¤ıà¤¸à¤Ĩà¤Īà¤ıà¤¸": 3877,
      "à¤®à¤¶à¤¬": 3878,
      "Ġà¤¬à¤¦à¤¸": 3879,
      "Ġà¤«à¤µ": 3880,
      "à¤ıà¤ļà¤ıà¤¸": 3881,
      "Ġà¤ľà¤¬à¤¡": 3882,
      "Ġà¤ıà¤®à¤ıà¤¨": 3883,
      "Ġà¤Ĩà¤ªà¤²": 3884,
      "à¤®à¤®à¤¤": 3885,
      "à¤Ĩà¤Īà¤Ĩà¤Ī": 3886,
      "Ġà¤ħà¤¦à¤²": 3887,
      "Ġà¤¸à¤°à¤«à¤°": 3888,
      "à¤°à¤®à¤£à¤®": 3889,
      "à¤¨à¤µà¤²à¤ķà¤°": 3890,
      "Ġà¤ķà¤²à¤µ": 3891,
      "Ġà¤ħà¤«à¤ľ": 3892,
      "Ġà¤®à¤«": 3893,
      "à¤°à¤Ĺà¤²": 3894,
      "à¤£à¤¦": 3895,
      "Ġà¤¸à¤®à¤¯à¤¬à¤¦": 3896,
      "Ġà¤¦à¤¯à¤¨": 3897,
      "Ġà¤ıà¤ıà¤¸": 3898,
      "Ġà¤¨à¤¥": 3899,
      "Ġà¤īà¤¥à¤²à¤ª": 3900,
      "à¤ıà¤ļà¤ª": 3901,
      "Ġà¤ıà¤¯": 3902,
      "Ġà¤ħà¤°à¤¶à¤¦": 3903,
      "Ġà¤ħà¤°à¤¦": 3904,
      "Ġà¤ħà¤¨à¤ªà¤¢": 3905,
      "Ġà¤ĵà¤µà¤°à¤Ł": 3906,
      "à¤®à¤Ĺà¤°": 3907,
      "Ġà¤ĩà¤ķà¤¨": 3908,
      "à¤¦à¤°à¤¬": 3909,
      "à¤µà¤Łà¤°": 3910,
      "Ġà¤¨à¤¸à¤¬": 3911,
      "à¤Ĺà¤®à¤¤": 3912,
      "à¤Łà¤ķà¤Ł": 3913,
      "Ġà¤ıà¤®à¤ıà¤²à¤¸": 3914,
      "Ġà¤¤à¤¶": 3915,
      "Ġà¤ªà¤°à¤ľ": 3916,
      "à¤ıà¤¸à¤Ĩà¤Īà¤Ĩà¤°": 3917,
      "Ġà¤Ńà¤ľ": 3918,
      "Ġà¤¸à¤¦à¤Ń": 3919,
      "à¤¸à¤¨à¤µ": 3920,
      "Ġà¤ıà¤«à¤ı": 3921,
      "Ġà¤ħà¤ªà¤¹": 3922,
      "Ġà¤®à¤¨à¤ľ": 3923,
      "Ġà¤ħà¤¦à¤¦": 3924,
      "Ġà¤¤à¤°à¤¨": 3925,
      "à¤¾à¥Ģ": 3926,
      "Ġà¤ªà¤°à¤Ľ": 3927,
      "Ġà¤Ĥ": 3928,
      "à¤°à¤¸à¤²": 3929,
      "à¤µà¤²à¤¦": 3930,
      "Ġà¤«à¤¤à¤µ": 3931,
      "Ġà¤Ĺà¤²à¤µ": 3932,
      "à¤Ĭà¤°": 3933,
      "Ġà¤łà¤ķ": 3934,
      "à¤µà¤¤à¤ĸ": 3935,
      "à¤µà¤§à¤°": 3936,
      "à¤²à¤Ńà¤¦": 3937,
      "Ġà¤ªà¤°à¤Ĺà¤¨": 3938,
      "Ġà¤Īà¤ıà¤¸à¤Ĩà¤Ī": 3939,
      "Ġà¤įà¤¸": 3940,
      "à¤²à¤®à¤ª": 3941,
      "Ġà¤ľà¤ĺà¤¨": 3942,
      "à¤®à¤ªà¤°": 3943,
      "à¤²à¤®à¤Ł": 3944,
      "Ġà¤ľà¤²à¤Ńà¤°": 3945,
      "Ġà¤ĩà¤µà¤¨": 3946,
      "Ġà¤ħà¤¸à¤Ĺ": 3947,
      "Ġà¤ħà¤²à¤ķà¤¨": 3948,
      "Ġà¤ıà¤Ĺà¤²": 3949,
      "Ġà¤ıà¤¨à¤ıà¤¸à¤ı": 3950,
      "Ġà¤Łà¤¹à¤²à¤¨": 3951,
      "Ġà¤ħà¤Ĺà¤°à¤¤à¤²": 3952,
      "à¤¯à¤µà¤ķ": 3953,
      "Ġà¤Ĩà¤²à¤®à¤Ĺ": 3954,
      "à¤¤à¤ľà¤¨": 3955,
      "à¤¹à¤²à¤¤": 3956,
      "à¤ıà¤«à¤Ł": 3957,
      "à¤Łà¤°à¤¬": 3958,
      "Ġà¤ĺà¤°à¤ªà¤°": 3959,
      "Ġà¤®à¤°à¤ľ": 3960,
      "Ġà¤ªà¤ľ": 3961,
      "à¤µà¤µà¤¤": 3962,
      "à¤¾à¤Ĥà¥ĩ": 3963,
      "Ġà¤Ĺà¤°à¤¦à¤¨": 3964,
      "Ġà¥¨à¥¦à¥§à¥ª": 3965,
      "à¤¯à¤§à¤°": 3966,
      "Ġà¤ĵà¤¯": 3967,
      "Ġà¤ıà¤ķà¤²à¤µ": 3968,
      "Ġà¤ħà¤¨à¤§": 3969,
      "Ġà¥¨à¥¦à¥¨à¥¦": 3970,
      "Ġà¤¤à¤ķà¤¦": 3971,
      "à¤®à¤Ī": 3972,
      "Ġà¤¦à¤Ĺ": 3973,
      "Ġà¤Ĩà¤ĩà¤ľ": 3974,
      "Ġà¤¸à¤¬à¤²": 3975,
      "à¤ĩà¤¸à¤¨": 3976,
      "Ġà¤¯à¤¶à¤¸": 3977,
      "Ġà¤ħà¤µà¤¤à¤°à¤£": 3978,
      "à¤°à¤¹à¤¸": 3979,
      "à¤®à¤°à¤ķ": 3980,
      "à¤ķà¤Łà¤¤": 3981,
      "Ġà¤ªà¤¦à¤ļ": 3982,
      "Ġà¤ĩà¤°à¤¶": 3983,
      "à¤§à¤µà¤Ĺà¤¢": 3984,
      "à¤ĩà¤¸à¤¸": 3985,
      "Ġà¥§à¥¯à¥ª": 3986,
      "Ġà¤ıà¤ıà¤¨à¤Ĩà¤Ī": 3987,
      "Ġà¤ľà¤¨à¤¶à¤ķ": 3988,
      "Ġà¤Ĺà¤¦à¤°": 3989,
      "Ġà¤ıà¤¡à¤ľà¤¸": 3990,
      "Ġà¤ľà¤¤à¤¨": 3991,
      "Ġà¤¬à¤¦à¤²à¤µ": 3992,
      "à¤īà¤ªà¤¯": 3993,
      "à¤ĩà¤ĳà¤ķ": 3994,
      "à¤²à¤ķà¤¶": 3995,
      "Ġà¤īà¤°à¤Ī": 3996,
      "Ġà¤Ĺà¤®à¤²": 3997,
      "Ġà¤®à¤ķà¤¡": 3998,
      "Ġà¤ļà¤ªà¤°": 3999,
      "Ġà¤ħà¤ªà¤ķ": 4000,
      "à¤¦à¤°à¤ľ": 4001,
      "à¤¸à¤¬à¤ķ": 4002,
      "à¤ĸà¤ļ": 4003,
      "à¤ĸà¤¨à¤¨": 4004,
      "Ġà¤ĳà¤¥à¤°": 4005,
      "Ġà¤ıà¤²à¤¡": 4006,
      "à¤²à¤Ĺà¤¹à¤²": 4007,
      "à¥Īà¤Ĥà¤ĥ": 4008,
      "Ġà¤ıà¤¯à¤°à¤ķ": 4009,
      "à¤°à¤ĸà¤¨": 4010,
      "à¤®à¤¤à¤¶": 4011,
      "à¤¤à¤®à¤¸": 4012,
      "Ġà¤Ńà¤Ĺà¤¦": 4013,
      "Ġà¤ħà¤ªà¤¶à¤¬": 4014,
      "Ġà¤Ńà¤Ĺà¤µà¤¨": 4015,
      "Ġà¤ĳà¤ĩà¤²": 4016,
      "Ġà¤Ľà¤²à¤¨": 4017,
      "Ġà¤ħà¤Ĺà¤°à¤¬à¤¤": 4018,
      "à¤Ĩà¤Īà¤ıà¤²": 4019,
      "Ġà¥¨à¥§à¥ª": 4020,
      "à¤µà¤ł": 4021,
      "Ġà¤ľà¤¨à¤ªà¤ķ": 4022,
      "Ġà¤ıà¤ļà¤¬": 4023,
      "Ġà¥¨à¥¨à¥ª": 4024,
      "à¤¯à¤°à¤¸à¤¨": 4025,
      "à¤ĵà¤Ł": 4026,
      "à¤ªà¤Łà¤¤": 4027,
      "à¤¡à¤°à¤µà¤°": 4028,
      "à¤°à¤¸à¤®": 4029,
      "Ġà¤īà¤Ńà¤°à¤¨": 4030,
      "Ġà¤«à¤¤à¤¹": 4031,
      "Ġà¤ªà¤Ĺà¤²": 4032,
      "Ġà¤¬à¤²à¤¹": 4033,
      "à¤Ĩà¤¬": 4034,
      "à¤ĸà¤¡à¤®à¤°": 4035,
      "Ġà¤ĵà¤µà¤°à¤¸": 4036,
      "à¤¹à¤¶": 4037,
      "à¤ªà¤«": 4038,
      "Ġà¤®à¤¨à¤¨": 4039,
      "à¤°à¤£à¤¤": 4040,
      "Ġà¥ªà¥¦": 4041,
      "Ġà¤ľà¤¨à¤ķà¤²": 4042,
      "à¤ıà¤®à¤¬": 4043,
      "à¤°à¤£à¤¨": 4044,
      "Ġà¤ķà¤°à¤®à¤¬": 4045,
      "Ġà¤ıà¤®à¤ıà¤¸à¤¸": 4046,
      "Ġà¤ļà¤°à¤®à¤ª": 4047,
      "à¤ķà¤®à¤¨": 4048,
      "à¤µà¤ĩà¤¨": 4049,
      "à¤Ľà¤ķ": 4050,
      "à¤Łà¤«à¤°": 4051,
      "Ġà¤²à¤µà¤£": 4052,
      "à¤¬à¤²à¤¤": 4053,
      "à¤¦à¤¯à¤¨": 4054,
      "Ġà¤ľà¤¬à¤¤à¤ķ": 4055,
      "Ġà¤Ńà¤ĩà¤¯": 4056,
      "Ġà¤Ĺà¤Ł": 4057,
      "à¤¾à¥¥": 4058,
      "Ġà¤ªà¤°à¤²": 4059,
      "Ġà¤Ĩà¤°à¤ıà¤²": 4060,
      "à¤Ĩà¤Īà¤¬": 4061,
      "à¤¯à¤¤à¤®": 4062,
      "à¤¸à¤ħ": 4063,
      "Ġà¤ªà¤²à¤¡": 4064,
      "Ġà¤¤à¤¨à¤¹": 4065,
      "Ġà¤ªà¤°à¤¬à¤¤": 4066,
      "à¤µà¤°à¤²": 4067,
      "Ġà¤¹à¤µà¤²à¤¦": 4068,
      "Ġà¤ħà¤¹à¤®à¤¦à¤¨à¤Ĺà¤°": 4069,
      "à¤¸à¤°à¤¶": 4070,
      "à¤ľà¤¯à¤°": 4071,
      "Ġà¤®à¤¦à¤¹": 4072,
      "à¤ľà¤¯à¤¨à¤Ĺà¤°": 4073,
      "Ġà¤ķà¤²à¤¸": 4074,
      "Ġà¤¯à¤°": 4075,
      "à¤īà¤²à¤ľ": 4076,
      "à¤Łà¤¤à¤®": 4077,
      "à¤Īà¤Ń": 4078,
      "à¤ıà¤«à¤ª": 4079,
      "à¤²à¤¸à¤°": 4080,
      "Ġà¤ħà¤ªà¤ļ": 4081,
      "à¤°à¤®à¤¦": 4082,
      "à¥ĥà¥°": 4083,
      "Ġà¤ıà¤¸à¤µ": 4084,
      "Ġà¤Ĩà¤µà¤ķ": 4085,
      "Ġà¤īà¤ªà¤ª": 4086,
      "Ġà¤Ĩà¤°à¤Ĩà¤°": 4087,
      "à¤ľà¤¯à¤¦": 4088,
      "Ġà¤²à¤µà¤°": 4089,
      "à¤¯à¤°à¤§": 4090,
      "à¤Ĳà¤¶": 4091,
      "à¤ªà¤¸à¤®": 4092,
      "Ġà¤Ĩà¤®à¤²": 4093,
      "Ġà¤Ńà¤Ĺà¤¦à¤¡": 4094,
      "à¤¸à¤ħà¤ª": 4095,
      "à¤®à¤¨à¤Ĺà¤°à¤®": 4096,
      "Ġà¤Ŀà¤ªà¤ķ": 4097,
      "à¤®à¤Ĭ": 4098,
      "à¤°à¤Ńà¤ķ": 4099,
      "Ġà¤Ńà¤¨à¤ķ": 4100,
      "à¥Ģà¥ĩ": 4101,
      "à¤¶à¤¤à¤²": 4102,
      "Ġà¤Ĩà¤°à¤Ĩà¤°à¤¬": 4103,
      "à¤§à¤®à¤ķ": 4104,
      "à¤Łà¤Ń": 4105,
      "à¤Ĩà¤¯à¤¨": 4106,
      "à¤ĩà¤®à¤¨": 4107,
      "Ġà¤Ńà¤ĩà¤²": 4108,
      "Ġà¤¥à¤¡": 4109,
      "Ġà¤Ńà¤°à¤Ńà¤°": 4110,
      "à¤¹à¤ļ": 4111,
      "Ġà¤¸à¤ľà¤¨": 4112,
      "à¤¸à¤²à¤¨": 4113,
      "Ġà¤¡à¤²à¤µ": 4114,
      "Ġà¤īà¤®à¤¸": 4115,
      "à¤¹à¤§": 4116,
      "à¤²à¤Ĺà¤¡": 4117,
      "Ġà¤µà¤ĸ": 4118,
      "Ġà¤ĩà¤ķà¤ł": 4119,
      "à¤¹à¤¨à¤Ĺà¤°": 4120,
      "à¤¸à¤®à¤°": 4121,
      "à¤ıà¤®à¤Ĩà¤Īà¤ıà¤®": 4122,
      "Ġà¤Ĩà¤Īà¤Ĩà¤°à¤¸": 4123,
      "à¥Ĭ": 4124,
      "à¤ıà¤²à¤ıà¤¸": 4125,
      "à¤Ĩà¤ı": 4126,
      "Ġà¤¬à¤¸à¤°": 4127,
      "à¤īà¤ł": 4128,
      "Ġà¤¬à¤°à¤¸à¤¤": 4129,
      "Ġà¤ıà¤¨à¤ıà¤µ": 4130,
      "à¤®à¤ľà¤¨": 4131,
      "à¤¹à¤ķà¤°": 4132,
      "à¤ķà¤°à¤¸": 4133,
      "Ġà¤ıà¤®à¤Ĩà¤Īà¤ľ": 4134,
      "à¤²à¤¬à¤¹": 4135,
      "à¤¦à¤°à¤¨à¤Ĺà¤°": 4136,
      "à¤¹à¤Ĺà¤¢": 4137,
      "à¥Ĥà¥į": 4138,
      "Ġà¤«à¤²à¤ķ": 4139,
      "Ġà¤ıà¤²à¤ıà¤²à¤ıà¤®": 4140,
      "Ġà¤¹à¤²à¤ļà¤²à¤°": 4141,
      "à¤¹à¤ľà¤¨à¤ķ": 4142,
      "à¤Ĩà¤Ĩ": 4143,
      "Ġà¤ľà¤²à¤®": 4144,
      "à¤°à¤£à¤µà¤¶": 4145,
      "à¤ľà¤ľ": 4146,
      "Ġà¤¨à¤Īà¤¦": 4147,
      "à¤¬à¤¦à¤²": 4148,
      "Ġà¤°à¤¥à¤¯": 4149,
      "à¤°à¤¤à¤ķà¤¥": 4150,
      "à¤Ĭà¤¸": 4151,
      "Ġà¤¤à¤¨à¤ķ": 4152,
      "Ġà¤ªà¤°à¤®à¤ľ": 4153,
      "Ġà¤ıà¤Ĩà¤Īà¤ıà¤®à¤Ĩà¤Īà¤ıà¤®": 4154,
      "à¤ĸà¤°à¤¤": 4155,
      "à¤°à¤ľà¤Ĺà¤¢": 4156,
      "Ġà¤ķà¤¸à¤¬": 4157,
      "à¤ķà¤°à¤ľà¤¯à¤ķ": 4158,
      "à¤ĸà¤®à¤¯": 4159,
      "à¤£à¤¬": 4160,
      "à¤īà¤Łà¤°": 4161,
      "à¤ħà¤¦": 4162,
      "Ġà¤ĩà¤²à¤¯à¤°": 4163,
      "Ġà¤¬à¤°à¤Ĺà¤²": 4164,
      "Ġà¤ĸà¤²à¤²": 4165,
      "à¤¸à¤¨à¤ª": 4166,
      "à¤ıà¤ıà¤¸": 4167,
      "Ġà¤Ĳà¤Ł": 4168,
      "à¤¤à¤°à¤¸": 4169,
      "à¤¬à¤²à¤¸": 4170,
      "Ġà¤Łà¤ª": 4171,
      "à¤°à¤ı": 4172,
      "Ġà¤ĵà¤ķà¤°": 4173,
      "à¤¨à¤²à¤²": 4174,
      "à¤¤à¤°à¤ķà¤¨": 4175,
      "Ġà¤¶à¤«à¤ķà¤¤": 4176,
      "Ġà¤¬à¤°à¤ľ": 4177,
      "Ġà¤Īà¤ªà¤¤": 4178,
      "Ġà¤īà¤¦à¤¹": 4179,
      "à¤§à¤ľà¤¨": 4180,
      "à¤ıà¤¨à¤ıà¤®": 4181,
      "à¥ĭà¥ĩ": 4182,
      "à¤·à¤£à¤µ": 4183,
      "Ġà¤Ĩà¤¯à¤²": 4184,
      "à¤ªà¤°à¤¨": 4185,
      "à¤²à¤ļà¤¨": 4186,
      "Ġà¤ļà¤¹à¤°": 4187,
      "à¤Ĳà¤°": 4188,
      "Ġà¤ĸà¤¬à¤°à¤¦": 4189,
      "Ġà¤¸à¤ķà¤°": 4190,
      "Ġà¤²à¤®à¤¹": 4191,
      "Ġà¤ľà¤¯à¤²": 4192,
      "à¤§à¤¬": 4193,
      "Ġà¤ħà¤¨à¤¬à¤¨": 4194,
      "Ġà¤ķà¤ĩà¤²": 4195,
      "à¤ĥà¥¤": 4196,
      "à¥Ģà¤¼": 4197,
      "Ġà¤§à¤°à¤®": 4198,
      "Ġà¤¸à¤¸à¤ª": 4199,
      "à¤ĩà¤¤à¤¨": 4200,
      "à¤²à¤ľà¤¯": 4201,
      "Ġà¤ħà¤¦à¤Ń": 4202,
      "à¤¸à¤§": 4203,
      "Ġà¤Ľà¤ªà¤µ": 4204,
      "à¤¡à¤²à¤Ĺà¤¢": 4205,
      "Ġà¤ªà¤ĸ": 4206,
      "à¤µà¤ĺ": 4207,
      "à¤¹à¤°à¤µ": 4208,
      "Ġà¤ĳà¤¥": 4209,
      "à¤²à¤¨à¤Ł": 4210,
      "Ġà¤ĳà¤¡à¤¨": 4211,
      "à¤µà¤¸à¤¹": 4212,
      "à¤ıà¤¸à¤Ĩà¤°": 4213,
      "à¤®à¤Ńà¤Ł": 4214,
      "Ġà¤°à¤µà¤ľ": 4215,
      "à¤ĵà¤ı": 4216,
      "Ġà¤¦à¤®à¤ķà¤¤": 4217,
      "Ġà¥¨à¥¦à¥§à¥§": 4218,
      "Ġà¤Ńà¤Ĺà¤µà¤¦": 4219,
      "Ġà¤ıà¤ļà¤ıà¤¸à¤Ĩà¤°à¤ª": 4220,
      "à¤¹à¤¨à¤ª": 4221,
      "Ġà¥łà¤ļ": 4222,
      "Ġà¤¬à¤°à¤µ": 4223,
      "à¤ĸà¤°à¤¨": 4224,
      "Ġà¤Ńà¤Īà¤¯": 4225,
      "à¤¬à¤°à¤¨": 4226,
      "Ġà¤Ĩà¤ĩà¤µà¤°": 4227,
      "à¤ķà¤®à¤¤à¤ļà¤ķ": 4228,
      "à¥¨à¥¨": 4229,
      "à¤§à¤ĺ": 4230,
      "Ġà¤¨à¤Īà¤¨à¤Ī": 4231,
      "Ġà¤ĸà¤ļ": 4232,
      "à¤¨à¤ķà¤¹": 4233,
      "Ġà¤¶à¤«à¤ķ": 4234,
      "Ġà¤°à¤ļà¤¤": 4235,
      "à¤µà¤¦à¤¤": 4236,
      "Ġà¤«à¤²à¤¸à¤¬": 4237,
      "à¤ıà¤¸à¤¯": 4238,
      "Ġà¤īà¤ĩà¤ķ": 4239,
      "Ġà¤Ĺà¤¬à¤¨": 4240,
      "à¤Łà¤ı": 4241,
      "à¤Łà¤Ĩà¤īà¤Ł": 4242,
      "à¤ļà¤ķà¤¤": 4243,
      "Ġà¤ıà¤Łà¤°": 4244,
      "Ġà¤ıà¤ħà¤°": 4245,
      "à¤¡à¤¦": 4246,
      "Ġà¤¹à¤°à¤¨": 4247,
      "Ġà¤°à¤¨à¤°": 4248,
      "Ġà¤¬à¤ļà¤ķà¤°": 4249,
      "Ġà¤¡à¤²à¤¹": 4250,
      "Ġà¤ħà¤¸à¤¹à¤¨": 4251,
      "Ġà¤¨à¤¹à¤²": 4252,
      "à¤¯à¤¨à¤®": 4253,
      "Ġà¤¦à¤¦": 4254,
      "à¤°à¤¤à¤ķ": 4255,
      "à¤ķà¤¤à¤¨": 4256,
      "Ġà¤Ĩà¤Ĺà¤¬à¤¬": 4257,
      "Ġà¤ıà¤®à¤ıà¤ıà¤ļ": 4258,
      "à¥ĭà¤ĥ": 4259,
      "Ġà¤®à¤°à¤¹à¤®": 4260,
      "Ġà¤łà¤¹": 4261,
      "à¥Ģà¥¥": 4262,
      "Ġà¤īà¤¦à¤¯à¤Ĺ": 4263,
      "à¤¯à¤¸à¤°": 4264,
      "à¤ķà¤Łà¤®": 4265,
      "à¤°à¤ıà¤ķ": 4266,
      "Ġà¤ķà¤°à¤¤à¤¬": 4267,
      "à¤¸à¤°à¤īà¤²à¤ľ": 4268,
      "à¤¹à¤¦à¤°": 4269,
      "Ġà¤ĩà¤ª": 4270,
      "à¤¹à¤°à¤¦à¤Ĺ": 4271,
      "à¤ķà¤¬à¤¸": 4272,
      "Ġà¤¬à¤«à¤°": 4273,
      "à¤¯à¤¬à¤²": 4274,
      "à¤¡à¤Ĳà¤°": 4275,
      "à¤®à¤¨à¤®": 4276,
      "à¤¸à¤¥": 4277,
      "Ġà¤ĵà¤Ľ": 4278,
      "à¤²à¤¬à¤¦à¤²": 4279,
      "à¤Ĩà¤ĵ": 4280,
      "Ġà¤Ĺà¤łà¤°": 4281,
      "Ġà¤ħà¤¨à¤Ń": 4282,
      "Ġà¤ıà¤®à¤°à¤ľ": 4283,
      "à¤Ĺà¤¬à¤²": 4284,
      "à¤Łà¤ªà¤¤": 4285,
      "Ġà¤ıà¤¨à¤ıà¤®à¤ıà¤®à¤¸": 4286,
      "à¤¤à¤¨à¤¶": 4287,
      "à¤¹à¤®à¤£": 4288,
      "à¤¡à¤ľ": 4289,
      "Ġà¤īà¤ľà¤²": 4290,
      "Ġà¤²à¤ĸà¤ªà¤¤": 4291,
      "Ġà¤ħà¤Łà¤ķà¤¨": 4292,
      "Ġà¤Ľà¤¬": 4293,
      "à¤ıà¤¸à¤ıà¤²": 4294,
      "Ġà¤Ĩà¤ĩà¤¡à¤²": 4295,
      "Ġà¤ıà¤¸à¤ıà¤¸à¤¬": 4296,
      "à¤ıà¤ĩà¤¸": 4297,
      "à¤ĵà¤ľ": 4298,
      "à¤Ĩà¤Īà¤ıà¤®à¤ıà¤¸": 4299,
      "à¤Ŀà¤¬": 4300,
      "Ġà¤Łà¤¬": 4301,
      "Ġà¥¨à¥¦à¥¦à¥¯": 4302,
      "à¤¯à¤°à¤¹": 4303,
      "Ġà¤¸à¤¹à¤¨à¤¶": 4304,
      "Ġà¤¨à¤¤à¤®à¤¸": 4305,
      "à¤Ŀà¤¡": 4306,
      "Ġà¤ħà¤Ĺà¤¡": 4307,
      "Ġà¤ªà¤¯": 4308,
      "à¤²à¤Ńà¤°": 4309,
      "à¤¶à¤¨à¤ľ": 4310,
      "Ġà¥¬à¥¦": 4311,
      "à¤įà¤¨": 4312,
      "Ġà¤ıà¤®à¤ĵà¤¯": 4313,
      "Ġà¤ķà¤¸à¤ķà¤°": 4314,
      "à¤¶à¤¨à¤¡": 4315,
      "Ġà¤īà¤ªà¤¶": 4316,
      "Ġà¤¤à¤°à¤¨à¤¤": 4317,
      "Ġà¤ķà¤ķà¤¡": 4318,
      "Ġà¤°à¤¹à¤®à¤¤": 4319,
      "Ġà¤¤à¤®à¤²": 4320,
      "à¤įà¤¸": 4321,
      "Ġà¤ªà¤Łà¤ĸà¤¨": 4322,
      "Ġà¤¦à¤§": 4323,
      "à¤ķà¤ķà¤²": 4324,
      "à¤®à¤²à¤µ": 4325,
      "Ġà¤ıà¤«à¤ıà¤®à¤¸": 4326,
      "Ġà¤¹à¤°à¤¬": 4327,
      "à¤ķà¤¦à¤²": 4328,
      "à¤ªà¤¨à¤¦": 4329,
      "à¤²à¤¨à¤¶": 4330,
      "Ġà¤®à¤¦à¤¤": 4331,
      "à¤¡à¤§": 4332,
      "Ġà¤ħà¤µà¤¯à¤¸": 4333,
      "Ġà¤¸à¤¹à¤¤": 4334,
      "à¤µà¤¨à¤Ĺà¤°": 4335,
      "Ġà¤Ĩà¤°à¤µ": 4336,
      "Ġà¤ķà¤¨à¤µà¤°": 4337,
      "Ġà¤ľà¤¨à¤ļ": 4338,
      "Ġà¤¤à¤¬à¤¸": 4339,
      "Ġà¤ıà¤¸à¤Īà¤¸": 4340,
      "à¤¥à¤Ĺà¤¨": 4341,
      "à¤ķà¤§": 4342,
      "Ġà¤ľà¤ļ": 4343,
      "à¤«à¤¦": 4344,
      "à¤¯à¤µà¤¶": 4345,
      "à¤Īà¤ĵà¤µà¤°": 4346,
      "Ġà¤¶à¤ķà¤°à¤ķ": 4347,
      "à¤ĺà¤µà¤Ĺà¤¢": 4348,
      "à¤²à¤ĺ": 4349,
      "à¤¦à¤¨à¤¹": 4350,
      "Ġà¤ķà¤ªà¤Ł": 4351,
      "à¤¿à¤ģ": 4352,
      "à¤¼à¤¾à¤ģ": 4353,
      "à¤ķà¤ı": 4354,
      "Ġà¤Ĩà¤ķà¤¡": 4355,
      "à¤ķà¤ķà¤¥": 4356,
      "Ġà¤ľà¤¯à¤²à¤²": 4357,
      "Ġà¤ıà¤Łà¤ķ": 4358,
      "à¤ľà¤®à¤£": 4359,
      "à¤Īà¤ıà¤²": 4360,
      "Ġà¤®à¤¨à¤¹": 4361,
      "Ġà¤«à¤ĸà¤°": 4362,
      "à¤ıà¤®à¤Ĩà¤°à¤¸": 4363,
      "Ġà¤ħà¤®à¤°à¤ľ": 4364,
      "Ġà¤ıà¤¥à¤¨": 4365,
      "Ġà¤Ŀà¤²à¤ķà¤¤": 4366,
      "à¤°à¤¸à¤°à¤ķ": 4367,
      "Ġà¤®à¤Łà¤¨": 4368,
      "à¤ªà¤£à¤ľ": 4369,
      "à¤Ĭà¤¤": 4370,
      "Ġà¤ħà¤¸à¤²à¤¹": 4371,
      "à¤Ĥà¥ģ": 4372,
      "Ġà¤ľà¤Ĺà¤¤à¤¸": 4373,
      "à¤½à¤½": 4374,
      "à¤Ĩà¤ĩà¤Ĩà¤°": 4375,
      "Ġà¤Ĩà¤Īà¤ıà¤®à¤ıà¤«": 4376,
      "Ġà¤ĩà¤¯à¤°à¤«": 4377,
      "Ġà¥§à¥¯à¥«": 4378,
      "à¤Ĩà¤°à¤µ": 4379,
      "à¤¸à¤¦à¤¨": 4380,
      "à¤¡à¤ļ": 4381,
      "Ġà¤ļà¤°à¤µ": 4382,
      "à¤ľà¤¨à¤Ńà¤°": 4383,
      "Ġà¤¹à¤Łà¤¤": 4384,
      "à¤¥à¤Īà¤¸": 4385,
      "Ġà¤ķà¤¬à¤ķà¤¬": 4386,
      "Ġà¤īà¤¬à¤²à¤¤": 4387,
      "Ġà¤Ĩà¤Īà¤²": 4388,
      "Ġà¥©à¥ª": 4389,
      "Ġà¥¨à¥¦à¥§à¥¦": 4390,
      "Ġà¤ķà¤°à¤²": 4391,
      "à¤ªà¤°à¤¨à¤ķ": 4392,
      "Ġà¤ķà¤Łà¤¤": 4393,
      "Ġà¤ķà¤µà¤¨": 4394,
      "Ġà¤ķà¤¡à¤Ĺ": 4395,
      "Ġà¤ľà¤¨à¤Ń": 4396,
      "Ġà¤ħà¤®à¤ªà¤¤": 4397,
      "Ġà¤¬à¤¥": 4398,
      "à¤¯à¤£à¤ĸ": 4399,
      "Ġà¤ªà¤°à¤®à¤ª": 4400,
      "à¤¸à¤¦à¤²à¤Ĺ": 4401,
      "à¤µà¤ķà¤µà¤ł": 4402,
      "Ġà¤Ľà¤ªà¤¤": 4403,
      "à¤ĩà¤²à¤°": 4404,
      "Ġà¤ĩà¤®à¤°à¤¤": 4405,
      "à¤¶à¤¨à¤Ń": 4406,
      "Ġà¤¢à¤²à¤¤": 4407,
      "à¤Ĩà¤°à¤ıà¤®": 4408,
      "Ġà¤ħà¤ĸà¤£": 4409,
      "à¤Īà¤ķà¤²": 4410,
      "Ġà¤Ĺà¤°à¤®à¤ª": 4411,
      "à¤¡à¤¸à¤ĩ": 4412,
      "Ġà¤¨à¤Łà¤ĸà¤Ł": 4413,
      "à¤ĩà¤¡à¤¬": 4414,
      "Ġà¤Ĩà¤Īà¤ıà¤®à¤¡": 4415,
      "Ġà¤¤à¤¹à¤ķ": 4416,
      "Ġà¤Ĩà¤īà¤Łà¤°": 4417,
      "Ġà¤¦à¤¡": 4418,
      "à¤¤à¤®à¤¯": 4419,
      "Ġà¤¸à¤ľà¤Ĺà¤¤": 4420,
      "à¤ľà¤¯à¤¦à¤¶à¤®": 4421,
      "à¤Ľà¤¹": 4422,
      "à¤ľà¤¨à¤¨": 4423,
      "à¤°à¤¤à¤¶": 4424,
      "Ġà¤¨à¤µà¤¸": 4425,
      "Ġà¤Ĳà¤¤à¤°": 4426,
      "à¥¨à¥¦à¥¦": 4427,
      "Ġà¤¬à¤£": 4428,
      "à¤ªà¤Łà¤ķà¤°": 4429,
      "à¤µà¤¨à¤®": 4430,
      "Ġà¤¦à¤°à¤ĸ": 4431,
      "à¤įà¤«": 4432,
      "Ġà¤īà¤µ": 4433,
      "à¤²à¤Ī": 4434,
      "à¤¦à¤°à¤¸": 4435,
      "à¤ľà¤¬à¤ķ": 4436,
      "Ġà¤Ĺà¤°à¤¬": 4437,
      "à¤°à¤ľà¤ķ": 4438,
      "Ġà¤¬à¤Ĺà¤¡": 4439,
      "Ġà¥©à¥¬": 4440,
      "Ġà¤Ĩà¤¢": 4441,
      "Ġà¤¹à¤¥à¤ķ": 4442,
      "Ġà¤ıà¤«à¤Ĩà¤ĩà¤Ĩà¤°": 4443,
      "Ġà¤ªà¤µà¤¨à¤¦": 4444,
      "à¤¼à¤ĥ": 4445,
      "à¤¨à¤¶à¤¨": 4446,
      "Ġà¤Łà¤¹à¤¨": 4447,
      "à¤¨à¤µà¤®": 4448,
      "à¤Ĺà¤£à¤ķ": 4449,
      "Ġà¥¨à¥¦à¥¦à¥Ń": 4450,
      "Ġà¤ķà¤µà¤ķ": 4451,
      "à¤¯à¤ĸ": 4452,
      "Ġà¤¹à¤µà¤¸": 4453,
      "Ġà¤ħà¤®à¤ľà¤¦": 4454,
      "Ġà¤ıà¤²à¤ıà¤²à¤¬": 4455,
      "Ġà¤Ĭà¤Ł": 4456,
      "à¤²à¤µà¤£": 4457,
      "Ġà¤ħà¤¸à¤¹à¤¯": 4458,
      "à¤¶à¤¨à¤®": 4459,
      "Ġà¤¨à¤ĸ": 4460,
      "à¤¶à¤«": 4461,
      "Ġà¤Ĩà¤®à¤¦": 4462,
      "Ġà¤¡à¤°à¤ķà¤°": 4463,
      "à¤¹à¤¬à¤¤": 4464,
      "Ġà¤¨à¤ĩà¤ĸ": 4465,
      "à¤Ĩà¤Īà¤Ń": 4466,
      "à¤°à¤£à¤ª": 4467,
      "Ġà¤īà¤Ľà¤²à¤ķà¤°": 4468,
      "Ġà¤Ĩà¤Īà¤ıà¤¨": 4469,
      "à¤®à¤«à¤²": 4470,
      "à¤ļà¤µà¤°": 4471,
      "à¤¬à¤¹à¤¶": 4472,
      "à¤Ŀà¤²": 4473,
      "Ġà¤ħà¤µà¤ľ": 4474,
      "à¤Ĩà¤Īà¤ıà¤«": 4475,
      "Ġà¤¶à¤®à¤¨": 4476,
      "à¤°à¤Ĺà¤Ł": 4477,
      "à¤µà¤°à¤ļ": 4478,
      "Ġà¤ľà¤Ĺà¤¦à¤®": 4479,
      "Ġà¤¦à¤¶à¤®à¤²à¤µ": 4480,
      "Ġà¤Īà¤¡à¤¬": 4481,
      "à¤¬à¤°à¤®à¤¤": 4482,
      "à¤¯à¤¡à¤¸": 4483,
      "Ġà¤¹à¤®à¤¦à¤°": 4484,
      "Ġà¤¸à¤¤à¤¯": 4485,
      "Ġà¤®à¤²à¤ķ": 4486,
      "Ġà¤ĭà¤¦": 4487,
      "à¤¯à¤°à¤¡": 4488,
      "Ġà¤Ĺà¤®à¤¨": 4489,
      "à¤īà¤«": 4490,
      "Ġà¤ħà¤µà¤¤à¤°": 4491,
      "Ġà¤¬à¤Ĺà¤¹": 4492,
      "Ġà¤¡à¤Łà¤ķà¤°": 4493,
      "à¤ķà¤ĩà¤¨": 4494,
      "Ġà¤ıà¤®à¤Ĩà¤°": 4495,
      "Ġà¤¨à¤Īà¤®": 4496,
      "à¤µà¤¨à¤¯": 4497,
      "à¤¨à¤īà¤¤": 4498,
      "à¤ıà¤²à¤ĵ": 4499,
      "Ġà¤¬à¤°à¤ķà¤¤": 4500,
      "Ġà¤²à¤µà¤ķ": 4501,
      "à¤·à¤£à¤¬": 4502,
      "à¤¯à¤¨à¤°": 4503,
      "à¤ĳà¤²": 4504,
      "Ġà¤ªà¤¨à¤ªà¤¨": 4505,
      "à¤ļà¤¶": 4506,
      "à¤¡à¤°à¤ª": 4507,
      "Ġà¤¦à¤ĸ": 4508,
      "à¤°à¤ľà¤Ń": 4509,
      "Ġà¤®à¤¹à¤¨": 4510,
      "à¤ĺà¤¤": 4511,
      "Ġà¤ıà¤¨à¤Ĩà¤Īà¤Ł": 4512,
      "Ġà¤Ńà¤Ĺà¤¤à¤¸": 4513,
      "à¤ªà¤¤à¤²": 4514,
      "Ġà¤Ĭà¤ªà¤°à¤¨": 4515,
      "Ġà¤²à¤ĸà¤µ": 4516,
      "Ġà¤ıà¤¨à¤Ĩà¤Īà¤¸": 4517,
      "Ġà¤īà¤łà¤µ": 4518,
      "à¤¯à¤Ĩà¤§": 4519,
      "à¤¦à¤Ńà¤°": 4520,
      "à¤ıà¤¨à¤ıà¤¸à¤¸": 4521,
      "Ġà¤ħà¤ľà¤°": 4522,
      "à¤¯à¤ªà¤ķ": 4523,
      "à¤µà¤¶à¤¤": 4524,
      "Ġà¤īà¤Ĺà¤¨": 4525,
      "à¤°à¤®à¤ľ": 4526,
      "Ġà¤Ĩà¤Īà¤ıà¤¸à¤Ł": 4527,
      "à¤¸à¤°à¤¥": 4528,
      "Ġà¤ľà¤°à¤¦": 4529,
      "Ġà¤®à¤Ĺà¤¨": 4530,
      "à¤Īà¤µà¤°": 4531,
      "à¤¡à¤ķà¤ª": 4532,
      "Ġà¤¹à¤°à¤µ": 4533,
      "à¤ķà¤¦à¤°": 4534,
      "Ġà¥¨à¥¦à¥§à¥Ń": 4535,
      "à¤Ĺà¤¤à¤¤": 4536,
      "Ġà¥§à¥¯à¥©": 4537,
      "à¤®à¤¸à¤Ń": 4538,
      "Ġà¤Ŀà¤¨": 4539,
      "à¤²à¤¹à¤µ": 4540,
      "Ġà¤ıà¤¶à¤²": 4541,
      "Ġà¤¸à¤¤à¤¸": 4542,
      "Ġà¤ĩà¤¡à¤²": 4543,
      "Ġà¤ħà¤²à¤Ĺà¤¥à¤²à¤Ĺ": 4544,
      "à¤Īà¤ķà¤°": 4545,
      "Ġà¤ĵà¤µà¤°à¤¹": 4546,
      "à¤·à¤¬": 4547,
      "à¤ľà¤²à¤µ": 4548,
      "Ġà¤Ĩà¤¸à¤ķ": 4549,
      "Ġà¤¸à¤¶à¤ªà¤¥": 4550,
      "Ġà¤īà¤ªà¤²": 4551,
      "à¤¤à¤ķà¤²": 4552,
      "à¤²à¤ı": 4553,
      "à¤·à¤°à¤£": 4554,
      "à¤²à¤¨à¤¸": 4555,
      "Ġà¤īà¤ªà¤µà¤¨": 4556,
      "Ġà¤ķà¤²à¤ª": 4557,
      "à¤¨à¤¸à¤¹à¤¨": 4558,
      "Ġà¤°à¤ļà¤¯": 4559,
      "à¤ıà¤¸à¤ľ": 4560,
      "Ġà¤Ĳà¤®": 4561,
      "à¥ħà¤¾": 4562,
      "à¤¤à¤¥": 4563,
      "Ġà¤²à¤ı": 4564,
      "à¤Ĭà¤Ĺ": 4565,
      "à¤¯à¤¬à¤µ": 4566,
      "à¤¤à¤ĸà¤²": 4567,
      "Ġà¤ıà¤ħ": 4568,
      "à¤ĩà¤²à¤¸": 4569,
      "Ġà¤¼": 4570,
      "Ġà¤²à¤ĸà¤¬": 4571,
      "à¤²à¤ķà¤¹": 4572,
      "Ġà¤¬à¤¢à¤¨": 4573,
      "à¤ĩà¤ªà¤°à¤Ł": 4574,
      "à¤ıà¤¬à¤²": 4575,
      "à¤ķà¤¹à¤¤": 4576,
      "Ġà¤¦à¤®à¤ĸà¤®": 4577,
      "Ġà¤¸à¤¤à¤²": 4578,
      "Ġà¤°à¤¹à¤¨à¤¸à¤¹à¤¨": 4579,
      "à¤¾à¤¿": 4580,
      "Ġà¤ļà¤®à¤Ĺ": 4581,
      "à¤¤à¤®à¤ª": 4582,
      "à¤®à¤¬à¤²": 4583,
      "Ġà¤¸à¤°à¤ľà¤®": 4584,
      "à¤ĩà¤Łà¤¸": 4585,
      "Ġà¤¬à¤®à¤¬": 4586,
      "à¤ķà¤¨à¤Ĺ": 4587,
      "à¤¦à¤°à¤®": 4588,
      "Ġà¤ıà¤ļà¤Ĩà¤°": 4589,
      "à¤¯à¤£à¤¸": 4590,
      "à¤Łà¤°à¤¤": 4591,
      "à¤Ľà¤ķà¤°": 4592,
      "à¤Ĺà¤°à¤ķ": 4593,
      "à¤¨à¤ħà¤²": 4594,
      "à¤ļà¤¹": 4595,
      "Ġà¤ħà¤µà¤ļ": 4596,
      "à¤¤à¤Ī": 4597,
      "Ġà¤Ŀà¤ªà¤Ł": 4598,
      "Ġà¤Īà¤ĵà¤¡à¤¬": 4599,
      "Ġà¤¨à¤²à¤ķ": 4600,
      "Ġà¤Ĺà¤¨à¤°": 4601,
      "Ġà¤®à¤ĸà¤®à¤²": 4602,
      "à¤®à¤Ĩà¤§": 4603,
      "Ġà¤Ĳà¤¡à¤¸": 4604,
      "Ġà¤¸à¤¥": 4605,
      "Ġà¤ıà¤°à¤¨": 4606,
      "à¤°à¤¤à¤ľ": 4607,
      "Ġà¤ĩà¤¨à¤¹": 4608,
      "à¤¯à¤¤à¤¯": 4609,
      "Ġà¤ħà¤ªà¤Ł": 4610,
      "à¤īà¤¸à¤¨": 4611,
      "à¤ĺà¤²à¤¨": 4612,
      "Ġà¤¸à¤®à¤°à¤¸à¤¤": 4613,
      "Ġà¤ıà¤¸à¤Ī": 4614,
      "à¤ıà¤²à¤Īà¤¡": 4615,
      "à¤¤à¤°à¤µ": 4616,
      "Ġà¤ķà¤µà¤²": 4617,
      "à¤¡à¤°à¤°": 4618,
      "Ġà¤¸à¤°à¤£": 4619,
      "à¤¡à¤¸à¤®": 4620,
      "Ġà¤ķà¤®à¤¤à¤°": 4621,
      "Ġà¤Łà¤ļà¤¸": 4622,
      "à¤ªà¤ķà¤¨": 4623,
      "à¤¨à¤°à¤µ": 4624,
      "Ġà¤Īà¤ļ": 4625,
      "à¤¯à¤²à¤¯": 4626,
      "à¤¤à¤¶à¤¤": 4627,
      "Ġà¤Łà¤¸": 4628,
      "à¤ĩà¤ľà¤®": 4629,
      "Ġà¤¬à¤²à¤Ĺà¤®": 4630,
      "Ġà¤°à¤£à¤ķà¤ª": 4631,
      "Ġà¤ľà¤¹à¤¨": 4632,
      "à¤¬à¤¸à¤ª": 4633,
      "Ġà¤Ĩà¤łà¤µà¤²": 4634,
      "Ġà¤°à¤£à¤§": 4635,
      "Ġà¤ĵà¤°à¤Ľ": 4636,
      "à¤®à¤£à¤µ": 4637,
      "Ġà¤ıà¤²à¤Ł": 4638,
      "à¤¸à¤²à¤Ł": 4639,
      "Ġà¤Īà¤¯à¤°à¤¬à¤¡": 4640,
      "Ġà¤ıà¤¤à¤°": 4641,
      "à¤ĩà¤Ĩà¤Ĺ": 4642,
      "à¤Ĺà¤¸à¤°": 4643,
      "à¤¡à¤ķà¤°à¤µ": 4644,
      "à¤§à¤¨à¤Ĺà¤°": 4645,
      "Ġà¤ĸà¤¤à¤®": 4646,
      "à¤§à¤ľ": 4647,
      "Ġà¤¡à¤Ĺà¤°": 4648,
      "Ġà¤ľà¤¨à¤¸à¤°": 4649,
      "à¤¯à¤°à¤ª": 4650,
      "Ġà¤ıà¤¸à¤ıà¤¨": 4651,
      "Ġà¤¦à¤²à¤¹à¤¨": 4652,
      "à¤²à¤ĸà¤°": 4653,
      "à¤¸à¤®à¤¤": 4654,
      "à¤ıà¤¯": 4655,
      "à¤¯à¤Ńà¤Ł": 4656,
      "Ġà¤¨à¤Ĺà¤²": 4657,
      "à¤Ĺà¤²à¤®": 4658,
      "à¤ıà¤²à¤ľ": 4659,
      "Ġà¤®à¤¦à¤¨à¤²": 4660,
      "à¤Ĺà¤µà¤°": 4661,
      "Ġà¤ħà¤¸à¤Ń": 4662,
      "à¤¹à¤¹à¤¹à¤¹à¤¹à¤¹à¤¹à¤¹": 4663,
      "Ġà¥¨à¥¦à¥§à¥¯": 4664,
      "Ġà¤Ĺà¤Ĭ": 4665,
      "Ġà¤®à¤ľà¤²": 4666,
      "Ġà¤¸à¤·": 4667,
      "à¤¸à¤®à¤²": 4668,
      "à¤¸à¤²à¤ª": 4669,
      "Ġà¤Łà¤¹à¤²": 4670,
      "à¤¸à¤¦à¤µ": 4671,
      "Ġà¤ķà¤¸à¤ķ": 4672,
      "Ġà¤Īà¤µà¤¨": 4673,
      "à¤²à¤¸à¤ļ": 4674,
      "à¤¤à¤Ĺà¤£": 4675,
      "Ġà¤ħà¤ªà¤Ń": 4676,
      "Ġà¤ŀ": 4677,
      "Ġà¤ıà¤µà¤²": 4678,
      "Ġà¤°à¤īà¤°": 4679,
      "à¤¯à¤®à¤¤": 4680,
      "Ġà¤ªà¤¨à¤ªà¤¤": 4681,
      "Ġà¤²à¤²à¤¨": 4682,
      "Ġà¤Ńà¤°à¤ķà¤®": 4683,
      "Ġà¤¸à¤¹à¤¦": 4684,
      "à¤¥à¤¹": 4685,
      "à¥Ĥà¥Ĥ": 4686,
      "à¤ľà¤²à¤ª": 4687,
      "à¤§à¤ķà¤¤": 4688,
      "à¤®à¤¨à¤°": 4689,
      "à¤°à¤ĩà¤¸": 4690,
      "à¤Ķà¤°à¤Ķà¤°": 4691,
      "Ġà¤°à¤¬à¤¡": 4692,
      "à¤ħà¤°à¤¬": 4693,
      "Ġà¤¤à¤°à¤²à¤¤": 4694,
      "à¤¾à¥į": 4695,
      "Ġà¤ħà¤¯à¤¸": 4696,
      "à¤¹à¤®à¤¨": 4697,
      "à¤¤à¤Ĺà¤¤": 4698,
      "Ġà¤®à¤ľà¤¨": 4699,
      "à¤°à¤ľà¤°": 4700,
      "Ġà¤ľà¤²à¤ľ": 4701,
      "à¤·à¤¦à¤°": 4702,
      "à¤·à¤Ńà¤°": 4703,
      "Ġà¤¹à¤ª": 4704,
      "à¤°à¤²à¤ķ": 4705,
      "Ġà¤¤à¤¨à¤®à¤¨": 4706,
      "Ġà¤¬à¤°à¤¹à¤®à¤ª": 4707,
      "Ġà¤ªà¤°à¤¬": 4708,
      "Ġà¤Īà¤Ĺà¤²": 4709,
      "Ġà¤ħà¤Łà¤ªà¤Ł": 4710,
      "à¤«à¤ķ": 4711,
      "Ġà¤¹à¤°à¤£": 4712,
      "à¤¤à¤µà¤°": 4713,
      "à¤²à¤¢": 4714,
      "Ġà¤Ĩà¤Īà¤ıà¤¸à¤ıà¤²": 4715,
      "Ġà¤¬à¤°à¤¨à¤µ": 4716,
      "Ġà¤ħà¤¨à¤«": 4717,
      "à¤¯à¤µà¤¤": 4718,
      "Ġà¤¡à¤Ĺà¤®à¤Ĺ": 4719,
      "à¤µà¤°à¤£à¤µ": 4720,
      "Ġà¤¦à¤²à¤¬à¤¦à¤²": 4721,
      "Ġà¤īà¤ªà¤¬": 4722,
      "à¤ĩà¤ªà¤°à¤¸": 4723,
      "à¤¸à¤¨à¤°": 4724,
      "à¤²à¤µà¤°": 4725,
      "à¤µà¤ķà¤¯": 4726,
      "Ġà¤¤à¤®à¤Ĺ": 4727,
      "Ġà¤¹à¤®à¤¶à¤ķ": 4728,
      "Ġà¤ĺà¤°à¤¬": 4729,
      "Ġà¤§à¤¨à¤ĸà¤°": 4730,
      "à¤Ĺà¤¥": 4731,
      "à¤Ĩà¤ĩà¤Ł": 4732,
      "Ġà¤¹à¤°à¤¤": 4733,
      "à¤Ĭà¤®": 4734,
      "Ġà¥©à¥©": 4735,
      "Ġà¥«à¥¬": 4736,
      "Ġà¤Ĺà¤¹à¤®": 4737,
      "Ġà¤¬à¤Ľ": 4738,
      "Ġà¤īà¤ªà¤ĸ": 4739,
      "Ġà¤ıà¤«à¤ıà¤ķ": 4740,
      "à¤¡à¤ªà¤¤": 4741,
      "à¤¯à¤®à¤¶": 4742,
      "à¤¤à¤¨à¤°": 4743,
      "à¤¨à¤ĵà¤µà¤°": 4744,
      "Ġà¤¶à¤¹à¤¤": 4745,
      "Ġà¤Ĩà¤ĩà¤ıà¤¸": 4746,
      "à¤ķà¤ļà¤°": 4747,
      "à¤ıà¤¸à¤µ": 4748,
      "Ġà¥¨à¥¦à¥§à¥®": 4749,
      "Ġà¤ıà¤¸à¤ĵà¤ª": 4750,
      "à¤µà¤¯à¤®": 4751,
      "à¤ĩà¤ķà¤¸": 4752,
      "à¤¯à¤®à¤ķ": 4753,
      "à¤¡à¤°à¤¸": 4754,
      "Ġà¤ıà¤Łà¤®": 4755,
      "à¤¬à¤°à¤¶": 4756,
      "à¤°à¤ľà¤¹": 4757,
      "Ġà¤ıà¤¡à¤¸": 4758,
      "à¤µà¤¸à¤ª": 4759,
      "Ġà¤ľà¤¯à¤®": 4760,
      "Ġà¤ıà¤Ĩà¤Īà¤ıà¤¡": 4761,
      "Ġà¤¤à¤²à¤ķ": 4762,
      "Ġà¤§à¤¨à¤²": 4763,
      "à¤¯à¤°à¤Ł": 4764,
      "Ġà¥ªà¥«": 4765,
      "Ġà¤ħà¤¤à¤ıà¤µ": 4766,
      "Ġà¤ıà¤¨à¤Ī": 4767,
      "Ġà¤ħà¤°à¤¹à¤°": 4768,
      "Ġà¤łà¤Ĺà¤¨": 4769,
      "à¤¸à¤ļà¤°": 4770,
      "Ġà¤¹à¤Ī": 4771,
      "à¤ıà¤¨à¤¡": 4772,
      "Ġà¤īà¤¦à¤°": 4773,
      "à¤²à¤ľà¤µ": 4774,
      "à¤°à¤īà¤ľ": 4775,
      "à¤ľà¤¯à¤µ": 4776,
      "Ġà¤Ĩà¤Īà¤ıà¤¸à¤ĵ": 4777,
      "à¤¤à¤²à¤ķ": 4778,
      "à¤īà¤ªà¤Ń": 4779,
      "Ġà¤ıà¤«à¤¬": 4780,
      "à¤°à¤°à¤ķ": 4781,
      "à¤§à¤ļ": 4782,
      "à¤¤à¤ıà¤ĩà¤¸": 4783,
      "Ġà¤®à¤¨à¤®à¤°": 4784,
      "Ġà¤Īà¤¸à¤µ": 4785,
      "à¤Ĩà¤Ľ": 4786,
      "Ġà¥¨à¥¦à¥§à¥¬": 4787,
      "Ġà¤µà¤¡à¤¨": 4788,
      "à¥ĭà¥ĩà¤Ĥ": 4789,
      "Ġà¤¸à¤¶à¤°": 4790,
      "à¤ķà¤°à¤ıà¤¤": 4791,
      "à¤¬à¤²à¤°": 4792,
      "Ġà¤ħà¤¨à¤ªà¤²": 4793,
      "à¤¸à¤Łà¤°": 4794,
      "à¤Łà¤ĩà¤¨": 4795,
      "à¤¥à¤ħà¤ĸ": 4796,
      "Ġà¤ĵà¤µà¤°à¤¡": 4797,
      "Ġà¤¦à¤®à¤¨à¤ķ": 4798,
      "à¤®à¤¹à¤°": 4799,
      "Ġà¤Ĩà¤ªà¤£": 4800,
      "à¤ªà¤ªà¤¤": 4801,
      "Ġà¤°à¤¸à¤¡": 4802,
      "Ġà¤ķà¤°à¤Ĺ": 4803,
      "à¤°à¤¸à¤ķ": 4804,
      "Ġà¤®à¤ķà¤Ī": 4805,
      "à¤µà¤¨à¤Ńà¤°": 4806,
      "Ġà¤Ĳà¤ļ": 4807,
      "à¤®à¤ķà¤¨": 4808,
      "Ġà¤ħà¤¨à¤ķ": 4809,
      "Ġà¤ĩà¤¤à¤µ": 4810,
      "Ġà¤ĵà¤µà¤°à¤¬": 4811,
      "Ġà¤¬à¤°à¤¸à¤¨": 4812,
      "Ġà¤ıà¤Ĩà¤Īà¤¸": 4813,
      "Ġà¤¥à¤°à¤¥à¤°": 4814,
      "Ġà¤¹à¤®à¤¸à¤«": 4815,
      "à¤ĳà¤¨à¤²": 4816,
      "à¤ļà¤¸à¤®": 4817,
      "Ġà¤®à¤Ľà¤°": 4818,
      "à¤¡à¤°à¤Ł": 4819,
      "Ġà¤¢à¤²à¤¨": 4820,
      "à¤ĺà¤¨à¤Ĺà¤°": 4821,
      "à¤¿à¥ĩ": 4822,
      "à¤«à¤°à¤µà¤°": 4823,
      "Ġà¤¦à¤°à¤¦à¤°": 4824,
      "Ġà¤ļà¤ķà¤¤": 4825,
      "à¤Ĺà¤²à¤¤": 4826,
      "Ġà¤ĸà¤Łà¤ķ": 4827,
      "à¤Ĩà¤Īà¤ıà¤®": 4828,
      "à¤Īà¤ıà¤®": 4829,
      "Ġà¤Ĺà¤¦à¤Ĺ": 4830,
      "à¤ĩà¤¡à¤¸": 4831,
      "Ġà¤ĳà¤«à¤¬": 4832,
      "à¤łà¤¸": 4833,
      "à¥Īà¤Ĥà¥¤à¥¤": 4834,
      "à¤ĩà¤¨à¤¬": 4835,
      "Ġà¤ħà¤ļà¤°à¤ľ": 4836,
      "à¤Ĺà¤¹à¤®": 4837,
      "Ġà¤ıà¤²à¤ĵà¤¸": 4838,
      "à¤°à¤ªà¤¤à¤¨": 4839,
      "à¤īà¤ķ": 4840,
      "à¤²à¤Ńà¤Ń": 4841,
      "Ġà¤Ĩà¤¸à¤°": 4842,
      "à¤Ĩà¤Ń": 4843,
      "à¤¬à¤ķà¤®": 4844,
      "à¤Łà¤°à¤¶": 4845,
      "à¤ĸà¤ªà¤¤": 4846,
      "à¤ıà¤¹": 4847,
      "à¤§à¤¨à¤µ": 4848,
      "Ġà¤ļà¤°à¤¨": 4849,
      "Ġà¤ļà¤ĸà¤¨": 4850,
      "Ġà¤Ĩà¤Īà¤Ĩà¤Īà¤ıà¤®": 4851,
      "à¤ķà¤°à¤µ": 4852,
      "à¤ķà¤°à¤ĺ": 4853,
      "Ġà¤¬à¤ļà¤ķ": 4854,
      "Ġà¥©à¥«": 4855,
      "à¤²à¤®à¤°": 4856,
      "Ġà¤ªà¤°à¤Ĺà¤Ł": 4857,
      "à¤ĵà¤ªà¤¨": 4858,
      "Ġà¤ĩà¤¨à¤°": 4859,
      "Ġà¤¬à¤¦à¤¤à¤®": 4860,
      "à¤µà¤¦à¤°": 4861,
      "à¤Łà¤ħ": 4862,
      "à¤Ĩà¤µà¤¶": 4863,
      "à¤¦à¤ļ": 4864,
      "à¤ķà¤°à¤£à¤¸": 4865,
      "Ġà¤ĵà¤ıà¤¨à¤ľ": 4866,
      "à¤ªà¤°à¤ª": 4867,
      "Ġà¤¤à¤¹à¤ľ": 4868,
      "Ġà¤¤à¤®à¤¸": 4869,
      "à¤¯à¤·": 4870,
      "à¤łà¤ª": 4871,
      "à¤µà¤ī": 4872,
      "Ġà¤Ĩà¤°à¤ĵ": 4873,
      "Ġà¤ķà¤¬à¤ķ": 4874,
      "à¤¹à¤²à¤°": 4875,
      "à¥Ĵ": 4876,
      "à¤¶à¤µà¤°": 4877,
      "à¤ĩà¤µà¤²": 4878,
      "Ġà¤¸à¤®à¤µ": 4879,
      "Ġà¤¨à¤Ĺà¤°à¤¸": 4880,
      "Ġà¤¸à¤§à¤¨": 4881,
      "à¤®à¤¤à¤²à¤¬": 4882,
      "à¤Łà¤ķà¤²": 4883,
      "à¤°à¤µà¤§": 4884,
      "Ġà¤Ĭà¤ļ": 4885,
      "Ġà¤Łà¤ªà¤ķà¤¤": 4886,
      "Ġà¤ıà¤¨à¤Ĩà¤°à¤Ĩà¤Ī": 4887,
      "à¤ıà¤®à¤ıà¤²à¤ı": 4888,
      "à¤ķà¤Łà¤µà¤°": 4889,
      "à¥Īà¤ģà¥¤": 4890,
      "à¤Īà¤ķà¤¢": 4891,
      "Ġà¤Ĩà¤Īà¤ıà¤¸à¤¬": 4892,
      "Ġà¤Ĩà¤°à¤Ĩà¤°à¤Ł": 4893,
      "à¤ļà¤¸à¤®à¤Ŀà¤ķà¤°": 4894,
      "Ġà¤¬à¤¢à¤Ī": 4895,
      "Ġà¤¨à¤Ĺà¤£": 4896,
      "Ġà¤¤à¤°à¤ķà¤¶": 4897,
      "Ġà¤ĺà¤Ī": 4898,
      "à¤¦à¤Ĺà¤¢": 4899,
      "Ġà¤ıà¤¸à¤Ĩà¤°": 4900,
      "Ġà¤īà¤¦à¤µ": 4901,
      "Ġà¤ªà¤¬à¤ľ": 4902,
      "à¤µà¤¨à¤µ": 4903,
      "Ġà¤īà¤²à¤Łà¤«": 4904,
      "Ġà¥¨à¥¦à¥¦à¥®": 4905,
      "Ġà¤łà¤¹à¤°à¤¤": 4906,
      "Ġà¤ıà¤Ī": 4907,
      "à¤Ľà¤ł": 4908,
      "Ġà¤Ĭà¤§à¤®à¤¸": 4909,
      "à¤ľà¤¬à¤²": 4910,
      "à¤¯à¤ķà¤¥": 4911,
      "Ġà¤Ĺà¤«": 4912,
      "Ġà¤Ĩà¤ĩà¤ıà¤¸à¤Ĩà¤ĩ": 4913,
      "à¤īà¤¨à¤¶": 4914,
      "Ġà¤°à¤ľà¤ķ": 4915,
      "à¤ıà¤®à¤ıà¤®": 4916,
      "à¤ıà¤ļà¤ıà¤«": 4917,
      "à¤Ĺà¤¤à¤®": 4918,
      "Ġà¤¶à¤°à¤®à¤¨": 4919,
      "Ġà¤ħà¤°à¤¹": 4920,
      "à¤¢à¤¸": 4921,
      "Ġà¤ľà¤Ĺà¤°": 4922,
      "à¤°à¤µà¤ª": 4923,
      "Ġà¤Ĺà¤¸": 4924,
      "à¤°à¤ķà¤¬": 4925,
      "à¤īà¤µ": 4926,
      "à¤ľà¤ªà¤°": 4927,
      "Ġà¤ħà¤ĸà¤¨": 4928,
      "Ġà¤¶à¤°à¤¤": 4929,
      "Ġà¤ĵà¤¨à¤°": 4930,
      "Ġà¤ĺà¤¨à¤µ": 4931,
      "Ġà¤ĩà¤¦": 4932,
      "Ġà¤®à¤²à¤®": 4933,
      "Ġà¤ªà¤°à¤®à¤µ": 4934,
      "Ġà¤¬à¤ªà¤¤": 4935,
      "Ġà¤²à¤ł": 4936,
      "Ġà¤Ĩà¤«à¤°": 4937,
      "Ġà¤ħà¤ľà¤®à¤²": 4938,
      "Ġà¤ľà¤®à¤¤": 4939,
      "Ġà¤Ĩà¤ľà¤ķ": 4940,
      "Ġà¤°à¤ķà¤¬": 4941,
      "Ġà¤ĳà¤«à¤¸": 4942,
      "Ġà¤Ĺà¤Īà¤²": 4943,
      "Ġà¤ªà¤¢à¤ķà¤°": 4944,
      "à¤¦à¤µà¤°": 4945,
      "Ġà¤Ĩà¤Īà¤ĵà¤¸": 4946,
      "Ġà¤¹à¤ı": 4947,
      "à¤ľà¤°à¤¦": 4948,
      "à¤Łà¤ķà¤ķ": 4949,
      "Ġà¤¸à¤¹à¤ľà¤ª": 4950,
      "à¤Ĳà¤²": 4951,
      "à¤¸à¤®à¤¹": 4952,
      "à¥ªà¥ª": 4953,
      "à¤¤à¤²à¤¨": 4954,
      "à¤°à¤¶à¤ķ": 4955,
      "Ġà¤ıà¤ªà¤¨": 4956,
      "à¤°à¤¤à¤ĳà¤¸": 4957,
      "Ġà¤®à¤ļà¤²": 4958,
      "à¤Ĺà¤²à¤¸à¤°": 4959,
      "Ġà¤ĵà¤¤à¤ª": 4960,
      "Ġà¤¯à¤²": 4961,
      "à¤ľà¤Ī": 4962,
      "Ġà¤ĩà¤¨à¤¦": 4963,
      "Ġà¤Ĩà¤Īà¤Ĩà¤°à¤ıà¤¸": 4964,
      "à¥¨à¥Ń": 4965,
      "Ġà¤¸à¤Ĩ": 4966,
      "à¤®à¤¸à¤°": 4967,
      "Ġà¤ĵà¤¬à¤°": 4968,
      "Ġà¤ĺà¤¨à¤µà¤Ł": 4969,
      "Ġà¤ľà¤²à¤®à¤Ĺ": 4970,
      "Ġà¤«à¤²à¤¨": 4971,
      "Ġà¤ĩà¤¨à¤²": 4972,
      "Ġà¤Ĩà¤Ĺà¤®": 4973,
      "à¤µà¤Ī": 4974,
      "Ġà¤¨à¤°à¤ĸ": 4975,
      "à¤ľà¤¨à¤ª": 4976,
      "Ġà¤ıà¤®à¤ıà¤ļ": 4977,
      "Ġà¤¨à¤µà¤ª": 4978,
      "Ġà¤ıà¤¨à¤ıà¤ļà¤ıà¤®": 4979,
      "Ġà¤Ĩà¤°à¤ıà¤«": 4980,
      "Ġà¥į": 4981,
      "à¤¸à¤«à¤°à¤ª": 4982,
      "à¤¨à¤ĩ": 4983,
      "à¤µà¤ªà¤¤": 4984,
      "Ġà¤Īà¤·": 4985,
      "Ġà¤Łà¤¹à¤²à¤¤": 4986,
      "Ġà¤ıà¤¸à¤°": 4987,
      "à¤ªà¤¹à¤ļ": 4988,
      "à¥ĩà¥¥": 4989,
      "à¤§à¤Ĺ": 4990,
      "Ġà¤ıà¤ı": 4991,
      "à¤ķà¤°à¤¨à¤Ĺà¤°": 4992,
      "Ġà¤Ĩà¤µà¤¦": 4993,
      "Ġà¤ļà¤°à¤ķ": 4994,
      "à¥ģà¤¼": 4995,
      "Ġà¤ıà¤Ĺà¤ľ": 4996,
      "à¤¥à¤¸à¤¬à¤ķ": 4997,
      "Ġà¤ľà¤ľà¤®": 4998,
      "à¤¡à¤°à¤¬": 4999,
      "à¤®à¤¨à¤¥à¤ª": 5000,
      "Ġà¤ħà¤ķà¤¸": 5001,
      "à¤ľà¤®à¤¨à¤Ĺ": 5002,
      "à¤¦à¤°à¤Ĺà¤¢": 5003,
      "à¤ıà¤¨à¤Ĩà¤Ī": 5004,
      "Ġà¤ıà¤ķà¤¨": 5005,
      "Ġà¤ķà¤¬à¤¡à¤¡": 5006,
      "à¤łà¤®à¤²": 5007,
      "à¤ĺà¤²à¤¤": 5008,
      "Ġà¤ªà¤¦à¤¨": 5009,
      "Ġà¤Łà¤µ": 5010,
      "Ġà¤ļà¤²à¤µ": 5011,
      "à¤Ĺà¤°à¤¸": 5012,
      "Ġà¤Ĩà¤Īà¤Īà¤¡": 5013,
      "à¤Ĭà¤¨à¤²": 5014,
      "à¤ľà¤¨à¤«": 5015,
      "Ġà¤ĭà¤£à¤¦": 5016,
      "à¤²à¤¨à¤¹": 5017,
      "à¤Ĩà¤ªà¤¨": 5018,
      "à¥®à¥¦": 5019,
      "à¤¯à¤ļà¤¨": 5020,
      "à¤Ĺà¤¸à¤°à¤ķà¤°": 5021,
      "Ġà¤²à¤½": 5022,
      "à¤¤à¤īà¤¦à¤¦": 5023,
      "Ġà¤ıà¤ªà¤²": 5024,
      "à¤Ńà¤µà¤¨": 5025,
      "à¤¬à¤¤à¤²à¤¬": 5026,
      "à¤Īà¤ĺà¤°": 5027,
      "à¤¯à¤²à¤ªà¤°à¤µ": 5028,
      "à¤Īà¤Īà¤ıà¤Ĩà¤Ī": 5029,
      "à¤Īà¤Īà¤ıà¤Ĩà¤Īà¤ļ": 5030,
      "Ġà¤ľà¤²à¤§": 5031,
      "à¤²à¤Ĺà¤¤": 5032,
      "Ġà¤«à¤²à¤«": 5033,
      "à¤²à¤ĸà¤¤": 5034,
      "à¤ħà¤¯": 5035,
      "Ġà¤ıà¤ļà¤ıà¤ļ": 5036,
      "à¤ıà¤Łà¤²": 5037,
      "à¤§à¤°à¤¤": 5038,
      "à¤¸à¤ħà¤²": 5039,
      "Ġà¤ķà¤¶à¤®à¤ķà¤¶": 5040,
      "à¤¯à¤ªà¤¦": 5041,
      "Ġà¤®à¤¤à¤ªà¤¤": 5042,
      "à¤°à¤ķà¤Łà¤¨": 5043,
      "Ġà¤°à¤ī": 5044,
      "à¤µà¤¨à¤ª": 5045,
      "à¤ıà¤«à¤¡": 5046,
      "à¤¸à¤¹à¤°": 5047,
      "Ġà¤ħà¤ªà¤µà¤°": 5048,
      "Ġà¤ħà¤¨à¤¬": 5049,
      "à¤¦à¤®à¤¯": 5050,
      "à¤¦à¤¹à¤µ": 5051,
      "Ġà¤²à¤¹à¤²": 5052,
      "Ġà¤Īà¤ı": 5053,
      "à¤ľà¤¯à¤²": 5054,
      "Ġà¤ªà¤°à¤ª": 5055,
      "Ġà¤ķà¤¨à¤ª": 5056,
      "Ġà¤¸à¤¹à¤ķà¤²": 5057,
      "Ġà¤°à¤¸à¤Ĺ": 5058,
      "à¤ªà¤ķà¤¡": 5059,
      "Ġà¤Ĺà¤¦à¤Ĺà¤¦": 5060,
      "à¤¹à¤°à¤¨": 5061,
      "Ġà¤Īà¤¶à¤¨": 5062,
      "à¤ĺà¤¬à¤°": 5063,
      "à¤§à¤ªà¤¤": 5064,
      "Ġà¤¸à¤¬à¤¦": 5065,
      "Ġà¤Ĺà¤ļ": 5066,
      "Ġà¤ľà¤¨à¤ªà¤¥": 5067,
      "Ġà¤¶à¤ªà¤¥à¤Ĺ": 5068,
      "Ġà¥¨à¥¦à¥§à¥¨": 5069,
      "à¤Ĩà¤ĩà¤ı": 5070,
      "à¤¦à¤°à¤ļà¤°à¤£": 5071,
      "Ġà¤·à¤Ł": 5072,
      "Ġà¤ıà¤¨à¤ıà¤«à¤Ł": 5073,
      "Ġà¤¶à¤¯": 5074,
      "Ġà¤Ĺà¤¹à¤¨à¤¤": 5075,
      "Ġà¤ĩà¤¨à¤µà¤°": 5076,
      "à¤Łà¤®à¤ķ": 5077,
      "à¤ªà¤¤à¤°": 5078,
      "Ġà¤¶à¤Łà¤°à¤¸": 5079,
      "Ġà¤Łà¤ĸà¤¨": 5080,
      "Ġà¤ľà¤¨à¤¸à¤®à¤¸": 5081,
      "à¥©à¥ª": 5082,
      "Ġà¤§à¤¨à¤§": 5083,
      "Ġà¤®à¤ķà¤¦": 5084,
      "Ġà¤ħà¤¦à¤¬": 5085,
      "à¤Ŀà¤ªà¤°": 5086,
      "à¤¶à¤¨à¤¦": 5087,
      "à¤¼à¥ĭà¥¤": 5088,
      "Ġà¤Ĩà¤Īà¤ıà¤«à¤ıà¤¸": 5089,
      "à¤°à¤ĭà¤·": 5090,
      "à¤ľà¤¡à¤¨": 5091,
      "à¤¶à¤¨à¤Ĺà¤¢": 5092,
      "Ġà¤¹à¤Ĺ": 5093,
      "à¤¨à¤¬à¤¦": 5094,
      "Ġà¤¨à¤Ń": 5095,
      "Ġà¤Ĩà¤°à¤ıà¤ļ": 5096,
      "à¤¯à¤¨à¤µ": 5097,
      "Ġà¤Ĺà¤ľà¤¨": 5098,
      "à¤²à¤ķà¤®à¤²": 5099,
      "Ġà¤Ĺà¤£à¤Ĺ": 5100,
      "Ġà¤¶à¤°à¤¬à¤¤": 5101,
      "à¤¨à¤ķà¤ª": 5102,
      "à¥Ńà¥¦": 5103,
      "Ġà¤ıà¤¨à¤ıà¤«à¤ıà¤²": 5104,
      "Ġà¤ľà¤¯à¤Ĺ": 5105,
      "Ġà¤®à¤ĺ": 5106,
      "à¤ħà¤ªà¤°": 5107,
      "à¤¨à¤µà¤¸": 5108,
      "Ġà¤¬à¤¦à¤ķ": 5109,
      "à¤ľà¤¯à¤¸": 5110,
      "à¤°à¤¹à¤¨à¤ķ": 5111,
      "à¤Ĺà¤®à¤°": 5112,
      "à¤¯à¤¨à¤Ĺ": 5113,
      "Ġà¤ħà¤¬à¤°": 5114,
      "Ġà¤ĸà¤¬": 5115,
      "Ġà¤īà¤¤à¤°à¤µ": 5116,
      "à¤ħà¤¨à¤ľ": 5117,
      "Ġà¤ħà¤¶à¤«": 5118,
      "à¤¸à¤ĵ": 5119,
      "Ġà¤¸à¤°à¤¥": 5120,
      "Ġà¤ĵà¤«": 5121,
      "Ġà¤¬à¤²à¤µà¤¨": 5122,
      "à¤¥à¤¨à¤²": 5123,
      "Ġà¤ĺà¤ªà¤²": 5124,
      "à¤Łà¤§": 5125,
      "Ġà¤µà¤¸à¤²": 5126,
      "à¤¯à¤¯à¤¨à¤°à¤¤": 5127,
      "Ġà¤ĩà¤ķà¤°": 5128,
      "à¤¸à¤ķà¤¨": 5129,
      "Ġà¤Ĩà¤°à¤¡à¤¬": 5130,
      "Ġà¤Ĩà¤°à¤Ĩà¤°à¤Ĩà¤°": 5131,
      "à¤īà¤Ĺ": 5132,
      "à¤ļà¤°à¤¨": 5133,
      "à¤ľà¤¨à¤¤": 5134,
      "Ġà¤īà¤§à¤®à¤ª": 5135,
      "Ġà¤ĺà¤¨à¤ĺ": 5136,
      "Ġà¤ıà¤ıà¤²à¤ıà¤¸": 5137,
      "à¤Łà¤°à¤°": 5138,
      "à¤Ĩà¤ļ": 5139,
      "Ġà¤Ńà¤¡à¤ķ": 5140,
      "à¤µà¤¤à¤¦": 5141,
      "Ġà¤¸à¤°à¤ķà¤°": 5142,
      "à¤ķà¤ķà¤¹": 5143,
      "Ġà¤§à¤¨à¤¦": 5144,
      "Ġà¤Ľà¤ľ": 5145,
      "Ġà¤ļà¤Łà¤ķà¤¨": 5146,
      "Ġà¤īà¤²à¤Ŀà¤¤": 5147,
      "Ġà¤Ĺà¤¢à¤µ": 5148,
      "à¤Ńà¤ķà¤°": 5149,
      "Ġà¤Īà¤«": 5150,
      "Ġà¤ļà¤°à¤£à¤¦à¤°à¤ļà¤°à¤£": 5151,
      "à¤¨à¤¹à¤Ł": 5152,
      "à¤¯à¤£à¤¨": 5153,
      "Ġà¤Ńà¤°à¤¸à¤ķ": 5154,
      "Ġà¤«à¤ľà¤²": 5155,
      "à¤Ńà¤²à¤ķà¤°": 5156,
      "Ġà¥ĩ": 5157,
      "Ġà¤¤à¤¬à¤¤à¤ķ": 5158,
      "Ġà¤®à¤Łà¤®": 5159,
      "Ġà¤Ĩà¤¯à¤¤à¤¨": 5160,
      "Ġà¤¤à¤ªà¤¨": 5161,
      "à¤Ńà¤°à¤µ": 5162,
      "à¤Łà¤«à¤£": 5163,
      "à¤®à¤¦à¤°à¤¸": 5164,
      "Ġà¤ıà¤ĵ": 5165,
      "Ġà¤ªà¤«": 5166,
      "à¤·à¤īà¤ª": 5167,
      "Ġà¤ļà¤°à¤®à¤°": 5168,
      "Ġà¤Ĩà¤Īà¤Ĩà¤°à¤ıà¤¨": 5169,
      "Ġà¤¹à¤®à¤¸à¤«à¤°": 5170,
      "Ġà¤²à¤¹à¤²à¤¹": 5171,
      "Ġà¤ĩà¤¨à¤Ĺ": 5172,
      "à¤ľà¤¸à¤ľ": 5173,
      "Ġà¤Ĳà¤¤à¤¬": 5174,
      "à¤¯à¤¸à¤ķ": 5175,
      "Ġà¤°à¤¤à¤¨à¤ª": 5176,
      "à¤ĩà¤¸à¤ľ": 5177,
      "Ġà¤µà¤Łà¤µ": 5178,
      "à¤Ĺà¤¬à¤¹": 5179,
      "Ġà¤ıà¤«à¤ıà¤ıà¤«": 5180,
      "Ġà¤¸à¤°à¤¬à¤ľ": 5181,
      "Ġà¤¶à¤¹à¤®": 5182,
      "à¤ĵà¤Ĩà¤ĩ": 5183,
      "Ġà¤¨à¤®à¤¶": 5184,
      "Ġà¤°à¤£à¤Ľ": 5185,
      "à¤¤à¤®à¤¹": 5186,
      "à¥¨à¥®": 5187,
      "Ġà¤Ĩà¤Īà¤Ĩà¤°à¤ıà¤¨à¤ıà¤¸à¤ıà¤¸": 5188,
      "Ġà¤¡à¤£": 5189,
      "à¤¤à¤īà¤²à¤®": 5190,
      "à¤µà¤ħà¤¨": 5191,
      "à¤Ĩà¤ł": 5192,
      "à¤ķà¤²à¤°": 5193,
      "à¤Łà¤°à¤¡à¤®": 5194,
      "à¤§à¤¨à¤¸": 5195,
      "à¤µà¤ķà¤¹": 5196,
      "Ġà¤ªà¤²à¤Łà¤ķà¤°": 5197,
      "à¤ıà¤¨à¤ª": 5198,
      "à¤ľà¤¨à¤µà¤°": 5199,
      "à¤®à¤²à¤ľ": 5200,
      "Ġà¤«à¤¹": 5201,
      "à¤²à¤ķà¤µ": 5202,
      "à¤·à¤£à¤ķ": 5203,
      "Ġà¤µà¤°à¤®": 5204,
      "à¤ıà¤¸à¤ıà¤¸à¤Ĩà¤°": 5205,
      "Ġà¤¹à¤¥à¤ķà¤°à¤ĺ": 5206,
      "à¤łà¤¯à¤ķ": 5207,
      "à¤ľà¤ĺ": 5208,
      "à¤ħà¤µà¤¸à¤°": 5209,
      "Ġà¤īà¤ªà¤ł": 5210,
      "Ġà¤ħà¤¶à¤°": 5211,
      "Ġà¤īà¤ªà¤²à¤Ń": 5212,
      "à¤ªà¤²à¤°": 5213,
      "Ġà¤Ĳà¤¬": 5214,
      "Ġà¤ħà¤µà¤Ĺ": 5215,
      "à¤¦à¤ķà¤¦": 5216,
      "à¤°à¤ļà¤£": 5217,
      "Ġà¤¹à¤°à¤¯": 5218,
      "à¤°à¤ķà¤ľ": 5219,
      "à¤¤à¤¨à¤µ": 5220,
      "à¤¨à¤¬à¤¤": 5221,
      "à¤°à¤Ńà¤Ĺà¤µ": 5222,
      "à¤Ĩà¤Īà¤ıà¤ļ": 5223,
      "à¤¬à¤µà¤¤": 5224,
      "Ġà¤Ńà¤°à¤£à¤ª": 5225,
      "à¤¤à¤°à¤ĩà¤¤": 5226,
      "à¤Ĺà¤§à¤¬": 5227,
      "à¤ªà¤§à¤¨": 5228,
      "à¤¹à¤¨à¤¦": 5229,
      "à¤ķà¤Ńà¤°": 5230,
      "à¤Ńà¤°à¤ķà¤®": 5231,
      "Ġà¤ľà¤¨à¤¶": 5232,
      "à¤¹à¤¨à¤ľ": 5233,
      "Ġà¤¸à¤Ĺà¤°": 5234,
      "à¤¦à¤ªà¤¨": 5235,
      "Ġà¤°à¤¹à¤µ": 5236,
      "Ġà¤ıà¤¨à¤ıà¤¸à¤Ī": 5237,
      "Ġà¤ļà¤®à¤ļà¤®": 5238,
      "Ġà¤ľà¤¨à¤ķà¤ª": 5239,
      "à¤Īà¤Īà¤¨": 5240,
      "Ġà¤Ĩà¤®à¤°à¤£": 5241,
      "à¤µà¤Łà¤¬": 5242,
      "à¤¤à¤¨à¤§": 5243,
      "à¤Łà¤¸à¤°à¤ķ": 5244,
      "Ġà¤ıà¤®à¤Ī": 5245,
      "à¤ĩà¤¨à¤ļ": 5246,
      "Ġà¤®à¤°à¤¦": 5247,
      "à¤ĩà¤ªà¤°à¤²": 5248,
      "à¤£à¤¶": 5249,
      "à¤ķà¤Ĳà¤¶": 5250,
      "à¤Ńà¤Ĺà¤µà¤¦": 5251,
      "à¤ªà¤ĸ": 5252,
      "Ġà¤¡à¤°à¤¹": 5253,
      "Ġà¤ľà¤²à¤ľà¤®": 5254,
      "Ġà¤§à¤¨à¤ªà¤¤": 5255,
      "à¤¶à¤¨à¤ı": 5256,
      "Ġà¤¸à¤¹à¤¬à¤¦": 5257,
      "Ġà¤¤à¤ªà¤¤": 5258,
      "à¤ķà¤«à¤¸": 5259,
      "à¤ªà¤¶à¤¨": 5260,
      "Ġà¥ªà¥®": 5261,
      "à¤¯à¤°à¤¨à¤®": 5262,
      "Ġà¤ĸà¤°à¤¨": 5263,
      "Ġà¤¨à¤ĸà¤°": 5264,
      "à¤Łà¤°à¤¡": 5265,
      "Ġà¤¸à¤®à¤ľ": 5266,
      "Ġà¤ĩà¤¨à¤ªà¤°": 5267,
      "à¤ħà¤²à¤ķ": 5268,
      "à¤¶à¤²à¤®": 5269,
      "à¤¸à¤ħà¤¨à¤²": 5270,
      "à¤°à¤²à¤®à¤¹": 5271,
      "Ġà¤¢à¤ķà¤¨": 5272,
      "à¤µà¤īà¤łà¤¨": 5273,
      "à¤ĸà¤¦à¤°": 5274,
      "à¤µà¤²à¤¸à¤¬": 5275,
      "à¤²à¤¸à¤ľ": 5276,
      "à¤¤à¤ĸà¤¤": 5277,
      "à¤¬à¤Łà¤¨": 5278,
      "à¤Ĥà¤¾": 5279,
      "Ġà¤ķà¤°à¤®à¤ļ": 5280,
      "Ġà¤¸à¤«à¤¦à¤°à¤ľ": 5281,
      "à¥«à¥¬": 5282,
      "Ġà¤ĵà¤ªà¤°": 5283,
      "à¤ľà¤ĸ": 5284,
      "Ġà¤ħà¤¬à¤²": 5285,
      "à¤°à¤ļà¤°": 5286,
      "Ġà¤ıà¤«à¤Ł": 5287,
      "à¤ľà¤®à¤¸": 5288,
      "Ġà¤°à¤¸à¤°": 5289,
      "à¤¶à¤ĺà¤°": 5290,
      "Ġà¤ĵà¤µà¤²": 5291,
      "à¤ıà¤¸à¤ıà¤¨à¤ıà¤²à¤ıà¤®à¤Ł": 5292,
      "à¥Ĥà¥ĭ": 5293,
      "à¤Ĩà¤¤à¤°": 5294,
      "Ġà¤ªà¤²à¤Łà¤¤": 5295,
      "Ġà¤ħà¤®à¤°à¤¤": 5296,
      "à¤µà¤Łà¤Ĺ": 5297,
      "à¤Īà¤¸à¤¡": 5298,
      "Ġà¥¨à¥¦à¥§à¥©": 5299,
      "à¤Ńà¤ı": 5300,
      "à¤¸à¤²à¤®à¤°": 5301,
      "Ġà¤ªà¤ļà¤¨": 5302,
      "à¤ĸà¤Łà¤ĸà¤Ł": 5303,
      "à¤ķà¤ħ": 5304,
      "Ġà¤Ĩà¤Ĺà¤¶": 5305,
      "Ġà¤ħà¤ī": 5306,
      "à¤°à¤¤à¤ħà¤°": 5307,
      "Ġà¤ħà¤¤à¤¨": 5308,
      "Ġà¤²à¤¢": 5309,
      "Ġà¤Ĩà¤ıà¤¤à¤¬": 5310,
      "à¤¥à¤ľà¤¬à¤²à¤ª": 5311,
      "à¤¸à¤¸à¤°": 5312,
      "à¤¶à¤ĩà¤¸à¤®": 5313,
      "Ġà¤®à¤ŀ": 5314,
      "à¤¤à¤ĩà¤®à¤°": 5315,
      "à¤ıà¤ĵà¤¡": 5316,
      "à¤§à¤Ĺà¤¯": 5317,
      "Ġà¤łà¤Ĺà¤ª": 5318,
      "Ġà¤®à¤¦à¤¦à¤«": 5319,
      "à¤łà¤ķà¤ħà¤®": 5320,
      "à¤Ĺà¤Ĩà¤ĩà¤¸": 5321,
      "à¤¸à¤¦à¤Ł": 5322,
      "à¤°à¤®à¤£à¤¬à¤¸": 5323,
      "à¤¥à¤ªà¤Łà¤¨": 5324,
      "à¤¯à¤®à¤ľà¤¨": 5325,
      "à¤¤à¤ĵà¤ª": 5326,
      "à¤Łà¤°à¤¹à¤ľ": 5327,
      "à¤ĵà¤ªà¤¶": 5328,
      "Ġà¤¶à¤¹à¤°à¤µ": 5329,
      "Ġà¤ķà¤¦à¤®à¤¶": 5330,
      "à¤ľà¤°à¤®à¤Łà¤°": 5331,
      "à¤¶à¤īà¤ł": 5332,
      "à¤¶à¤¨à¤¤à¤¬": 5333,
      "à¤¯à¤¤à¤ħà¤¬": 5334,
      "à¤ħà¤Ĺà¤²": 5335,
      "Ġà¤Ĩà¤ıà¤ħà¤¬à¤¤à¤ķ": 5336,
      "à¤īà¤¨à¤ľà¤®": 5337,
      "à¤²à¤®à¤°à¤ķà¤ľ": 5338,
      "à¤¨à¤Łà¤īà¤ľ": 5339,
      "Ġà¤¬à¤ľà¤Łà¤®à¤¦à¤°à¤¸": 5340,
      "Ġà¤®à¤Łà¤°à¤¸à¤®": 5341,
      "Ġà¤¬à¤¦à¤°à¤īà¤²": 5342,
      "Ġà¤¹à¤°à¤ķà¤¤à¤¨à¤°": 5343,
      "Ġà¤Łà¤¨à¤²à¤ıà¤ķ": 5344,
      "à¤¹à¤¤à¤®à¤Ĺà¤°": 5345,
      "Ġà¤ıà¤«à¤Ĩà¤ĩà¤Ĩà¤°à¤¥": 5346,
      "à¥įà¤¾": 5347,
      "à¤ıà¤®à¤ıà¤ļà¤ĵ": 5348,
      "Ġà¤Ĩà¤¸à¤¨à¤¸": 5349,
      "à¤ľà¤¤à¤°": 5350,
      "Ġà¤Ŀà¤ªà¤ķà¤¤": 5351,
      "Ġà¤¹à¤°à¤¦à¤®": 5352,
      "à¤Łà¤¬à¤¸": 5353,
      "à¤°à¤¸à¤¬": 5354,
      "à¤¨à¤¤à¤²": 5355,
      "à¤°à¤¤à¤Ń": 5356,
      "à¤¯à¤¥à¤¨": 5357,
      "Ġà¤ıà¤¸à¤ıà¤²": 5358,
      "à¤°à¤Ńà¤°": 5359,
      "à¤ªà¤¨à¤ķ": 5360,
      "à¤ıà¤®à¤ıà¤¸à¤ª": 5361,
      "à¤Łà¤ķà¤®": 5362,
      "à¤Īà¤Īà¤Īà¤Ī": 5363,
      "Ġà¤ľà¤¯à¤¨à¤Ĺà¤°": 5364,
      "à¤°à¤µà¤¨": 5365,
      "à¤¸à¤°à¤Ĺ": 5366,
      "à¤µà¤¡à¤°": 5367,
      "à¤ľà¤ªà¤ķ": 5368,
      "à¤īà¤ªà¤¨": 5369,
      "à¤¨à¤µà¤¨": 5370,
      "à¤°à¤¤à¤ħ": 5371,
      "Ġà¤¹à¤¸à¤¦": 5372,
      "à¤¸à¤Ī": 5373,
      "à¤¤à¤¨à¤ķ": 5374,
      "à¤ĩà¤«à¤Ł": 5375,
      "Ġà¤ıà¤ķà¤ķ": 5376,
      "Ġà¤ĩà¤ĸ": 5377,
      "à¤¹à¤°à¤ª": 5378,
      "à¥īà¤ģ": 5379,
      "à¤ļà¤²à¤ķà¤°": 5380,
      "Ġà¤ªà¤¤à¤°à¤¸": 5381,
      "à¥Ĳ": 5382,
      "à¥¯à¥¯": 5383,
      "à¤ļà¤Ł": 5384,
      "à¤§à¤Ń": 5385,
      "Ġà¤Īà¤ıà¤¨à¤Ł": 5386,
      "à¤¡à¤µà¤°": 5387,
      "Ġà¤¤à¤Łà¤¬": 5388,
      "à¥©à¥¬": 5389,
      "à¤¯à¤¨à¤ľ": 5390,
      "Ġà¤ķà¤®à¤¬": 5391,
      "Ġà¤®à¤¹à¤ķà¤¤": 5392,
      "Ġà¤ĵà¤ıà¤¸à¤¡": 5393,
      "à¤ĩà¤Łà¤¹": 5394,
      "Ġà¤ħà¤¸à¤°à¤ķ": 5395,
      "à¤ĸà¤¯": 5396,
      "Ġà¤Ĺà¤²à¤¤à¤ľ": 5397,
      "à¤§à¤µà¤°": 5398,
      "Ġà¤īà¤£": 5399,
      "Ġà¥«à¥¦à¥¦": 5400,
      "à¤ĺà¤Ī": 5401,
      "Ġà¤ıà¤®à¤¨": 5402,
      "Ġà¤¯à¤®à¤¦": 5403,
      "Ġà¤ľà¤ªà¤¨": 5404,
      "Ġà¤Ĩà¤°à¤ı": 5405,
      "Ġà¤¬à¤°à¤¤à¤¤": 5406,
      "à¤¦à¤£": 5407,
      "Ġà¤ıà¤¡à¤µà¤°à¤Ł": 5408,
      "à¤Łà¤¸à¤¹à¤¯": 5409,
      "Ġà¤¬à¤Ĺà¤¦": 5410,
      "à¤ľà¤¨à¤¶": 5411,
      "à¥©à¥«": 5412,
      "à¤µà¤¹à¤¤": 5413,
      "Ġà¥©à¥¦à¥¦": 5414,
      "Ġà¤¬à¤ķà¤¸": 5415,
      "Ġà¤ħà¤īà¤ªà¤Ń": 5416,
      "Ġà¤¤à¤²à¤¹à¤Ł": 5417,
      "Ġà¤¦à¤¬à¤¨": 5418,
      "à¤°à¤®à¤²": 5419,
      "Ġà¤ķà¤Īà¤ķà¤Ī": 5420,
      "à¤Łà¤¸à¤Ĳà¤ª": 5421,
      "à¤ĩà¤Łà¤ķ": 5422,
      "Ġà¤ĵà¤µà¤°à¤Ĺ": 5423,
      "à¥°à¥°": 5424,
      "à¤¤à¤¹à¤¤": 5425,
      "Ġà¤¨à¤¨à¤ķ": 5426,
      "Ġà¤Łà¤¯": 5427,
      "à¤¤à¤ĺ": 5428,
      "Ġà¤ıà¤ıà¤®à¤¯": 5429,
      "à¤¦à¤¬à¤ĸ": 5430,
      "Ġà¤µà¤¸à¤¨": 5431,
      "Ġà¤īà¤ļà¤ķ": 5432,
      "à¤ĩà¤¥": 5433,
      "Ġà¤ħà¤¶à¤Ĩà¤°": 5434,
      "Ġà¤µà¤°à¤£": 5435,
      "Ġà¤ĵà¤¹à¤¦": 5436,
      "à¤ıà¤ļà¤ıà¤²": 5437,
      "à¥Īà¥Īà¥Ī": 5438,
      "Ġà¤¬à¤¡à¤ķ": 5439,
      "Ġà¤Ĺà¤®à¤Ľ": 5440,
      "à¤¦à¤®à¤¤": 5441,
      "Ġà¤«à¤Ĺ": 5442,
      "Ġà¤¬à¤²à¤ª": 5443,
      "à¤®à¤¦à¤ª": 5444,
      "Ġà¤°à¤ħ": 5445,
      "Ġà¤¢à¤°": 5446,
      "Ġà¤¸à¤¦à¤Ĺ": 5447,
      "à¤°à¤īà¤¤": 5448,
      "Ġà¤ķà¤«à¤¨": 5449,
      "à¤¡à¤¨à¤°": 5450,
      "à¤ıà¤²à¤ıà¤¡": 5451,
      "à¤¶à¤ªà¤¤": 5452,
      "Ġà¤ĺà¤°à¤ķ": 5453,
      "à¥¦à¥¦à¥¦à¥¦à¥¦à¥¦à¥¦à¥¦": 5454,
      "Ġà¤ĳà¤®": 5455,
      "à¤¡à¤°à¤¹": 5456,
      "à¤Ĭà¤ľ": 5457,
      "à¤²à¤Ĩà¤īà¤Ł": 5458,
      "Ġà¤«à¤°à¤ķ": 5459,
      "Ġà¤ħà¤¦à¤°": 5460,
      "Ġà¤¬à¤¹à¤®": 5461,
      "à¤°à¤¨à¤µ": 5462,
      "à¤Ĺà¤®à¤¯": 5463,
      "Ġà¤ĩà¤°à¤µ": 5464,
      "Ġà¤ļà¤ķà¤²": 5465,
      "à¤Ĩà¤Īà¤ĵ": 5466,
      "Ġà¥§à¥¯à¥¦": 5467,
      "à¤°à¤¤à¤¬": 5468,
      "Ġà¤ķà¤¹à¤µ": 5469,
      "Ġà¤¡à¤¨": 5470,
      "à¤°à¤Ĺà¤®à¤¨": 5471,
      "à¤Ńà¤¡": 5472,
      "à¥Įà¥¤": 5473,
      "Ġà¤ıà¤¸à¤ıà¤ļ": 5474,
      "à¤¸à¤ıà¤¡": 5475,
      "à¤®à¤¦à¤¯": 5476,
      "à¤°à¤¹à¤ķ": 5477,
      "Ġà¤¯à¤¯": 5478,
      "à¤¤à¤²à¤µ": 5479,
      "Ġà¤¬à¤Ļ": 5480,
      "à¤Ĩà¤Īà¤ıà¤¸à¤ıà¤«": 5481,
      "Ġà¤¬à¤°à¤¬à¤¸": 5482,
      "à¤ªà¤µà¤°": 5483,
      "à¤°à¤®à¤¤": 5484,
      "à¤·à¤£à¤ª": 5485,
      "à¤¯à¤ªà¤°à¤ķ": 5486,
      "à¤°à¤ķà¤¨": 5487,
      "à¥ĵ": 5488,
      "à¤İ": 5489,
      "à¤ľà¤ķà¤ª": 5490,
      "Ġà¤ıà¤¨à¤Ĩà¤°": 5491,
      "à¤ıà¤²à¤ıà¤®": 5492,
      "Ġà¤ªà¤ķà¤¡à¤©": 5493,
      "à¤¸à¤²à¤¬": 5494,
      "à¤Ĺà¤¹à¤°": 5495,
      "à¤ıà¤ıà¤®": 5496,
      "Ġà¥«à¥Ń": 5497,
      "Ġà¤¨à¤°à¤Ńà¤ķ": 5498,
      "Ġà¤Ĩà¤¬à¤¨": 5499,
      "Ġà¤Ŀà¤ķ": 5500,
      "à¤ķà¤¶à¤¨": 5501,
      "Ġà¤®à¤¯à¤¸": 5502,
      "à¤®à¤¶à¤°à¤£": 5503,
      "à¤£à¤§à¤°": 5504,
      "Ġà¤¸à¤°à¤ľ": 5505,
      "à¥«à¥«": 5506,
      "Ġà¤ªà¤¥à¤ª": 5507,
      "à¤°à¤¤à¤°à¤¤": 5508,
      "à¤¯à¤®à¤¸": 5509,
      "à¤¬à¤¬à¤²": 5510,
      "à¤¬à¤°à¤¸": 5511,
      "Ġà¤īà¤ªà¤§": 5512,
      "à¤Ńà¤ħà¤¶": 5513,
      "à¤ıà¤®à¤µ": 5514,
      "Ġà¤łà¤ł": 5515,
      "à¤¤à¤¹à¤¸": 5516,
      "Ġà¤īà¤§à¤®à¤¸": 5517,
      "à¤²à¤ªà¤°": 5518,
      "à¤¸à¤¬à¤¸": 5519,
      "Ġà¤¤à¤Łà¤°à¤ķ": 5520,
      "Ġà¤ħà¤µà¤¸à¤°à¤µ": 5521,
      "à¤°à¤ıà¤¨": 5522,
      "à¤ªà¤Łà¤²": 5523,
      "à¤¶à¤¶": 5524,
      "à¤ħà¤ªà¤¡": 5525,
      "Ġà¤Ĩà¤¥": 5526,
      "à¤ªà¤°à¤ĸ": 5527,
      "à¤¸à¤ħà¤¨": 5528,
      "à¤¦à¤¯à¤¤": 5529,
      "à¤¦à¤ķà¤Ł": 5530,
      "Ġà¤¯à¤¶à¤°": 5531,
      "à¤Łà¤°à¤ıà¤ķ": 5532,
      "à¤°à¤£à¤¸": 5533,
      "Ġà¤ªà¤¤à¤Ŀà¤¡": 5534,
      "à¤¦à¤«à¤°": 5535,
      "à¤°à¤µà¤²": 5536,
      "Ġà¤ľà¤¯à¤µ": 5537,
      "à¤®à¤¨à¤¨": 5538,
      "à¥Īà¥¥": 5539,
      "Ġà¤Īà¤ıà¤¸": 5540,
      "à¤°à¤¸à¤®à¤£": 5541,
      "à¤ªà¤Łà¤°": 5542,
      "Ġà¤¸à¤°à¤¸à¤°": 5543,
      "Ġà¤Ĳà¤²à¤¨": 5544,
      "à¤¸à¤Ĩà¤Īà¤¸": 5545,
      "Ġà¤ªà¤¢à¤©": 5546,
      "à¤®à¤°à¤¬": 5547,
      "Ġà¤ĸà¤°à¤¸": 5548,
      "à¤¼à¥Ģà¤Ĥà¥¤": 5549,
      "à¤¶à¤¨à¤µ": 5550,
      "Ġà¤ıà¤«à¤Ĩà¤Īà¤Ĩà¤Ī": 5551,
      "à¤°à¤°à¤µ": 5552,
      "à¤µà¤ªà¤²": 5553,
      "à¤µà¤¤à¤¸à¤°": 5554,
      "à¤Łà¤®à¤ª": 5555,
      "à¤ªà¤°à¤Ł": 5556,
      "Ġà¥¯à¥«": 5557,
      "Ġà¤¤à¤¦à¤°": 5558,
      "à¤¶à¤¨à¤ĩ": 5559,
      "à¤°à¤®à¤¹": 5560,
      "Ġà¤¹à¤°à¤®à¤¨à¤ª": 5561,
      "à¤µà¤ªà¤°": 5562,
      "Ġà¤ļà¤¦": 5563,
      "Ġà¤¬à¤¨à¤ķ": 5564,
      "à¤§à¤ķà¤ķ": 5565,
      "Ġà¤ľà¤²à¤ķ": 5566,
      "Ġà¤ĵà¤ı": 5567,
      "Ġà¤²à¤Łà¤ķà¤¨": 5568,
      "à¤¦à¤¤à¤Ĺ": 5569,
      "Ġà¤Ĩà¤Ĩ": 5570,
      "à¤°à¤«à¤¤": 5571,
      "à¤°à¤¡à¤®": 5572,
      "à¤®à¤¨à¤¯à¤¨": 5573,
      "à¤Łà¤Ī": 5574,
      "à¤ļà¤ªà¤¡": 5575,
      "Ġà¤Ľà¤°": 5576,
      "à¤²à¤µà¤¸": 5577,
      "à¤®à¤®à¤¨": 5578,
      "à¤Ĺà¤ħà¤°": 5579,
      "Ġà¤īà¤ĺ": 5580,
      "à¤¯à¤°à¤²à¤¬": 5581,
      "Ġà¤ħà¤¸à¤Ĺà¤°": 5582,
      "à¤µà¤²à¤ķ": 5583,
      "à¤¸à¤ħà¤¹à¤®à¤¦": 5584,
      "Ġà¤®à¤¤à¤µ": 5585,
      "Ġà¤ıà¤ıà¤«à¤ª": 5586,
      "Ġà¤¥à¤ķà¤¤": 5587,
      "Ġà¤®à¤µà¤Ī": 5588,
      "à¤Ĺà¤Ĺà¤²": 5589,
      "à¥§à¥¦à¥¦": 5590,
      "Ġà¥§à¥¦à¥¦à¥¦": 5591,
      "Ġà¤Ĭà¤§à¤®": 5592,
      "Ġà¤īà¤ªà¤¸à¤°": 5593,
      "Ġà¤ĵà¤ĸà¤²": 5594,
      "à¤¸à¤¬à¤¹": 5595,
      "Ġà¤¤à¤°à¤¸à¤¨": 5596,
      "à¤Ńà¤°à¤£": 5597,
      "Ġà¤¸à¤°à¤ªà¤Ł": 5598,
      "Ġà¤¡à¤¹à¤°": 5599,
      "à¤¯à¤Łà¤¸": 5600,
      "Ġà¤¸à¤¨à¤¤": 5601,
      "Ġà¤¹à¤¸à¤¬": 5602,
      "Ġà¤¸à¤ŀ": 5603,
      "Ġà¤ħà¤ªà¤¤": 5604,
      "à¤łà¤¤à¤®": 5605,
      "à¤¸à¤®à¤Ŀà¤¨": 5606,
      "Ġà¤ªà¤¦à¤µ": 5607,
      "Ġà¤ıà¤¨à¤ĵà¤¸": 5608,
      "Ġà¤Īà¤¥": 5609,
      "Ġà¤²à¤¬à¤°": 5610,
      "Ġà¤²à¤ļà¤°": 5611,
      "à¤ľà¤¦à¤¸": 5612,
      "à¤¾à¥°": 5613,
      "Ġà¤ĸà¤µ": 5614,
      "à¤¤à¤°à¤Ń": 5615,
      "à¤¯à¤°à¤¸à¤ľ": 5616,
      "à¥įà¥į": 5617,
      "Ġà¤ľà¤Ī": 5618,
      "Ġà¤ħà¤¨à¤ĩ": 5619,
      "Ġà¤¸à¤°à¤®à¤¨": 5620,
      "à¤¬à¤¶": 5621,
      "à¤°à¤ļà¤¤": 5622,
      "à¤ĩà¤¡à¤°à¤®": 5623,
      "à¥Īà¤¼": 5624,
      "à¤īà¤¨à¤¸": 5625,
      "Ġà¤ķà¤²à¤¬": 5626,
      "à¤¸à¤¨à¤¹à¤¸": 5627,
      "à¤¦à¤µà¤Ī": 5628,
      "à¤¸à¤ıà¤ļà¤ª": 5629,
      "Ġà¤īà¤Ł": 5630,
      "Ġà¤ľà¤²à¤¨à¤¸": 5631,
      "à¤·à¤¬à¤ļ": 5632,
      "à¤¤à¤°à¤²": 5633,
      "Ġà¤Īà¤¥à¤°": 5634,
      "Ġà¤ĩà¤«à¤ķ": 5635,
      "Ġà¤¤à¤¹à¤¸à¤¨à¤¹à¤¸": 5636,
      "Ġà¤ĵà¤µà¤°à¤ĳà¤²": 5637,
      "à¥Ħ": 5638,
      "à¤¬à¤°à¤ħà¤ķ": 5639,
      "à¤¤à¤¨à¤¦": 5640,
      "Ġà¤Ĩà¤Īà¤Ĩà¤°à¤¡": 5641,
      "à¥®à¥«": 5642,
      "à¤¸à¤ĵà¤°à¤²": 5643,
      "Ġà¤¬à¤Łà¤µ": 5644,
      "Ġà¤Ĺà¤Łà¤°": 5645,
      "Ġà¤¸à¤ļà¤ĸ": 5646,
      "Ġà¤ĵà¤Ŀà¤²": 5647,
      "à¤§à¤¸à¤¤": 5648,
      "à¤ıà¤¡à¤ª": 5649,
      "Ġà¥®à¥¦": 5650,
      "Ġà¤īà¤Ńà¤°à¤ķà¤°": 5651,
      "Ġà¤µà¤£": 5652,
      "Ġà¤¸à¤ľà¤²": 5653,
      "à¤ĵà¤Ĩà¤Ī": 5654,
      "à¤īà¤¬": 5655,
      "à¤ıà¤¶à¤¨à¤µ": 5656,
      "à¤ĸà¤ķà¤µ": 5657,
      "à¤ĺà¤¦": 5658,
      "Ġà¤īà¤¤à¤°à¤ª": 5659,
      "à¥©à¥©": 5660,
      "Ġà¤¹à¤°à¤·": 5661,
      "à¤²à¤ķà¤§": 5662,
      "à¤²à¤°à¤ľ": 5663,
      "à¤ľà¤ľà¤¡": 5664,
      "à¤¸à¤°à¤ĵà¤µ": 5665,
      "à¤ľà¤¨à¤¬à¤µ": 5666,
      "à¤¸à¤°à¤¹à¤¡": 5667,
      "à¤ķà¤µà¤°à¤¹": 5668,
      "à¤¯à¤°à¤ķà¤®à¤ľ": 5669,
      "à¤ıà¤¸à¤ķà¤¬": 5670,
      "à¤ĵà¤ıà¤¸à¤®à¤¹": 5671,
      "à¤¶à¤¨à¤ıà¤¯à¤°à¤¬": 5672,
      "à¤Ĺà¤µà¤¶": 5673,
      "Ġà¤°à¤¸à¤ĸ": 5674,
      "Ġà¤¸à¤®à¤¦": 5675,
      "à¤°à¤¹à¤¨": 5676,
      "à¥įà¤¿": 5677,
      "à¤£à¤ľ": 5678,
      "à¤Ĩà¤Īà¤Ĩà¤Īà¤Ł": 5679,
      "à¤¨à¤Ĩ": 5680,
      "à¤²à¤ľà¤Ĺà¤¤": 5681,
      "Ġà¤¹à¤ľà¤®": 5682,
      "Ġà¤¡à¤°à¤ª": 5683,
      "Ġà¤ªà¤łà¤¨à¤ª": 5684,
      "Ġà¤ķà¤łà¤ĺà¤°": 5685,
      "à¤ķà¤ªà¤°": 5686,
      "Ġà¤Ĭà¤®": 5687,
      "à¥ĩà¥ĩà¥ĩà¥ĩ": 5688,
      "Ġà¤¯à¤µ": 5689,
      "à¤°à¤¹à¤Ł": 5690,
      "à¤ªà¤Ń": 5691,
      "à¤¡à¤Ń": 5692,
      "Ġà¤¤à¤²à¤¨": 5693,
      "à¤Łà¤²à¤Ĺ": 5694,
      "à¤¨à¤§": 5695,
      "Ġà¤ķà¤°à¤¹": 5696,
      "à¤¢à¤°à¤ª": 5697,
      "Ġà¤½": 5698,
      "Ġà¤ĳà¤²à¤µ": 5699,
      "à¤Łà¤ĸà¤¸": 5700,
      "Ġà¤¯à¤¶à¤µà¤¨": 5701,
      "à¤¯à¤°à¤ľ": 5702,
      "à¤®à¤ħà¤ª": 5703,
      "à¤ĩà¤¦": 5704,
      "à¤Ĩà¤ľà¤®": 5705,
      "à¤ĵà¤ĵ": 5706,
      "Ġà¤ıà¤ķà¤®à¤¤": 5707,
      "Ġà¤«à¤°à¤¦": 5708,
      "Ġà¤ľà¤²à¤°": 5709,
      "Ġà¤ıà¤²à¤ıà¤¨à¤ľ": 5710,
      "à¤µà¤Ľ": 5711,
      "à¤ľà¤ĺà¤°": 5712,
      "Ġà¤Ĳà¤¨à¤ķ": 5713,
      "à¤¯à¤®à¤ĸ": 5714,
      "Ġà¤®à¤·": 5715,
      "Ġà¤Ĩà¤°à¤¯": 5716,
      "Ġà¥Ńà¥¦": 5717,
      "Ġà¤ħà¤¸à¤¨": 5718,
      "Ġà¤ķà¤°à¤¸": 5719,
      "à¤ĭà¤¤": 5720,
      "Ġà¤¸à¤®à¤Ń": 5721,
      "à¤°à¤¦à¤ľ": 5722,
      "Ġà¤¨à¤µà¤°à¤¤": 5723,
      "à¤²à¤®à¤Ī": 5724,
      "à¤¨à¤®à¤¸": 5725,
      "à¤ķà¤ĵà¤µà¤°": 5726,
      "Ġà¤ķà¤°à¤®à¤¹": 5727,
      "Ġà¤īà¤¦à¤Ĺ": 5728,
      "Ġà¤¸à¤ĺ": 5729,
      "Ġà¤ıà¤¡à¤¨": 5730,
      "Ġà¤¶à¤Łà¤²": 5731,
      "à¤§à¤¨à¤¤": 5732,
      "à¤°à¤®à¤ķ": 5733,
      "Ġà¤īà¤¬à¤²à¤¨": 5734,
      "Ġà¥¯à¥¦": 5735,
      "à¤¬à¤°à¤µ": 5736,
      "à¤ıà¤¸à¤ĵ": 5737,
      "Ġà¤īà¤ªà¤¸à¤®": 5738,
      "Ġà¤Ĳà¤¯": 5739,
      "Ġà¤Ńà¤Ĺà¤¨": 5740,
      "à¤·à¤¯à¤¸": 5741,
      "Ġà¤ķà¤¨à¤ĸà¤²": 5742,
      "à¤£à¤§": 5743,
      "à¤¦à¤¯à¤¸": 5744,
      "Ġà¤®à¤¨à¤¦": 5745,
      "à¤¨à¤ħà¤ķ": 5746,
      "Ġà¤¤à¤Ĺ": 5747,
      "Ġà¤µà¤°à¤µà¤§": 5748,
      "Ġà¤°à¤²": 5749,
      "Ġà¤¹à¤ķà¤²": 5750,
      "Ġà¤²à¤²à¤®à¤Ł": 5751,
      "Ġà¤ľà¤¯à¤µà¤°": 5752,
      "à¥©à¥¯": 5753,
      "à¤ķà¤¸à¤®": 5754,
      "à¤«à¤®": 5755,
      "Ġà¤¬à¤¹à¤ķà¤°": 5756,
      "à¤ħà¤°à¤¶": 5757,
      "Ġà¤ıà¤¨à¤«": 5758,
      "à¥Ńà¥®": 5759,
      "Ġà¤Ĩà¤Īà¤ıà¤«à¤ıà¤¸à¤¸": 5760,
      "à¤¯à¤ħà¤®": 5761,
      "Ġà¤īà¤Ŀ": 5762,
      "à¤¬à¤²à¤¡à¤¨": 5763,
      "Ġà¤ĭà¤·à¤Ńà¤¦": 5764,
      "Ġà¥¨à¥¦à¥§à¥«": 5765,
      "Ġà¤īà¤¨à¤¹": 5766,
      "à¤²à¤ĩà¤¸": 5767,
      "Ġà¤ıà¤²à¤ıà¤²à¤¸": 5768,
      "Ġà¤ıà¤¨à¤ı": 5769,
      "à¤®à¤ħ": 5770,
      "à¤£à¤Ń": 5771,
      "Ġà¤ħà¤°à¤Ĺà¤°": 5772,
      "Ġà¤®à¤Ĺà¤¹": 5773,
      "à¤¤à¤ķà¤°à¤£": 5774,
      "Ġà¤ħà¤§à¤¨": 5775,
      "à¤Ŀà¤Ĺà¤¡": 5776,
      "Ġà¤Ĵ": 5777,
      "Ġà¤ħà¤¯à¤¨": 5778,
      "Ġà¤ªà¤ķà¤¤": 5779,
      "à¤Īà¤¤": 5780,
      "Ġà¤¬à¤°à¤Ĺ": 5781,
      "Ġà¤¥à¤¨": 5782,
      "Ġà¤ĵà¤ľà¤¸": 5783,
      "à¤²à¤®à¤£": 5784,
      "à¤²à¤ī": 5785,
      "Ġà¤ªà¤¨à¤Ĺ": 5786,
      "à¥Ńà¥¬": 5787,
      "Ġà¤ķà¤°à¤¹à¤²": 5788,
      "Ġà¤Ĩà¤Īà¤Ĩà¤°": 5789,
      "à¤¡à¤ħà¤²": 5790,
      "Ġà¤ħà¤¶à¤ķ": 5791,
      "Ġà¤ıà¤Ĩà¤°à¤Ł": 5792,
      "à¤Łà¤ķà¤ıà¤ķ": 5793,
      "à¤Ĺà¤®à¤Ń": 5794,
      "Ġà¤īà¤ªà¤¸à¤Ń": 5795,
      "Ġà¥Ńà¥¨": 5796,
      "Ġà¤ķà¤Īà¤¯": 5797,
      "Ġà¤¶à¤Ń": 5798,
      "Ġà¤²à¤Ĺà¤ķà¤°": 5799,
      "à¤°à¤§à¤°à¤ª": 5800,
      "Ġà¤ħà¤®à¤°à¤¦": 5801,
      "Ġà¤ķà¤ĩà¤¸": 5802,
      "à¤¹à¤®à¤¤": 5803,
      "Ġà¤«à¤°à¤µ": 5804,
      "à¤ĩà¤Łà¤µ": 5805,
      "Ġà¥§à¥®à¥«": 5806,
      "Ġà¤°à¤Ĭ": 5807,
      "Ġà¤¬à¤²à¤ľ": 5808,
      "à¤ªà¤²à¤µà¤²": 5809,
      "Ġà¤¤à¤°à¤£": 5810,
      "Ġà¤Ĩà¤ľà¤¸": 5811,
      "à¤ļà¤Ĺà¤µ": 5812,
      "à¤«à¤Ī": 5813,
      "Ġà¥°": 5814,
      "Ġà¤ħà¤Ĺà¤¹à¤¨": 5815,
      "Ġà¤²à¤µà¤µ": 5816,
      "à¤ĩà¤Łà¤¬": 5817,
      "Ġà¤µà¤¦": 5818,
      "Ġà¤Łà¤«": 5819,
      "Ġà¤ªà¤ªà¤¡": 5820,
      "à¤Ĩà¤°à¤¤": 5821,
      "à¤ıà¤²à¤Ł": 5822,
      "à¥Ĥà¥ħ": 5823,
      "Ġà¤²à¤²à¤ļ": 5824,
      "à¥Ńà¥«": 5825,
      "à¤¥à¤ķà¤°": 5826,
      "à¤ĩà¤¸à¤µ": 5827,
      "à¤Ĺà¤ħ": 5828,
      "à¤¸à¤¹à¤¸": 5829,
      "à¥ªà¥«": 5830,
      "à¤²à¤£": 5831,
      "à¥Īà¤Ĥà¤Ĥ": 5832,
      "Ġà¤¬à¤¤à¤ĸ": 5833,
      "Ġà¤ĸà¤Łà¤ªà¤Ł": 5834,
      "Ġà¤¸à¤¹à¤¨à¤¶à¤ķ": 5835,
      "Ġà¤Ľà¤¤à¤²": 5836,
      "Ġà¤ķà¤²à¤¨": 5837,
      "à¤¡à¤¸à¤°": 5838,
      "à¤Īà¤ľà¤°": 5839,
      "Ġà¤¸à¤¬à¤ĩ": 5840,
      "Ġà¤¸à¤īà¤¦": 5841,
      "à¤²à¤¨à¤°à¤¤": 5842,
      "Ġà¤ıà¤®à¤Ĩà¤Īà¤Ł": 5843,
      "Ġà¤ªà¤¨à¤¬": 5844,
      "Ġà¤¸à¤Ĩà¤¦à¤¤": 5845,
      "à¤ľà¤¨à¤®": 5846,
      "Ġà¤Ĭà¤¹": 5847,
      "Ġà¤Ĩà¤ĩà¤¬": 5848,
      "à¤Īà¤¹": 5849,
      "à¤Ĺà¤°à¤Ĺà¤¢": 5850,
      "Ġà¤®à¤¨à¤Ĺà¤¢": 5851,
      "à¤°à¤ľà¤µ": 5852,
      "Ġà¤Łà¤¨à¤ķà¤ª": 5853,
      "Ġà¤ľà¤ķà¤°à¤¬à¤°": 5854,
      "à¤°à¤¤à¤Ĺà¤¢": 5855,
      "Ġà¤®à¤ĩà¤¯": 5856,
      "à¤Ĳà¤¤": 5857,
      "à¤°à¤ķà¤¶": 5858,
      "à¤ķà¤ĩ": 5859,
      "Ġà¤¬à¤ľà¤¹": 5860,
      "Ġà¤ıà¤¨à¤ıà¤¸à¤¡": 5861,
      "Ġà¤ıà¤ıà¤®": 5862,
      "à¤ĩà¤ıà¤Ĺ": 5863,
      "Ġà¤ĵà¤®à¤¨": 5864,
      "à¥ĩà¤Ĥà¥¤à¥¤": 5865,
      "Ġà¤ľà¤¯à¤¸à¤µ": 5866,
      "à¤¦à¤¨à¤µ": 5867,
      "Ġà¤§à¤°à¤ªà¤ķà¤¡": 5868,
      "Ġà¤®à¤«à¤¤à¤²": 5869,
      "Ġà¤°à¤īà¤Ĩ": 5870,
      "à¤¸à¤²à¤¤": 5871,
      "Ġà¤ħà¤¹à¤°": 5872,
      "Ġà¤Ĭà¤īà¤®": 5873,
      "à¥¦à¥§": 5874,
      "Ġà¤µà¤²à¤¸": 5875,
      "Ġà¤Ĺà¤²à¤¨": 5876,
      "Ġà¤¬à¤ķà¤²": 5877,
      "Ġà¤ħà¤¨à¤Ľ": 5878,
      "Ġà¤¢à¤ķà¤ķà¤°": 5879,
      "Ġà¤®à¤¶à¤Ĺ": 5880,
      "Ġà¤īà¤¬à¤Łà¤¨": 5881,
      "Ġà¤®à¤¨à¤ļà¤²": 5882,
      "Ġà¥Ńà¥«": 5883,
      "à¤§à¤¨à¤ª": 5884,
      "Ġà¤īà¤¦à¤¯à¤¨": 5885,
      "Ġà¤ħà¤ĩà¤¸à¤¨": 5886,
      "Ġà¤ıà¤®à¤Ĩà¤°à¤Ĩà¤Ī": 5887,
      "à¤ıà¤Ĩà¤°": 5888,
      "à¤¥à¤ħà¤²": 5889,
      "Ġà¤ıà¤Ĩà¤Īà¤Ł": 5890,
      "à¤¯à¤ķà¤¶": 5891,
      "à¤ĩà¤«à¤°": 5892,
      "Ġà¤®à¤Īà¤ľ": 5893,
      "Ġà¤§à¤¸": 5894,
      "à¤²à¤®à¤ĸ": 5895,
      "à¥¬à¥¬": 5896,
      "Ġà¤ħà¤¹à¤¹": 5897,
      "à¤ıà¤«à¤ıà¤¸": 5898,
      "Ġà¤¬à¤ĩ": 5899,
      "Ġà¤¤à¤¬à¤°": 5900,
      "à¤°à¤ķà¤µ": 5901,
      "Ġà¤¹à¤°à¤¹": 5902,
      "à¤ħà¤¶à¤«": 5903,
      "Ġà¤Ĩà¤°à¤ħà¤¸": 5904,
      "Ġà¤ħà¤ªà¤£": 5905,
      "Ġà¤ıà¤¨à¤ıà¤¸à¤ĵ": 5906,
      "Ġà¤¹à¤łà¤§à¤°": 5907,
      "à¥©à¥®": 5908,
      "Ġà¤Ĩà¤°à¤ħà¤¸à¤¶à¤°": 5909,
      "à¤¶à¤¡": 5910,
      "à¤°à¤ķà¤®à¤²à¤ľ": 5911,
      "à¤²à¤®à¤¹": 5912,
      "à¤µà¤¸à¤°": 5913,
      "Ġà¤²à¤Ľ": 5914,
      "Ġà¤ıà¤²à¤µ": 5915,
      "à¥¯à¥¦": 5916,
      "Ġà¤¶à¤ł": 5917,
      "Ġà¤ļà¤¹à¤²à¤ķ": 5918,
      "à¤²à¤¥": 5919,
      "à¤ıà¤¨à¤µ": 5920,
      "à¥Ńà¥ª": 5921,
      "à¤¾à¥¥à¥¥": 5922,
      "à¤Ľà¤Ł": 5923,
      "Ġà¤Łà¤£": 5924,
      "Ġà¤ĵà¤Ĺ": 5925,
      "Ġà¤Īà¤Ĺà¤µà¤°": 5926,
      "à¤¤à¤ļà¤°": 5927,
      "à¤²à¤µà¤¨": 5928,
      "à¤¦à¤°à¤¹": 5929,
      "Ġà¥§à¥¦à¥¦à¥¦à¥¦": 5930,
      "Ġà¤ªà¤Ĺà¤¡à¤£": 5931,
      "Ġà¤ķà¤Łà¤²": 5932,
      "à¤¼à¥Ĥà¤ģ": 5933,
      "à¤¨à¤Ĩà¤¯": 5934,
      "Ġà¤īà¤Ľà¤²à¤¤": 5935,
      "à¤¾à¥ħà¤Ĥ": 5936,
      "Ġà¤Ĩà¤Īà¤Ĩà¤Īà¤ıà¤®à¤¸": 5937,
      "à¤Ĺà¤§à¤°": 5938,
      "Ġà¤ĵà¤®à¤ķ": 5939,
      "à¤Ńà¤µà¤¶": 5940,
      "Ġà¤Īà¤ıà¤¸à¤ª": 5941,
      "Ġà¤ıà¤¨à¤ıà¤¸à¤ľ": 5942,
      "à¤µà¤Ĺà¤¢": 5943,
      "à¥¯à¥®": 5944,
      "à¥Ĵà¥Ĵ": 5945,
      "à¥ĭà¥°": 5946,
      "Ġà¤¸à¤¬à¤®à¤°": 5947,
      "à¤ķà¤ĸ": 5948,
      "à¤§à¤¨à¤Ĺ": 5949,
      "Ġà¤ıà¤¨à¤ıà¤ļà¤ıà¤Ĩà¤Ī": 5950,
      "à¤¥à¤ľà¤Ĺà¤¤": 5951,
      "Ġà¤Īà¤¡à¤¨": 5952,
      "Ġà¤¶à¤¦": 5953,
      "Ġà¤¦à¤®à¤ĺ": 5954,
      "à¤¦à¤Ĺà¤²": 5955,
      "Ġà¤ıà¤®à¤«": 5956,
      "à¤¤à¤ķà¤¨": 5957,
      "à¤Ĺà¤ľà¤¨à¤ķ": 5958,
      "Ġà¤ħà¤¢": 5959,
      "à¤ľà¤Ĺà¤¦": 5960,
      "Ġà¤Ĩà¤ĩà¤Ł": 5961,
      "Ġà¤īà¤¥à¤ª": 5962,
      "à¤µà¤²à¤°": 5963,
      "à¤¨à¤ªà¤¹à¤ļ": 5964,
      "Ġà¤Ŀà¤ª": 5965,
      "à¤¸à¤°à¤µ": 5966,
      "à¤ĩà¤¹": 5967,
      "à¤¤à¤¹à¤°": 5968,
      "Ġà¤Ķà¤Ĺ": 5969,
      "Ġà¤ıà¤®à¤ıà¤ıà¤«": 5970,
      "à¤Łà¤°à¤ĩà¤¨à¤ļ": 5971,
      "à¤¤à¤¬à¤²": 5972,
      "Ġà¤Ĩà¤²à¤°": 5973,
      "Ġà¤Ĩà¤°à¤Ĩà¤Īà¤ıà¤²": 5974,
      "à¥įà¥¤à¥¤": 5975,
      "Ġà¤ĵà¤ĸ": 5976,
      "Ġà¤¦à¤²à¤ľ": 5977,
      "Ġà¥¨à¥¦à¥¦à¥¬": 5978,
      "à¤°à¤¹à¤¤": 5979,
      "à¥©à¥§": 5980,
      "Ġà¤ĵà¤ıà¤®à¤Ĩà¤°": 5981,
      "à¤ľà¤¬à¤¹": 5982,
      "Ġà¤ĩà¤¯à¤¤": 5983,
      "Ġà¤ªà¤¤à¤µ": 5984,
      "Ġà¤ĺà¤¬à¤¡": 5985,
      "à¤µà¤°à¤¬": 5986,
      "Ġà¤ħà¤ªà¤¤à¤Ł": 5987,
      "Ġà¤²à¤¡à¤©": 5988,
      "à¤¡à¤ıà¤¸": 5989,
      "à¤·à¤ļ": 5990,
      "à¤¨à¤²à¤Ĺ": 5991,
      "Ġà¤¸à¤¨à¤¦": 5992,
      "à¤°à¤µà¤¯": 5993,
      "Ġà¤Łà¤Łà¤ķ": 5994,
      "Ġà¤¬à¤¤à¤ķà¤¹": 5995,
      "à¤ıà¤«à¤ıà¤«": 5996,
      "Ġà¤¬à¤°à¤¦": 5997,
      "Ġà¤ķà¤°à¤¬": 5998,
      "Ġà¤ıà¤®à¤Ĩà¤°à¤ª": 5999,
      "à¤µà¤Ńà¤ķ": 6000,
      "à¥¯à¥«": 6001,
      "à¤¦à¤§": 6002,
      "Ġà¤Łà¤Ĺ": 6003,
      "à¥¬à¥ª": 6004,
      "Ġà¤Ĳà¤¡à¤ĳà¤¨": 6005,
      "Ġà¤¹à¤Ĩ": 6006,
      "Ġà¤ľà¤¹à¤®à¤¤": 6007,
      "Ġà¤°à¤¹à¤°à¤¹": 6008,
      "Ġà¤¶à¤¬à¤°": 6009,
      "à¤ĩà¤µà¤¸": 6010,
      "Ġà¤¹à¤¡à¤ķ": 6011,
      "à¤ķà¤°à¤Ĺà¤¢": 6012,
      "à¤Ĳà¤Ĺ": 6013,
      "Ġà¤°à¤£à¤¥": 6014,
      "à¤®à¤¶à¤¤": 6015,
      "à¤ļà¤Ī": 6016,
      "Ġà¤ĸà¤¤à¤¨": 6017,
      "à¤ļà¤¹à¤°": 6018,
      "Ġà¤Ĩà¤°à¤Ī": 6019,
      "Ġà¤Ĩà¤¹à¤µ": 6020,
      "Ġà¤µà¤ľà¤ŀ": 6021,
      "à¤¤à¤²à¤¤": 6022,
      "à¤ļà¤°à¤®": 6023,
      "à¤®à¤¹à¤²": 6024,
      "à¤®à¤ľà¤Ĺà¤¤": 6025,
      "à¤·à¤£à¤®": 6026,
      "à¤ıà¤ļà¤ı": 6027,
      "à¥Ńà¥Ń": 6028,
      "Ġà¤ħà¤¨à¤µ": 6029,
      "Ġà¤Ĵà¤°": 6030,
      "Ġà¤¹à¤°à¤«": 6031,
      "Ġà¤ªà¤²à¤¤": 6032,
      "à¤Īà¤ıà¤«": 6033,
      "à¤¦à¤µà¤ª": 6034,
      "Ġà¥§à¥¨à¥¦": 6035,
      "Ġà¤ħà¤¡à¤µ": 6036,
      "à¤ļà¤Ń": 6037,
      "Ġà¤ļà¤¹à¤²à¤ķà¤¦à¤®": 6038,
      "à¤¤à¤¬à¤¦": 6039,
      "à¤¨à¤µà¤µ": 6040,
      "Ġà¤īà¤¨à¤²": 6041,
      "Ġà¤¬à¤¢à¤ķà¤°": 6042,
      "à¤²à¤¤à¤®": 6043,
      "à¤°à¤ªà¤Ł": 6044,
      "à¤µà¤ķà¤²": 6045,
      "Ġà¤ıà¤²à¤°à¤®": 6046,
      "à¤ļà¤ľà¤¨": 6047,
      "Ġà¤ķà¤¹à¤¹": 6048,
      "Ġà¤ªà¤°à¤Ń": 6049,
      "à¤¡à¤°à¤«": 6050,
      "à¤µà¤¨à¤Ī": 6051,
      "Ġà¤¬à¤¨à¤²": 6052,
      "à¤¦à¤°à¤ħà¤¸à¤²": 6053,
      "à¥ªà¥©": 6054,
      "Ġà¤¸à¤®à¤·": 6055,
      "à¤¶à¤§": 6056,
      "à¤¡à¤°à¤¤": 6057,
      "Ġà¤ĸà¤¬à¤°à¤¸": 6058,
      "à¤®à¤£à¤ľ": 6059,
      "Ġà¤ľà¤łà¤°": 6060,
      "Ġà¤¤à¤«à¤°": 6061,
      "à¤§à¤¦": 6062,
      "Ġà¤®à¤°à¤¹": 6063,
      "Ġà¤®à¤¸à¤ķ": 6064,
      "à¤¶à¤¨à¤¨": 6065,
      "à¤«à¤Ĺ": 6066,
      "à¤¯à¤®à¤²": 6067,
      "à¤²à¤Ńà¤¤": 6068,
      "Ġà¤Ĺà¤£à¤¤à¤¨": 6069,
      "à¤ħà¤°à¤µ": 6070,
      "à¤¯à¤Ĺà¤£": 6071,
      "Ġà¥¨à¥¦à¥¦à¥¦": 6072,
      "à¤īà¤¸à¤®": 6073,
      "à¤¤à¤£": 6074,
      "Ġà¤ķà¤®à¤²à¤ª": 6075,
      "à¤Ĭà¤²": 6076,
      "Ġà¤®à¤Īà¤¯": 6077,
      "Ġà¤¥à¤¨à¤¬à¤°": 6078,
      "Ġà¤¹à¤¡à¤¤": 6079,
      "à¤µà¤®à¤¸": 6080,
      "Ġà¤ļà¤¢à¤¨": 6081,
      "à¤°à¤ľà¤®à¤²": 6082,
      "à¤°à¤µà¤°à¤£": 6083,
      "à¥Ĥà¤¼": 6084,
      "à¤ªà¤¨à¤Ĺà¤°": 6085,
      "à¤¯à¤ķà¤®": 6086,
      "Ġà¤ķà¤½": 6087,
      "à¤īà¤¥à¤µ": 6088,
      "Ġà¤ªà¤Łà¤Ł": 6089,
      "à¤°à¤ªà¤¨": 6090,
      "Ġà¤Łà¤ķà¤Łà¤ķ": 6091,
      "Ġà¤¦à¤¦à¤°": 6092,
      "Ġà¤¦à¤®à¤ķ": 6093,
      "Ġà¥§à¥¬à¥¦": 6094,
      "à¤Łà¤°à¤Ĺ": 6095,
      "Ġà¤Ĺà¤ľà¤Ł": 6096,
      "à¤ĩà¤²à¤¨": 6097,
      "à¥ģà¥ħ": 6098,
      "Ġà¤µà¤Ŀ": 6099,
      "à¤¾à¤Ĥà¤Ĥ": 6100,
      "Ġà¤¸à¤®à¤¯à¤ļà¤ķ": 6101,
      "à¤¤à¤®à¤°": 6102,
      "Ġà¤ıà¤®à¤Ĩà¤Īà¤¯": 6103,
      "à¤¤à¤µà¤¨": 6104,
      "à¤´": 6105,
      "à¤ªà¤¨à¤Ĺ": 6106,
      "à¤Łà¤ķà¤ļà¤¹à¤°": 6107,
      "Ġà¤ħà¤°à¤ķ": 6108,
      "Ġà¤µà¤¨à¤®": 6109,
      "Ġà¤§à¤°à¤£": 6110,
      "à¤ıà¤¯à¤°": 6111,
      "à¤Īà¤Ĺà¤°": 6112,
      "à¥®à¥®": 6113,
      "à¤¤à¤ĵ": 6114,
      "Ġà¤Ńà¤ł": 6115,
      "à¤¨à¤ķà¤¨": 6116,
      "à¤ľà¤§à¤°": 6117,
      "à¤ľà¤¨à¤ķà¤°": 6118,
      "Ġà¤īà¤ªà¤¡": 6119,
      "Ġà¤ªà¤°à¤µà¤²": 6120,
      "à¤Łà¤ķà¤¨": 6121,
      "à¤Ľà¤ª": 6122,
      "à¤ªà¤°à¤²": 6123,
      "Ġà¤®à¤²à¤¤": 6124,
      "à¤īà¤¨à¤Ł": 6125,
      "à¤¥à¤Łà¤¬": 6126,
      "Ġà¤¸à¤¬à¤µ": 6127,
      "à¤®à¤°à¤µ": 6128,
      "Ġà¤®à¤¦à¤°à¤¬": 6129,
      "Ġà¤§à¤¨à¤¶": 6130,
      "Ġà¥ªà¥ª": 6131,
      "à¤¨à¤ķà¤²": 6132,
      "à¤¦à¤¨à¤ķà¤°": 6133,
      "Ġà¤ªà¤¸à¤®": 6134,
      "Ġà¤ªà¤Ļ": 6135,
      "Ġà¤Īà¤ıà¤®à¤¯": 6136,
      "à¥¯à¥ª": 6137,
      "à¤ıà¤¡à¤®": 6138,
      "Ġà¤ħà¤ķà¤µ": 6139,
      "Ġà¤īà¤¦à¤¬": 6140,
      "Ġà¤īà¤Ńà¤¯": 6141,
      "Ġà¤ļà¤ªà¤Ł": 6142,
      "Ġà¥§à¥®à¥¬": 6143,
      "Ġà¤ıà¤ħà¤°à¤²": 6144,
      "Ġà¤ıà¤¨à¤Īà¤ıà¤«à¤Ł": 6145,
      "à¤ĩà¤ªà¤¸": 6146,
      "Ġà¤¹à¤²à¤§à¤°": 6147,
      "à¥§à¥ªà¥Ń": 6148,
      "à¤¨à¤¥": 6149,
      "Ġà¤¸à¤°à¤§à¤¨": 6150,
      "à¤²à¤®à¤§": 6151,
      "Ġà¤¬à¤¦à¤¨à¤¸": 6152,
      "à¤£à¤ķà¤°": 6153,
      "à¤łà¤ľ": 6154,
      "Ġà¤¦à¤Ī": 6155,
      "Ġà¤ĵà¤µà¤°à¤µ": 6156,
      "à¤ıà¤®à¤Ĭ": 6157,
      "Ġà¤Ĭà¤īà¤¨": 6158,
      "à¤°à¤ªà¤²": 6159,
      "Ġà¤¦à¤¹à¤¶à¤¤à¤Ĺà¤°": 6160,
      "à¤°à¤®à¤§": 6161,
      "Ġà¤µà¤¹à¤®": 6162,
      "à¤ĩà¤¨à¤¬à¤°": 6163,
      "Ġà¤®à¤¦à¤®à¤¸": 6164,
      "Ġà¤ıà¤ļà¤Ĩà¤°à¤Ł": 6165,
      "à¤Łà¤Ľ": 6166,
      "Ġà¤ĳà¤ķà¤²": 6167,
      "Ġà¤ķà¤®à¤¶": 6168,
      "Ġà¤ħà¤°à¤ª": 6169,
      "à¥įà¤¿à¤¾": 6170,
      "à¤®à¤Ľ": 6171,
      "à¥ĭà¥¤à¥¤": 6172,
      "à¤°à¤ĸà¤§": 6173,
      "à¤²à¤®à¤¡": 6174,
      "Ġà¤ļà¤¹à¤ķà¤¤": 6175,
      "à¤Ĺà¤ĵà¤µà¤°": 6176,
      "à¤¬à¤°à¤ª": 6177,
      "à¤¹à¤°à¤®": 6178,
      "à¤®à¤¹à¤¬": 6179,
      "Ġà¤ĩà¤¸à¤¬": 6180,
      "Ġà¤ĺà¤®à¤£": 6181,
      "à¥©à¥Ń": 6182,
      "Ġà¥¥à¥¥": 6183,
      "Ġà¤ķà¤ªà¤ķ": 6184,
      "Ġà¤Ĭà¤ªà¤°à¤µ": 6185,
      "Ġà¤Ńà¤·": 6186,
      "Ġà¤¨à¤¯à¤¨à¤¤": 6187,
      "Ġà¤ĵà¤¨à¤²": 6188,
      "à¤īà¤¸à¤«": 6189,
      "à¤ľà¤°à¤µ": 6190,
      "à¤ªà¤¦à¤£": 6191,
      "Ġà¤µà¤ļ": 6192,
      "Ġà¤īà¤ĩà¤Ĺà¤°": 6193,
      "à¤¶à¤ļà¤¨": 6194,
      "Ġà¤¶à¤ļ": 6195,
      "Ġà¤µà¤¹à¤¶": 6196,
      "à¤ľà¤°à¤¬": 6197,
      "Ġà¤ħà¤¯à¤ª": 6198,
      "à¤ıà¤¸à¤¡à¤¬": 6199,
      "Ġà¤«à¤¬": 6200,
      "à¤ļà¤ľ": 6201,
      "à¤®à¤¤à¤®": 6202,
      "Ġà¤Ĭà¤²": 6203,
      "à¤¯à¤°à¤¸à¤¦à¤¸": 6204,
      "Ġà¤¹à¤ļ": 6205,
      "à¤°à¤Ĺà¤£": 6206,
      "à¤ķà¤«à¤°": 6207,
      "Ġà¤ļà¤¹à¤²à¤ªà¤¹à¤²": 6208,
      "à¤¸à¤Ĩà¤ª": 6209,
      "à¤¨à¤²à¤ķ": 6210,
      "Ġà¤ľà¤²à¤¦": 6211,
      "Ġà¤¹à¤¤à¤ª": 6212,
      "Ġà¤ıà¤®à¤ıà¤ķ": 6213,
      "à¤Ĥà¥Īà¥¤": 6214,
      "à¥Įà¥Ī": 6215,
      "Ġà¤īà¤²à¤Łà¤¨": 6216,
      "à¤¦à¤¤à¤¨": 6217,
      "Ġà¤«à¤Ĺà¤µ": 6218,
      "Ġà¤Ńà¤µà¤Ń": 6219,
      "à¤¸à¤ľà¤¨": 6220,
      "à¤ķà¤¹à¤®": 6221,
      "Ġà¤īà¤ªà¤®à¤£": 6222,
      "Ġà¤ªà¤¡à¤¨": 6223,
      "Ġà¥§à¥©à¥ª": 6224,
      "à¤µà¤ªà¤¨": 6225,
      "à¤²à¤ķà¤²": 6226,
      "à¤²à¤¬à¤ļ": 6227,
      "Ġà¤Ĭà¤¬à¤¡": 6228,
      "Ġà¤ıà¤®à¤Ĩà¤Īà¤ıà¤²à¤ı": 6229,
      "Ġà¤²à¤Ń": 6230,
      "à¤®à¤¨à¤¦": 6231,
      "Ġà¤ªà¤°à¤ĸà¤ļ": 6232,
      "à¤°à¤¨à¤ķ": 6233,
      "Ġà¤ħà¤²à¤«": 6234,
      "à¤µà¤¶à¤¯à¤¨": 6235,
      "Ġà¤°à¤°": 6236,
      "Ġà¤ĵà¤Ī": 6237,
      "à¥®à¥ª": 6238,
      "à¥®à¥©": 6239,
      "Ġà¤ĵà¤£à¤®": 6240,
      "à¤Ĩà¤«": 6241,
      "à¤ļà¤¬à¤ļ": 6242,
      "Ġà¤¯à¤ľà¤®": 6243,
      "à¤°à¤¸à¤Ń": 6244,
      "Ġà¤Ľà¤¹à¤Ľà¤¹": 6245,
      "Ġà¤ļà¤¹à¤ļà¤¹": 6246,
      "Ġà¤¨à¤Ĺà¤®": 6247,
      "Ġà¤ľà¤«": 6248,
      "Ġà¤ıà¤ĸ": 6249,
      "à¤·à¤£à¤¸": 6250,
      "à¤¸à¤¸à¤¸": 6251,
      "Ġà¤ķà¤¨à¤ªà¤Ł": 6252,
      "à¤Łà¤°à¤ļ": 6253,
      "à¤²à¤ľà¤®": 6254,
      "à¥«à¥¯": 6255,
      "Ġà¤ħà¤Łà¤²à¤ľ": 6256,
      "à¤¥à¤ķà¤µ": 6257,
      "Ġà¥©à¥§à¥®": 6258,
      "Ġà¤ªà¤²à¤¨": 6259,
      "Ġà¤¦à¤Ń": 6260,
      "à¤ħà¤ľà¤¯": 6261,
      "Ġà¤¸à¤ł": 6262,
      "à¤¤à¤¨à¤®à¤¨à¤¨": 6263,
      "Ġà¤ıà¤ľà¤°": 6264,
      "Ġà¤ľà¤¨à¤ķà¤°": 6265,
      "Ġà¤®à¤ī": 6266,
      "à¤Ĺà¤£à¤ªà¤¤": 6267,
      "à¤Īà¤¬à¤°": 6268,
      "Ġà¤Łà¤ķà¤¸": 6269,
      "à¤¨à¤ľà¤¡": 6270,
      "à¤°à¤µà¤¹": 6271,
      "à¤Ńà¤ľ": 6272,
      "Ġà¤ıà¤®à¤ıà¤®à¤ı": 6273,
      "à¤ıà¤¸à¤¨": 6274,
      "Ġà¤ıà¤°à¤°": 6275,
      "Ġà¤ĵà¤³": 6276,
      "à¤¸à¤Ĩà¤°à¤ª": 6277,
      "Ġà¤Ĳà¤¡à¤®": 6278,
      "Ġà¤ħà¤ªà¤¹à¤°à¤£à¤ķà¤°": 6279,
      "Ġà¤Īà¤ıà¤®": 6280,
      "Ġà¤ıà¤¤à¤¦": 6281,
      "Ġà¥ªà¥¬": 6282,
      "Ġà¤®à¤ķà¤µ": 6283,
      "à¤µà¤¸à¤µ": 6284,
      "à¤¨à¤µà¤¶": 6285,
      "Ġà¤Ĩà¤¹à¤°à¤£": 6286,
      "Ġà¤¹à¤¥à¤ķà¤¡": 6287,
      "à¤¦à¤¬à¤¦": 6288,
      "Ġà¤ķà¤¨à¤ĸà¤ľ": 6289,
      "à¤ľà¤ĩ": 6290,
      "à¤ľà¤¹à¤°": 6291,
      "à¤µà¤¨à¤¹à¤°": 6292,
      "à¥®à¥¨": 6293,
      "à¤¨à¤¦à¤°": 6294,
      "Ġà¤°à¤¸à¤®": 6295,
      "à¤¬à¤¯": 6296,
      "Ġà¤¹à¤°à¤®à¤¨": 6297,
      "à¤ıà¤ļà¤¬": 6298,
      "à¥¦à¥¦à¥§": 6299,
      "à¤ĸà¤Ĺ": 6300,
      "Ġà¤īà¤¸à¤ª": 6301,
      "à¥®à¥¬": 6302,
      "Ġà¤¤à¤Łà¤µà¤°": 6303,
      "à¤µà¤ľà¤µ": 6304,
      "à¤¤à¤²à¤¬": 6305,
      "à¤¹à¤¤à¤¬à¤ļ": 6306,
      "à¤¤à¤ªà¤¤": 6307,
      "à¤Łà¤°à¤¹": 6308,
      "à¤µà¤¤à¤°": 6309,
      "Ġà¤®à¤ľà¤®": 6310,
      "à¤µà¤®à¤¹": 6311,
      "à¤¯à¤®à¤Ĺ": 6312,
      "à¥®à¥¯": 6313,
      "Ġà¤¸à¤®à¤§": 6314,
      "à¤ªà¤°à¤Ĺ": 6315,
      "Ġà¤¹à¤¥à¤Ĺ": 6316,
      "à¤¤à¤Ĺà¤µà¤¨à¤Ī": 6317,
      "Ġà¥§à¥¨à¥¨": 6318,
      "à¤ĩà¤¸à¤°": 6319,
      "Ġà¤ıà¤¸à¤ıà¤®à¤¬": 6320,
      "Ġà¤ıà¤ıà¤®à¤¸": 6321,
      "Ġà¤«à¤ĸ": 6322,
      "à¤¯à¤¨à¤¸": 6323,
      "Ġà¤Ĩà¤Ĺà¤¯": 6324,
      "à¤ĩà¤¡à¤¶": 6325,
      "Ġà¤īà¤Ńà¤¯à¤²": 6326,
      "Ġà¤ªà¤ļà¤¤": 6327,
      "Ġà¤Łà¤ªà¤ķà¤¨": 6328,
      "à¤®à¤¡à¤¨": 6329,
      "Ġà¤¦à¤¬à¤ķà¤°": 6330,
      "Ġà¤¸à¤¹à¤ħà¤¸": 6331,
      "Ġà¥§à¥®à¥¦": 6332,
      "Ġà¤¬à¤¦à¤¹à¤µ": 6333,
      "Ġà¤ĳà¤²à¤¨": 6334,
      "Ġà¤§à¤¯": 6335,
      "Ġà¤¦à¤²à¤µ": 6336,
      "Ġà¤®à¤²à¤ĸ": 6337,
      "à¤¡à¤ªà¤®": 6338,
      "Ġà¤ĸà¤ªà¤°": 6339,
      "à¤¦à¤ı": 6340,
      "Ġà¤¦à¤ħà¤«": 6341,
      "à¤¶à¤ħà¤ª": 6342,
      "à¤µà¤°à¤Ń": 6343,
      "Ġà¤ľà¤¸à¤°": 6344,
      "Ġà¤¶à¤Ł": 6345,
      "à¤«à¤ª": 6346,
      "Ġà¤§à¤¨à¤¸à¤®": 6347,
      "à¤¦à¤Ī": 6348,
      "Ġà¤Ĩà¤Īà¤ıà¤¸à¤ıà¤¸": 6349,
      "Ġà¤®à¤¸à¤ľ": 6350,
      "Ġà¤įà¤«": 6351,
      "à¤ħà¤²à¤¸": 6352,
      "à¥ªà¥¬": 6353,
      "à¥Ĩà¤Ĥ": 6354,
      "à¤Ĺà¤ħà¤²": 6355,
      "Ġà¤Ĩà¤µà¤§": 6356,
      "Ġà¤°à¤£à¤Ń": 6357,
      "à¤ıà¤ļà¤ķ": 6358,
      "Ġà¤Ĺà¤Ĺ": 6359,
      "Ġà¤¸à¤Ļ": 6360,
      "à¤Łà¤°à¤ľ": 6361,
      "Ġà¤¤à¤°à¤¤": 6362,
      "Ġà¤ĳà¤¨à¤¬": 6363,
      "à¥įà¥¥": 6364,
      "Ġà¤ıà¤¨à¤²": 6365,
      "Ġà¤®à¤ķà¤¬": 6366,
      "à¤¯à¤¸à¤²": 6367,
      "Ġà¤ĩà¤ķà¤¤": 6368,
      "Ġà¤ķà¤²à¤Ī": 6369,
      "à¤®à¤¯à¤¤": 6370,
      "à¤Ĺà¤ı": 6371,
      "Ġà¤ıà¤¥à¤°": 6372,
      "Ġà¤¡à¤®à¤°": 6373,
      "à¤ľà¤¸à¤®à¤¨": 6374,
      "Ġà¤Ńà¤µà¤¤": 6375,
      "à¤Ńà¤¬": 6376,
      "à¤ļà¤®à¤¹": 6377,
      "à¤§à¤¹": 6378,
      "Ġà¤ıà¤ķà¤Łà¤ķ": 6379,
      "à¤ľà¤ªà¤¯": 6380,
      "Ġà¤Ĩà¤Īà¤ıà¤¸à¤ıà¤ļ": 6381,
      "à¤¶à¤¤à¤ķ": 6382,
      "Ġà¤ħà¤Ĭà¤°": 6383,
      "Ġà¤Ĭà¤ª": 6384,
      "à¤ľà¤¸à¤¤": 6385,
      "à¤¯à¤°à¤ķà¤Ł": 6386,
      "à¤ľà¤¨à¤ľ": 6387,
      "Ġà¥ĭ": 6388,
      "à¤°à¤µà¤®à¤¯": 6389,
      "Ġà¤Ĭà¤Ĭ": 6390,
      "Ġà¤ıà¤®à¤ıà¤®à¤ıà¤¸": 6391,
      "Ġà¤Ńà¤°à¤¤à¤¨": 6392,
      "à¤ıà¤ıà¤²": 6393,
      "Ġà¤¸à¤°à¤ļ": 6394,
      "Ġà¤ħà¤µà¤¦": 6395,
      "à¤¡à¤²à¤¸": 6396,
      "à¤¸à¤¸à¤¬à¤ķ": 6397,
      "Ġà¤¨à¤°à¤¹": 6398,
      "Ġà¤ħà¤¨à¤Ļ": 6399,
      "Ġà¤®à¤Ĭà¤°": 6400,
      "Ġà¤Ĩà¤¡à¤®": 6401,
      "Ġà¤Ĩà¤ĩà¤µ": 6402,
      "Ġà¤¡à¤«": 6403,
      "Ġà¤ħà¤¨à¤¸à¤¬": 6404,
      "à¤®à¤¨à¤ķ": 6405,
      "Ġà¤Īà¤¯à¤°à¤ª": 6406,
      "à¤®à¤£à¤¦": 6407,
      "Ġà¤ľà¤£": 6408,
      "à¤Ĩà¤ľà¤ķà¤²": 6409,
      "Ġà¤¦à¤ª": 6410,
      "à¤®à¤¨à¤ª": 6411,
      "Ġà¤ªà¤·": 6412,
      "à¤Ĩà¤°à¤¯": 6413,
      "Ġà¤¸à¤®à¤ļà¤°à¤¨": 6414,
      "Ġà¤ıà¤¨à¤Ĩà¤Ī": 6415,
      "Ġà¤īà¤Ĺà¤²à¤¨": 6416,
      "à¤ªà¤®à¤¤": 6417,
      "à¤ķà¤Łà¤Ĺ": 6418,
      "à¥ªà¥¨": 6419,
      "à¤ĸà¤¦à¤¤": 6420,
      "Ġà¤¹à¤®à¤¦": 6421,
      "Ġà¤ľà¤¨à¤®à¤¨": 6422,
      "à¤¶à¤¬à¤ļà¤¤": 6423,
      "à¤īà¤¡à¤«": 6424,
      "à¤¨à¤®à¤¤": 6425,
      "Ġà¤¯à¤·": 6426,
      "Ġà¤īà¤ªà¤ĸà¤£": 6427,
      "à¤¶à¤¨à¤ĸ": 6428,
      "à¤¸à¤®à¤µ": 6429,
      "Ġà¤ªà¤¥à¤°à¤Ĺ": 6430,
      "Ġà¤Ĭà¤§": 6431,
      "à¤¦à¤µà¤ķ": 6432,
      "Ġà¤¨à¤Łà¤µà¤°": 6433,
      "à¤¹à¤°à¤ĸ": 6434,
      "Ġà¤·à¤£": 6435,
      "à¤Īà¤ħà¤Ĺà¤¸": 6436,
      "à¤Łà¤ľà¤°à¤²": 6437,
      "à¤®à¤Ĩà¤¸": 6438,
      "Ġà¤ķà¤¡à¤ª": 6439,
      "à¤ĸà¤«": 6440,
      "Ġà¤ĺà¤¨à¤¸": 6441,
      "Ġà¤µà¤ļà¤¨à¤¬à¤¦": 6442,
      "Ġà¤ĸà¤°à¤®": 6443,
      "à¤Ńà¤µà¤¹": 6444,
      "Ġà¥§à¥«à¥¨": 6445,
      "à¤¦à¤µà¤¸": 6446,
      "Ġà¤Ĩà¤¶à¤¨": 6447,
      "Ġà¤ıà¤¸à¤Īà¤ª": 6448,
      "Ġà¤īà¤¦à¤Ĺà¤®": 6449,
      "Ġà¤ķà¤ľà¤²": 6450,
      "Ġà¤ľà¤ł": 6451,
      "Ġà¤Ĺà¤Ĺà¤¨à¤ļ": 6452,
      "Ġà¤¹à¤°à¤«à¤¨à¤®": 6453,
      "à¤¢à¤°": 6454,
      "Ġà¤ħà¤²à¤¹": 6455,
      "Ġà¤ıà¤¸à¤Ĩà¤Īà¤ª": 6456,
      "Ġà¤īà¤ľà¤¬": 6457,
      "à¤°à¤¤à¤ķà¤¨": 6458,
      "à¤²à¤¦à¤°à¤¸": 6459,
      "Ġà¤®à¤®à¤Ĺ": 6460,
      "Ġà¤¹à¤ľà¤°à¤¤à¤Ĺ": 6461,
      "à¤¸à¤Ĩà¤°": 6462,
      "à¤ªà¤°à¤°": 6463,
      "à¤¯à¤¨à¤²": 6464,
      "Ġà¤ķà¤²à¤ķà¤²": 6465,
      "à¤²à¤ķà¤¬": 6466,
      "Ġà¤®à¤°à¤ķà¤°": 6467,
      "Ġà¥¯à¥¬": 6468,
      "à¤Ĺà¤²à¤ĸ": 6469,
      "à¤¤à¤ĸà¤£": 6470,
      "à¥¦à¥¬": 6471,
      "Ġà¤Īà¤¹": 6472,
      "Ġà¤¡à¤Ĺà¤²à¤¸": 6473,
      "Ġà¤Ĩà¤°à¤ıà¤®à¤¸": 6474,
      "à¤µà¤¤à¤ª": 6475,
      "à¤ľà¤²à¤ķ": 6476,
      "Ġà¤ıà¤Łà¤²à¤¸": 6477,
      "à¤ľà¤¡à¤®": 6478,
      "Ġà¤¶à¤°à¤µà¤°": 6479,
      "à¥«à¥ª": 6480,
      "à¤·à¤·": 6481,
      "à¤ļà¤µà¤¡": 6482,
      "Ġà¤ĵà¤ªà¤²": 6483,
      "Ġà¤¬à¤¸à¤µà¤°": 6484,
      "à¤ļà¤¢à¤ķ": 6485,
      "Ġà¤ıà¤ķà¤¸à¤®": 6486,
      "Ġà¤ķà¤Łà¤ķà¤°": 6487,
      "Ġà¤ķà¤°à¤£à¤¸": 6488,
      "à¤ıà¤¨à¤Ĩà¤°": 6489,
      "à¤¨à¤°à¤®": 6490,
      "Ġà¤ıà¤ļà¤µ": 6491,
      "Ġà¤Ŀà¤¨à¤Ŀà¤¨": 6492,
      "à¤¡à¤µà¤¤": 6493,
      "Ġà¤ıà¤ıà¤«à¤¸": 6494,
      "à¤¿à¤Ĥà¤Ĥ": 6495,
      "Ġà¤¹à¤¹": 6496,
      "Ġà¤°à¤ª": 6497,
      "à¥ĭà¤¼": 6498,
      "à¤¸à¤¨à¤¬": 6499,
      "Ġà¤ĵà¤¤": 6500,
      "à¥Ńà¥¯": 6501,
      "Ġà¤¤à¤Łà¤¬à¤¨": 6502,
      "Ġà¤Ĩà¤¬à¤°": 6503,
      "Ġà¤¶à¤²à¤ľà¤®": 6504,
      "à¤īà¤§": 6505,
      "à¤¤à¤ªà¤°": 6506,
      "à¤ıà¤Łà¤¸": 6507,
      "à¤¦à¤¨à¤ª": 6508,
      "à¤ķà¤ıà¤®": 6509,
      "à¤¾à¤Ĥà¤ģ": 6510,
      "à¤¿à¥¤à¥¤": 6511,
      "à¤ªà¤²à¤ķ": 6512,
      "à¤ªà¤Ĩà¤°": 6513,
      "à¤Ĺà¤ªà¤Ł": 6514,
      "à¤ļà¤²à¤ķ": 6515,
      "à¤ĵà¤¹": 6516,
      "Ġà¤Ĳà¤ªà¤²": 6517,
      "à¤ªà¤°à¤¸à¤¬": 6518,
      "Ġà¤¸à¤®à¤®": 6519,
      "Ġà¤ħà¤²à¤¨": 6520,
      "Ġà¤ħà¤¨à¤Ł": 6521,
      "Ġà¤ľà¤¯à¤ľà¤¯à¤ķ": 6522,
      "à¤²à¤Ĺà¤°": 6523,
      "à¥Īà¥Īà¤Ĥ": 6524,
      "Ġà¤¸à¤¤à¤®": 6525,
      "à¤Ĺà¤łà¤¨à¤¦": 6526,
      "à¤¸à¤¤à¤°à¤²": 6527,
      "à¥¦à¥®": 6528,
      "à¤²à¤ªà¤®": 6529,
      "Ġà¤ıà¤ıà¤®à¤ıà¤²": 6530,
      "à¤ķà¤°à¤ľ": 6531,
      "Ġà¤§à¤¨à¤ķ": 6532,
      "à¤²à¤¹à¤¸": 6533,
      "à¤¸à¤¦à¤¸": 6534,
      "Ġà¤ľà¤¨à¤²": 6535,
      "à¤¯à¤¨à¤ª": 6536,
      "Ġà¤ħà¤ªà¤¨à¤¤": 6537,
      "à¥¦à¥ª": 6538,
      "à¤ıà¤²à¤Ĩà¤Ī": 6539,
      "à¤¹à¤ļà¤°": 6540,
      "à¤µà¤°à¤ľ": 6541,
      "Ġà¤ķà¤²à¤®à¤ķ": 6542,
      "à¤ıà¤«à¤ľ": 6543,
      "à¤µà¤¨à¤¦à¤°": 6544,
      "à¤°à¤Ķà¤°": 6545,
      "à¤®à¤®à¤¯": 6546,
      "à¤ļà¤¸à¤®à¤Ŀ": 6547,
      "Ġà¤ĳà¤²à¤Ĩà¤īà¤Ł": 6548,
      "à¤¯à¤ļà¤°": 6549,
      "Ġà¤ªà¤Ĺà¤ª": 6550,
      "Ġà¤¬à¤¡à¤ĸ": 6551,
      "Ġà¤µà¤¸à¤Ī": 6552,
      "Ġà¤¦à¤¸à¤¬": 6553,
      "Ġà¤°à¤¤à¤¨à¤Ĺà¤¢": 6554,
      "à¤Ĥà¥Ī": 6555,
      "à¤ıà¤¸à¤Ĩà¤§": 6556,
      "Ġà¤ĩà¤¨à¤Ł": 6557,
      "Ġà¤Ĭà¤ĸ": 6558,
      "à¤ıà¤ļà¤ıà¤®": 6559,
      "à¥Ńà¥©": 6560,
      "à¤µà¤ķà¤°à¤£": 6561,
      "à¤Ĺà¤¨à¤°": 6562,
      "à¤ļà¤°à¤¤": 6563,
      "Ġà¤¨à¤¯à¤¤": 6564,
      "Ġà¥¨à¥¦à¥¦à¥ª": 6565,
      "à¤¶à¤°à¤¤": 6566,
      "Ġà¤§à¤®à¤¦": 6567,
      "à¤ıà¤¨à¤ıà¤²à¤¡": 6568,
      "à¥ĩà¤Ĥà¤ĥ": 6569,
      "Ġà¤¶à¤Ĺà¤²": 6570,
      "à¤Ĩà¤Ł": 6571,
      "Ġà¤Īà¤Ī": 6572,
      "Ġà¤ĸà¤Łà¤Łà¤°": 6573,
      "Ġà¤ĸà¤¸à¤ĸà¤¸": 6574,
      "à¤Ńà¤²à¤¨": 6575,
      "Ġà¤ħà¤°à¤¨": 6576,
      "Ġà¤Ĩà¤Īà¤ıà¤¨à¤ıà¤²à¤¡": 6577,
      "Ġà¥¨à¥¦à¥¦à¥©": 6578,
      "à¤¯à¤¤à¤īà¤²": 6579,
      "à¤µà¤¬à¤°": 6580,
      "Ġà¤®à¤¦à¤°à¤¹": 6581,
      "à¤°à¤Ĺà¤®": 6582,
      "à¤ıà¤¨à¤ıà¤®à¤¯": 6583,
      "à¤ĺà¤Łà¤ķ": 6584,
      "Ġà¤¶à¤ķà¤°": 6585,
      "à¤¹à¤°à¤¸": 6586,
      "à¤µà¤¨à¤ªà¤°": 6587,
      "à¤ªà¤£à¤ĸ": 6588,
      "Ġà¤īà¤¶": 6589,
      "Ġà¤ıà¤«à¤ıà¤Ł": 6590,
      "à¥Īà¥Īà¥¤": 6591,
      "à¤«à¤«": 6592,
      "à¤°à¤ªà¤¹": 6593,
      "Ġà¤ªà¤Ĺà¤ªà¤Ĺ": 6594,
      "à¤ľà¤¯à¤¶": 6595,
      "à¥ĥà¥į": 6596,
      "à¤²à¤µà¤ķ": 6597,
      "Ġà¤Ĳà¤Ĺ": 6598,
      "à¤ļà¤¨à¤¤": 6599,
      "Ġà¤ľà¤Ĺà¤¤à¤Ĺ": 6600,
      "Ġà¤Ĩà¤Īà¤¶": 6601,
      "à¤µà¤²à¤¨à¤¶": 6602,
      "à¤ªà¤¨à¤¡": 6603,
      "Ġà¤Ĳà¤Ń": 6604,
      "Ġà¤ħà¤¹à¤°à¤µ": 6605,
      "à¤łà¤£": 6606,
      "Ġà¤¨à¤µà¤Ĺà¤ł": 6607,
      "à¤¨à¤Ĩà¤Īà¤Ł": 6608,
      "Ġà¤¹à¤¸à¤°": 6609,
      "Ġà¤¬à¤²à¤®": 6610,
      "à¤īà¤¨à¤®": 6611,
      "Ġà¤ķà¤µà¤°à¤°": 6612,
      "à¤ķà¤ıà¤¡": 6613,
      "Ġà¤®à¤²à¤µ": 6614,
      "Ġà¤¢à¤¹à¤¨": 6615,
      "Ġà¤¹à¤®à¤ľ": 6616,
      "Ġà¤ªà¤¡à¤©": 6617,
      "à¤¯à¤£à¤®": 6618,
      "Ġà¤Ĺà¤Ĺà¤¨à¤¯": 6619,
      "Ġà¤ĸà¤Ĺà¤°": 6620,
      "Ġà¤ĳà¤¨à¤¡": 6621,
      "à¤¨à¤ħ": 6622,
      "à¤·à¤¦à¤ª": 6623,
      "Ġà¤«à¤²à¤¬": 6624,
      "Ġà¤ħà¤§à¤®": 6625,
      "Ġà¤ıà¤¨à¤Ĩà¤Īà¤¯": 6626,
      "à¤ľà¤Ĩà¤°": 6627,
      "Ġà¤Ķà¤µ": 6628,
      "à¤°à¤®à¤Ĺ": 6629,
      "à¤°à¤ªà¤°à¤ķ": 6630,
      "Ġà¤²à¤Ļ": 6631,
      "Ġà¤ľà¤¯à¤ļ": 6632,
      "Ġà¥¨à¥¦à¥¦à¥«": 6633,
      "Ġà¥§à¥®à¥¯": 6634,
      "Ġà¤¦à¤ľ": 6635,
      "à¤Łà¤°à¤Ĩ": 6636,
      "Ġà¤¬à¤Ń": 6637,
      "Ġà¤ĩà¤¦à¤°": 6638,
      "Ġà¤ıà¤ķà¤µà¤ļà¤¨": 6639,
      "Ġà¤Ĳà¤¶à¤²": 6640,
      "Ġà¤®à¤¨à¤¹à¤µ": 6641,
      "Ġà¤ıà¤¸à¤ĵà¤ıà¤¸": 6642,
      "à¤¨à¤Ĩà¤§": 6643,
      "à¤¨à¤īà¤ļ": 6644,
      "à¤ĩà¤¡à¤Ĩà¤īà¤Ł": 6645,
      "à¥ªà¥§": 6646,
      "à¤Ĺà¤«à¤¨": 6647,
      "Ġà¤¸à¤ľà¤¦": 6648,
      "à¤Łà¤ĺ": 6649,
      "Ġà¤Ĺà¤¦à¤ª": 6650,
      "Ġà¤ĩà¤łà¤²": 6651,
      "Ġà¤ħà¤¨à¤¹à¤¦": 6652,
      "à¤Ķà¤°à¤°": 6653,
      "à¥¬à¥«": 6654,
      "Ġà¤Īà¤ĸ": 6655,
      "à¤ĺà¤Łà¤¨à¤ķ": 6656,
      "Ġà¥§à¥§à¥¨": 6657,
      "à¤°à¤£à¤ķà¤ķ": 6658,
      "Ġà¤§à¤¨à¤ª": 6659,
      "Ġà¥§à¥«à¥¦": 6660,
      "à¥Ķ": 6661,
      "à¤ĸà¤°à¤¯": 6662,
      "Ġà¤¬à¤Łà¤°à¤¬": 6663,
      "à¤¸à¤ªà¤¨": 6664,
      "Ġà¤¬à¤Ŀ": 6665,
      "à¤Īà¤Ńà¤¤": 6666,
      "Ġà¤ĩà¤¸à¤ª": 6667,
      "Ġà¤ľà¤Ĺà¤®à¤¤": 6668,
      "Ġà¤Ķà¤§": 6669,
      "Ġà¤ħà¤¨à¤®à¤¨": 6670,
      "Ġà¤Ńà¤Ĺà¤¶": 6671,
      "à¤ķà¤Ĩà¤§": 6672,
      "Ġà¤Ĩà¤ĩà¤Ĩà¤°à¤ıà¤¸": 6673,
      "à¤¿à¥Ī": 6674,
      "Ġà¤ķà¤¹à¤²à¤µ": 6675,
      "Ġà¤®à¤ļà¤¨": 6676,
      "Ġà¤²à¤Ī": 6677,
      "à¤¥à¤°à¤¤": 6678,
      "Ġà¤ħà¤ľà¤°à¤¬": 6679,
      "à¤ľà¤ªà¤¹à¤²": 6680,
      "à¤ĩà¤¨à¤¡": 6681,
      "à¤¨à¤ıà¤ķ": 6682,
      "à¤Ńà¤Ĺà¤¢": 6683,
      "à¤¸à¤ķà¤ª": 6684,
      "Ġà¥¨à¥¦à¥§": 6685,
      "Ġà¤«à¤ļ": 6686,
      "à¥®à¥Ń": 6687,
      "à¤łà¤®à¤¨": 6688,
      "Ġà¤¸à¤°à¤¦à¤°": 6689,
      "à¤²à¤ªà¤Ł": 6690,
      "à¤¸à¤²à¤ķà¤°": 6691,
      "Ġà¤ļà¤ªà¤²": 6692,
      "Ġà¤¹à¤°à¤«à¤²": 6693,
      "Ġà¤ªà¤¬à¤¸": 6694,
      "Ġà¤¬à¤¡à¤µ": 6695,
      "Ġà¤¬à¤²à¤¶": 6696,
      "à¤®à¤ı": 6697,
      "Ġà¤¬à¤Łà¤²": 6698,
      "Ġà¤Ĩà¤°à¤ıà¤¨": 6699,
      "à¤Łà¤ĵà¤µ": 6700,
      "Ġà¤Ĺà¤¹à¤²à¤¬": 6701,
      "Ġà¤ıà¤¨à¤ıà¤«à¤¸": 6702,
      "Ġà¤Ĩà¤ĩà¤Ĩà¤ĩà¤Ł": 6703,
      "à¥§à¥¦à¥¨": 6704,
      "Ġà¤ıà¤«à¤Ĩà¤Īà¤ıà¤ļ": 6705,
      "à¤ļà¤²à¤Ľ": 6706,
      "à¤¬à¤Ĩà¤¤": 6707,
      "à¤¤à¤°à¤Ĩà¤§": 6708,
      "Ġà¤īà¤²à¤®": 6709,
      "Ġà¤ıà¤ļà¤ķ": 6710,
      "Ġà¤¸à¤ľà¤¤": 6711,
      "à¤®à¤ªà¤¬": 6712,
      "Ġà¤¬à¤¢à¤ĸ": 6713,
      "à¤¸à¤¬à¤¬": 6714,
      "Ġà¥©à¥Ń": 6715,
      "Ġà¤²à¤ĸà¤®": 6716,
      "Ġà¤¦à¤®à¤Ĺ": 6717,
      "Ġà¤²à¤¡à¤¨": 6718,
      "Ġà¤ªà¤²à¤µà¤²à¤ħà¤²": 6719,
      "à¤²à¤īà¤¦à¤¯": 6720,
      "Ġà¤Łà¤°à¤¬": 6721,
      "Ġà¤®à¤ļà¤²à¤¨": 6722,
      "Ġà¤ĸà¤Łà¤ķà¤¤": 6723,
      "à¤¤à¤ıà¤®à¤ıà¤²à¤ı": 6724,
      "à¤Łà¤ħà¤¨": 6725,
      "Ġà¤¨à¤ļà¤¨": 6726,
      "à¤Īà¤¸à¤µ": 6727,
      "à¤¶à¤¨à¤ªà¤²à¤µà¤²": 6728,
      "Ġà¤ªà¤²à¤µà¤²à¤¸": 6729,
      "à¤²à¤Ĺà¤Ńà¤Ĺà¤¢": 6730,
      "Ġà¤ħà¤ķà¤°à¤®à¤®": 6731,
      "à¤¸à¤ħà¤¨à¤ĩ": 6732,
      "Ġà¤°à¤ĵ": 6733,
      "Ġà¤ĩà¤Ń": 6734,
      "à¤²à¤ľà¤Ĺà¤ľ": 6735,
      "Ġà¤ªà¤²à¤µà¤²à¤¬": 6736,
      "Ġà¤ıà¤¨à¤ıà¤¸à¤ıà¤¸à¤¶": 6737,
      "à¤¤à¤Ĺà¤°": 6738,
      "à¤¤à¤²à¤®": 6739,
      "Ġà¤¸à¤«à¤²à¤¶": 6740,
      "Ġà¤Ĺà¤²à¤¤à¤ıà¤¡à¤®": 6741,
      "Ġà¤ªà¤²à¤µà¤²à¤ħà¤¸": 6742,
      "à¤ıà¤²à¤ıà¤®à¤ªà¤¬": 6743,
      "à¤ŀà¤µà¤²": 6744,
      "à¤¤à¤°à¤Ĺ": 6745,
      "Ġà¤¦à¤·": 6746,
      "Ġà¤ħà¤¹à¤¹à¤¹": 6747,
      "à¥«à¥¨": 6748,
      "à¤¨à¤·": 6749,
      "à¤ķà¤§à¤°": 6750,
      "à¤²à¤ķà¤£": 6751,
      "Ġà¥Ģ": 6752,
      "à¥ªà¥¯": 6753,
      "Ġà¤¥à¤ķà¤¨": 6754,
      "à¤°à¤¯à¤µ": 6755,
      "à¤Ķà¤·à¤§": 6756,
      "Ġà¤īà¤Ľà¤²à¤¨": 6757,
      "à¤ľà¤¯à¤²à¤ķ": 6758,
      "à¤Ĺà¤µà¤¸": 6759,
      "Ġà¤¶à¤µà¤¯": 6760,
      "Ġà¤Ľà¤Ĺà¤¨": 6761,
      "à¤¤à¤¨à¤Ń": 6762,
      "à¤²à¤ķà¤¥": 6763,
      "Ġà¤ıà¤®à¤¯": 6764,
      "à¥®à¥§": 6765,
      "à¤°à¤¯à¤£": 6766,
      "Ġà¤¸à¤¨à¤¬": 6767,
      "à¤ĺà¤µà¤¨": 6768,
      "Ġà¤°à¤£à¤¥à¤®": 6769,
      "Ġà¤¬à¤¡à¤Ĺ": 6770,
      "à¤īà¤¨à¤¹": 6771,
      "à¤¨à¤Ĺà¤°à¤ª": 6772,
      "Ġà¤Ľà¤²à¤ķà¤¤": 6773,
      "Ġà¤Ĩà¤³": 6774,
      "à¤ĩà¤£": 6775,
      "à¤Ĺà¤¨à¤²": 6776,
      "à¥¦à¥Ń": 6777,
      "à¤Łà¤ļà¤°": 6778,
      "à¤°à¤¨à¤Ł": 6779,
      "Ġà¤ħà¤®à¤¨à¤¦": 6780,
      "Ġà¤ĵà¤¦": 6781,
      "Ġà¤§à¤ķà¤§à¤ķ": 6782,
      "à¤ħà¤«à¤Ĺ": 6783,
      "à¤°à¤Ĩà¤ľ": 6784,
      "Ġà¤ķà¤¤à¤²": 6785,
      "Ġà¤¡à¤°à¤¬à¤¨": 6786,
      "à¤Ľà¤°à¤¦": 6787,
      "à¤²à¤¯à¤¸": 6788,
      "Ġà¤¶à¤ķà¤¤": 6789,
      "à¥¦à¥«": 6790,
      "à¤Ĩà¤ħ": 6791,
      "Ġà¤ĩà¤¨à¤Ĳà¤ª": 6792,
      "Ġà¤Ĩà¤°à¤ıà¤®": 6793,
      "à¤¯à¤ªà¤¤": 6794,
      "Ġà¤®à¤¡à¤Ĺ": 6795,
      "à¤Łà¤°à¤µà¤²": 6796,
      "à¤ļà¤®à¤¸": 6797,
      "à¤¨à¤ħà¤ª": 6798,
      "à¤²à¤§à¤¨": 6799,
      "Ġà¤µà¤·": 6800,
      "à¤µà¤°à¤¥": 6801,
      "Ġà¤¤à¤²à¤Ľà¤Ł": 6802,
      "Ġà¤¸à¤°à¤ªà¤°à¤¸": 6803,
      "à¤¤à¤¬à¤°": 6804,
      "Ġà¤Ĺà¤¡à¤µ": 6805,
      "à¤µà¤®à¤¨": 6806,
      "Ġà¤ħà¤¸à¤«": 6807,
      "Ġà¤ıà¤ļà¤ľ": 6808,
      "Ġà¤Ĺà¤²à¤Ĺà¤²": 6809,
      "à¤°à¤ķà¤¶à¤¨": 6810,
      "Ġà¤īà¤ªà¤ķà¤°": 6811,
      "à¤ľà¤Ĺà¤£": 6812,
      "à¥¬à¥®": 6813,
      "à¤¸à¤ĵà¤µà¤°": 6814,
      "à¤Ĭà¤ªà¤°": 6815,
      "Ġà¤ıà¤¦": 6816,
      "à¤§à¤ªà¤°à¤ķ": 6817,
      "à¤®à¤ľà¤ª": 6818,
      "à¤¯à¤°à¤ļ": 6819,
      "à¤ªà¤°à¤¦": 6820,
      "à¤¬à¤Ĺà¤²": 6821,
      "à¤Īà¤Ŀà¤Ĺà¤¡": 6822,
      "à¤ĳà¤¡": 6823,
      "à¥¬à¥©": 6824,
      "Ġà¤ķà¤ļà¤¨": 6825,
      "à¤ķà¤ĳà¤«": 6826,
      "à¤·à¤¤à¤µ": 6827,
      "à¤¸à¤ıà¤¨": 6828,
      "Ġà¤¸à¤®à¤µà¤°": 6829,
      "à¤ħà¤µà¤§": 6830,
      "à¥¦à¥¨": 6831,
      "Ġà¤Ĩà¤°à¤¹": 6832,
      "à¥īà¤¼": 6833,
      "Ġà¤īà¤¦à¤¦": 6834,
      "Ġà¤¸à¤¨à¤¬à¤°": 6835,
      "Ġà¤Ńà¤°à¤¦": 6836,
      "Ġà¤įà¤ķ": 6837,
      "à¤īà¤¸à¤¸": 6838,
      "Ġà¤ļà¤ķà¤Ī": 6839,
      "à¥¯à¥¨": 6840,
      "Ġà¤ħà¤²à¤µà¤£": 6841,
      "à¤Ľà¤®": 6842,
      "Ġà¤ľà¤¯à¤¹": 6843,
      "à¤°à¤¤à¤¸": 6844,
      "à¤ĩà¤Łà¤«": 6845,
      "à¤®à¤ķà¤¸": 6846,
      "Ġà¤¨à¤ľà¤®": 6847,
      "Ġà¤ķà¤²à¤°à¤µ": 6848,
      "Ġà¤°à¤¸à¤ª": 6849,
      "Ġà¤ªà¤¹à¤²à¤Ĺ": 6850,
      "à¤ķà¤ªà¤Ł": 6851,
      "à¤ħà¤¨à¤¸": 6852,
      "Ġà¤Ńà¤ı": 6853,
      "Ġà¤łà¤¸": 6854,
      "à¤°à¤¨à¤°": 6855,
      "Ġà¥§à¥§à¥ª": 6856,
      "Ġà¤ļà¤µà¤¨": 6857,
      "à¤µà¤°à¤Ĺ": 6858,
      "à¤¨à¤ħà¤®": 6859,
      "à¤²à¤ªà¤ķ": 6860,
      "à¤ıà¤«à¤ıà¤²": 6861,
      "Ġà¤ļà¤®à¤°": 6862,
      "à¤°à¤Ĩà¤°": 6863,
      "à¤®à¤§à¤¨": 6864,
      "à¤Ĩà¤ªà¤°": 6865,
      "à¤īà¤ªà¤ķ": 6866,
      "à¤²à¤¡à¤ª": 6867,
      "à¤·à¤°à¤¶": 6868,
      "Ġà¤ħà¤ļà¤®": 6869,
      "à¤ļà¤°à¤Ł": 6870,
      "à¤ıà¤£": 6871,
      "à¤¼à¥Ģà¥¥": 6872,
      "à¤¯à¤¯à¤¨à¤ħà¤§": 6873,
      "à¤Ńà¤¹": 6874,
      "à¤¤à¤Ł": 6875,
      "à¤¦à¤¸à¤°à¤¥": 6876,
      "à¤ĩà¤°à¤²": 6877,
      "à¤¬à¤°à¤¹": 6878,
      "Ġà¤Ĩà¤°à¤ıà¤ıà¤¸": 6879,
      "à¤ĸà¤ķà¤¹": 6880,
      "Ġà¤ĵà¤ıà¤²à¤Īà¤¡": 6881,
      "à¤¨à¤ľà¤²": 6882,
      "Ġà¤ıà¤µà¤°à¤Ĺ": 6883,
      "Ġà¤«à¤°à¤¸": 6884,
      "à¤µà¤°à¤¶": 6885,
      "à¤¥à¤®à¤ª": 6886,
      "à¤²à¤¯à¤®": 6887,
      "à¥¦à¥¯": 6888,
      "Ġà¤Ĺà¤Ń": 6889,
      "Ġà¤Ĩà¤ľà¤µà¤ķ": 6890,
      "Ġà¤Īà¤ıà¤¸à¤Ĩà¤Īà¤¸": 6891,
      "à¤²à¤¡à¤¨": 6892,
      "à¤ķà¤Ĩ": 6893,
      "à¤°à¤¦à¤ķ": 6894,
      "à¤¸à¤µà¤¦à¤¤": 6895,
      "à¤Īà¤Īà¤Ī": 6896,
      "à¤¶à¤§à¤¨": 6897,
      "Ġà¤ľà¤²à¤¯": 6898,
      "à¥«à¥©": 6899,
      "à¥¯à¥©": 6900,
      "à¤®à¤¶à¤ķ": 6901,
      "à¤¦à¤ķà¤°à¤£": 6902,
      "Ġà¤ĩà¤¸à¤¬à¤Ĺ": 6903,
      "à¤ķà¤°à¤¬": 6904,
      "à¤ªà¤Ľ": 6905,
      "à¤¹à¤°à¤Ĺà¤¢": 6906,
      "Ġà¤¶à¤Łà¤¡": 6907,
      "Ġà¤ħà¤¨à¤¸à¤¬à¤¸": 6908,
      "à¤Łà¤¬à¤°": 6909,
      "Ġà¤¹à¤®à¤ª": 6910,
      "à¤ıà¤®à¤ıà¤ļ": 6911,
      "à¤ķà¤ªà¤¤": 6912,
      "Ġà¤ħà¤§à¤ªà¤ķ": 6913,
      "à¤¯à¤¨à¤Ĺà¤°": 6914,
      "Ġà¤īà¤Ī": 6915,
      "à¤¶à¤¨à¤§": 6916,
      "à¤¤à¤Ĩà¤ł": 6917,
      "Ġà¤ħà¤Ī": 6918,
      "Ġà¤¬à¤¤à¤ķ": 6919,
      "à¤½à¤½à¤½": 6920,
      "à¤Łà¤¹à¤¨": 6921,
      "Ġà¤²à¤·": 6922,
      "à¤µà¤£à¤ķ": 6923,
      "Ġà¤¬à¤ī": 6924,
      "Ġà¤µà¤ª": 6925,
      "à¤ĸà¤°à¤£": 6926,
      "à¥¬à¥Ń": 6927,
      "Ġà¥¦à¥©": 6928,
      "Ġà¤¸à¤µà¤¸": 6929,
      "à¤µà¤Ĺà¤¤": 6930,
      "Ġà¤ķà¤¥à¤ķ": 6931,
      "Ġà¤¨à¤ľà¤«": 6932,
      "à¤²à¤Ńà¤¨à¤Ĺà¤°": 6933,
      "Ġà¥§à¥¯à¥¯à¥¦": 6934,
      "à¤¦à¤°à¤µ": 6935,
      "Ġà¤ĩà¤²à¤ľ": 6936,
      "Ġà¤Ńà¤µà¤¦": 6937,
      "Ġà¤Ĩà¤Īà¤®": 6938,
      "à¤ıà¤²à¤Ĩà¤°": 6939,
      "Ġà¤ļà¤ķà¤¬": 6940,
      "Ġà¤¨à¤ķà¤²à¤ļ": 6941,
      "à¤²à¤Ŀà¤¡": 6942,
      "Ġà¤Ķà¤«": 6943,
      "Ġà¤ĸà¤¨à¤ķ": 6944,
      "Ġà¤Īà¤Ĩà¤°à¤ª": 6945,
      "à¤ķà¤¸à¤¨": 6946,
      "à¤¸à¤ħà¤§": 6947,
      "Ġà¤Ľà¤¨à¤¨": 6948,
      "à¤°à¤µà¤¸": 6949,
      "Ġà¥¤à¥¤à¥¤": 6950,
      "à¤¤à¤Ĩ": 6951,
      "à¤¹à¤¹à¤¹à¤¹à¤¹à¤¹": 6952,
      "Ġà¤¨à¤µà¤²à¤Ĺà¤¢": 6953,
      "à¤¡à¤°à¤ķ": 6954,
      "à¤ıà¤«à¤¬": 6955,
      "à¤¶à¤§à¤¨à¤īà¤Ĺ": 6956,
      "à¤®à¤łà¤¤": 6957,
      "Ġà¤Ķà¤ı": 6958,
      "à¤¯à¤°à¤°": 6959,
      "Ġà¤ĳà¤²à¤¸": 6960,
      "Ġà¤Ĩà¤°à¤ıà¤²à¤¡": 6961,
      "Ġà¤ĩà¤¯à¤°à¤°": 6962,
      "Ġà¤°à¤Ĭà¤«": 6963,
      "Ġà¤Ĺà¤ľà¤¨à¤µ": 6964,
      "Ġà¤Ńà¤®": 6965,
      "Ġà¤ĳà¤ī": 6966,
      "Ġà¤ªà¤Ī": 6967,
      "Ġà¤ĳà¤Ĺà¤¸": 6968,
      "à¤®à¤¤à¤¤": 6969,
      "Ġà¤īà¤¢": 6970,
      "Ġà¤Ĩà¤°à¤ıà¤«à¤Ĩà¤Īà¤¡": 6971,
      "Ġà¤µà¤®": 6972,
      "à¤ļà¤¨à¤ľ": 6973,
      "à¥¬à¥¯": 6974,
      "Ġà¤Ĳà¤¹": 6975,
      "à¤¾à¥ĩà¥ĩ": 6976,
      "Ġà¤īà¤Ĺà¤²à¤¤": 6977,
      "à¤¸à¤¬à¤²": 6978,
      "Ġà¤Ĩà¤¸à¤ªà¤¡": 6979,
      "Ġà¤Ĭà¤¦": 6980,
      "à¤°à¤°à¤¤": 6981,
      "Ġà¤¤à¤¸à¤¨": 6982,
      "Ġà¤Ĺà¤Ĳ": 6983,
      "à¤Īà¤ľà¤¹": 6984,
      "Ġà¤ĺà¤Ĺ": 6985,
      "à¤¦à¤°à¤Ń": 6986,
      "Ġà¤¶à¤²à¤Ĺà¤®": 6987,
      "à¤ľà¤¯à¤¨à¤Ĺà¤°à¤®": 6988,
      "Ġà¤ıà¤¨à¤ıà¤«à¤ıà¤ļà¤ıà¤¸": 6989,
      "à¤Ĺà¤°à¤¹": 6990,
      "à¤¯à¤µà¤¨à¤ª": 6991,
      "Ġà¤ļà¤Łà¤ĸ": 6992,
      "Ġà¤ķà¤Łà¤ª": 6993,
      "Ġà¤¬à¤¹à¤¨à¤ľ": 6994,
      "à¥Ńà¥§": 6995,
      "à¤Ĺà¤Ńà¤¦": 6996,
      "Ġà¤Ńà¤¬": 6997,
      "à¤ĩà¤¸à¤¬": 6998,
      "Ġà¤Īà¤¯à¤°à¤«": 6999,
      "à¤²à¤Ľ": 7000,
      "à¤Īà¤¨à¤ķ": 7001,
      "Ġà¤¨à¤Ĺà¤°à¤¨": 7002,
      "Ġà¥¨à¥¨à¥¦": 7003,
      "à¤Ĺà¤³": 7004,
      "Ġà¤ĺà¤²": 7005,
      "à¤·à¤®à¤¯": 7006,
      "à¤®à¤ķà¤¦": 7007,
      "à¤¨à¤ĺà¤°": 7008,
      "Ġà¤®à¤Ļ": 7009,
      "à¤¡à¤ĸ": 7010,
      "à¤§à¤°à¤ª": 7011,
      "Ġà¤Ĩà¤¸à¤«": 7012,
      "à¤ķà¤¨à¤ª": 7013,
      "Ġà¤ļà¤¹à¤ķ": 7014,
      "à¤Īà¤¥": 7015,
      "à¤®à¤²à¤ķ": 7016,
      "Ġà¥¨à¥¨à¥«": 7017,
      "à¥ĩà¤¼à¤Ĥ": 7018,
      "Ġà¥Ńà¥®": 7019,
      "à¤Īà¤¡à¤²": 7020,
      "à¤ļà¤Ľà¤¹": 7021,
      "Ġà¤®à¤¨à¤®à¤¸": 7022,
      "Ġà¤Ĩà¤Īà¤ĵ": 7023,
      "à¥§à¥¦à¥§": 7024,
      "Ġà¥¨à¥«à¥¨": 7025,
      "à¤Ĺà¤ıà¤ķ": 7026,
      "à¤®à¤²à¤¨": 7027,
      "à¤·à¤¡": 7028,
      "Ġà¤Ĩà¤°à¤ıà¤®à¤ıà¤²": 7029,
      "à¤Ńà¤µà¤ľà¤¨": 7030,
      "à¤µà¤£à¤Ĺ": 7031,
      "à¤ļà¤ķà¤¨": 7032,
      "Ġà¤Ĺà¤Ĺà¤°": 7033,
      "Ġà¤Ĺà¤ĩ": 7034,
      "à¤·à¤°à¤§": 7035,
      "Ġà¤Ĩà¤µà¤¤": 7036,
      "Ġà¤ľà¤®à¤ĺà¤Ł": 7037,
      "à¤°à¤ªà¤²à¤Łà¤µ": 7038,
      "Ġà¤ĸà¤°à¤¦": 7039,
      "Ġà¥«à¥«": 7040,
      "à¤²à¤ªà¤¨": 7041,
      "Ġà¤ıà¤«à¤ıà¤¨à¤ıà¤¨": 7042,
      "Ġà¤ıà¤¸à¤Ĩà¤Īà¤Ĩà¤Ī": 7043,
      "à¤¯à¤¯à¤µ": 7044,
      "Ġà¤Ńà¤¯à¤®": 7045,
      "Ġà¤§à¤£": 7046,
      "à¤¹à¤²à¤ļà¤²": 7047,
      "Ġà¤ķà¤ĩ": 7048,
      "Ġà¤Ĩà¤Ĩà¤Ĩ": 7049,
      "à¤Łà¤®à¤¨": 7050,
      "Ġà¤ĸà¤¶": 7051,
      "à¤¤à¤«à¤²": 7052,
      "à¤ľà¤¨à¤°à¤²": 7053,
      "à¤°à¤£à¤®": 7054,
      "Ġà¤ħà¤§à¤®à¤°": 7055,
      "à¤Ĩà¤ĸà¤ļ": 7056,
      "Ġà¤ªà¤ļà¤ª": 7057,
      "à¤¶à¤ľà¤¯": 7058,
      "Ġà¤īà¤ªà¤¤": 7059,
      "à¤¯à¤²à¤ķ": 7060,
      "à¤¯à¤¶à¤¯à¤¨": 7061,
      "Ġà¤¸à¤®à¤¯à¤ª": 7062,
      "Ġà¥¨à¥©à¥ª": 7063,
      "à¤Łà¤°à¤ķà¤¨": 7064,
      "Ġà¤Ķà¤Ł": 7065,
      "à¤ķà¤°à¤²": 7066,
      "Ġà¤ħà¤¨à¤Ĺà¤¢": 7067,
      "Ġà¤§à¤°à¤®à¤ª": 7068,
      "à¤¸à¤°à¤°": 7069,
      "à¤°à¤¹à¤ļ": 7070,
      "Ġà¤ķà¤®à¤¨": 7071,
      "à¤¬à¤ľà¤²": 7072,
      "Ġà¤¶à¤ª": 7073,
      "Ġà¤¯à¤®à¤²": 7074,
      "Ġà¤¡à¤¹": 7075,
      "Ġà¤¹à¤°à¤¡": 7076,
      "Ġà¤¸à¤²à¤ķ": 7077,
      "Ġà¤ĸà¤°à¤¡": 7078,
      "Ġà¤®à¤¦à¤¨à¤ª": 7079,
      "Ġà¤ıà¤¯à¤°à¤¬à¤¸": 7080,
      "Ġà¤ľà¤ªà¤¤": 7081,
      "Ġà¤¸à¤®à¤¯à¤°": 7082,
      "à¤¸à¤¨à¤¸": 7083,
      "à¤Ĭà¤Ł": 7084,
      "à¥¬à¥§": 7085,
      "à¤¯à¤°à¤¸à¤¸": 7086,
      "Ġà¤ħà¤®à¤²à¤¤": 7087,
      "à¤¯à¤£à¤¤": 7088,
      "Ġà¥©à¥®": 7089,
      "à¤³à¤Ĺà¤¢": 7090,
      "à¤ķà¤ıà¤²à¤¬": 7091,
      "à¤ĩà¤µà¤°à¤²": 7092,
      "à¥ĥà¥ĥ": 7093,
      "Ġà¤Ľà¤¹à¤¸": 7094,
      "à¤®à¤ķà¤¦à¤®": 7095,
      "Ġà¤¶à¤²à¤Ń": 7096,
      "à¤®à¤ļà¤°à¤£": 7097,
      "à¥įà¥Ģ": 7098,
      "Ġà¤¤à¤ķà¤¤": 7099,
      "à¥¬à¥¨": 7100,
      "Ġà¤¶à¤ªà¤¥à¤ªà¤¤": 7101,
      "Ġà¥¬à¥«": 7102,
      "Ġà¤¨à¤°à¤¨": 7103,
      "Ġà¤µà¤¨à¤Ł": 7104,
      "Ġà¤¨à¤µà¤²à¤¨": 7105,
      "Ġà¤Ĩà¤®à¤¸à¤Ń": 7106,
      "Ġà¤ıà¤²à¤Ĩà¤Īà¤¯": 7107,
      "Ġà¤Ĩà¤¦à¤®à¤ĸ": 7108,
      "à¤Łà¤²à¤¨": 7109,
      "Ġà¤ħà¤Ŀ": 7110,
      "Ġà¤ħà¤ªà¤ķà¤°": 7111,
      "Ġà¤ıà¤¡à¤¬": 7112,
      "à¤ķà¤°à¤ļ": 7113,
      "à¤ĩà¤®à¤¸": 7114,
      "Ġà¤ľà¤²à¤Ń": 7115,
      "à¤¦à¤¶à¤¨": 7116,
      "Ġà¤¯à¤¬": 7117,
      "Ġà¤ħà¤²à¤¹à¤¦": 7118,
      "à¤µà¤Łà¤ĸ": 7119,
      "à¤ļà¤Ĭà¤°": 7120,
      "Ġà¤®à¤¹à¤¦": 7121,
      "Ġà¤ľà¤°à¤¬": 7122,
      "Ġà¤ĵà¤ł": 7123,
      "Ġà¤Ĩà¤¦à¤®à¤ª": 7124,
      "Ġà¤ıà¤²à¤®": 7125,
      "à¤ļà¤£": 7126,
      "Ġà¤¹à¤®à¤¹": 7127,
      "à¤½à¤¸": 7128,
      "Ġà¤ħà¤Ĺà¤²à¤¬à¤Ĺà¤²": 7129,
      "Ġà¤ıà¤ļà¤¯": 7130,
      "Ġà¥«à¥¦à¥¦à¥¦": 7131,
      "Ġà¤¤à¤ļ": 7132,
      "à¤°à¤£à¤¤à¤¯": 7133,
      "à¤ħà¤¸à¤®": 7134,
      "à¤°à¤Ĩà¤ªà¤ķ": 7135,
      "à¤¨à¤®à¤ķ": 7136,
      "à¤ķà¤ªà¤¡": 7137,
      "Ġà¥§à¥§à¥¦à¥¦": 7138,
      "à¤·à¤¯à¤ª": 7139,
      "Ġà¤ľà¤¸à¤¬": 7140,
      "Ġà¤¥à¤ªà¤ķ": 7141,
      "Ġà¤ħà¤Ĺà¤®": 7142,
      "Ġà¤ħà¤®à¤°à¤ķà¤£": 7143,
      "Ġà¤ªà¤°à¤®à¤¸": 7144,
      "à¤ıà¤¥": 7145,
      "Ġà¤Ĳà¤¬à¤ķ": 7146,
      "à¥¯à¥§": 7147,
      "à¤ķà¤¥à¤¨": 7148,
      "à¤¹à¤¥": 7149,
      "Ġà¤ħà¤ľà¤¹": 7150,
      "Ġà¤ĩà¤Ľ": 7151,
      "Ġà¤ıà¤ļà¤ıà¤ıà¤²": 7152,
      "à¤®à¤Ĺà¤¤": 7153,
      "Ġà¤¤à¤ĩà¤¯": 7154,
      "Ġà¤«à¤¯": 7155,
      "à¤īà¤¸à¤µ": 7156,
      "Ġà¤ªà¤ľà¤²": 7157,
      "Ġà¤¸à¤£": 7158,
      "à¤ĩà¤²à¤µ": 7159,
      "Ġà¥§à¥¯à¥ªà¥Ń": 7160,
      "à¤ıà¤ıà¤¨": 7161,
      "Ġà¤¨à¤µà¤Ĺà¤Ľ": 7162,
      "à¤®à¤ªà¤Ł": 7163,
      "à¤§à¤°à¤ļà¤¨": 7164,
      "à¥ĳ": 7165,
      "à¤ħà¤·": 7166,
      "Ġà¤Ĭà¤¤": 7167,
      "à¤®à¤«à¤°": 7168,
      "Ġà¤Ĺà¤®à¤Ĺ": 7169,
      "à¤²à¤¨à¤Ĺà¤°": 7170,
      "à¤¯à¤ľà¤°": 7171,
      "Ġà¤§à¤µ": 7172,
      "à¤½à¤ª": 7173,
      "Ġà¥§à¥§à¥¯": 7174,
      "à¤®à¤Ńà¤°": 7175,
      "à¤£à¤²": 7176,
      "Ġà¤ªà¤²à¤Ńà¤°": 7177,
      "Ġà¤¨à¤Ĺà¤°à¤µ": 7178,
      "à¤¤à¤®à¤¤": 7179,
      "Ġà¤Ĩà¤Ľ": 7180,
      "Ġà¤¨à¤µà¤¬": 7181,
      "Ġà¤¹à¤łà¤¯": 7182,
      "Ġà¤ħà¤Ĭ": 7183,
      "à¤®à¤ħà¤²": 7184,
      "Ġà¤¯à¤µà¤¨": 7185,
      "à¤¶à¤¹à¤¦": 7186,
      "Ġà¤Ľà¤Ľ": 7187,
      "Ġà¥§à¥®à¥ª": 7188,
      "Ġà¤¨à¤ķà¤¸": 7189,
      "Ġà¤Ĺà¤²à¤ķà¤°": 7190,
      "à¤¯à¤®à¤£": 7191,
      "Ġà¤ľà¤¨à¤¸à¤¹à¤¯": 7192,
      "Ġà¤Ĩà¤§à¤°": 7193,
      "à¤ĵà¤¤": 7194,
      "Ġà¤ħà¤¸à¤£": 7195,
      "à¤¨à¤¹à¤²": 7196,
      "Ġà¤¤à¤°à¤µ": 7197,
      "Ġà¤Łà¤ªà¤°": 7198,
      "à¤Łà¤¨à¤Ĺ": 7199,
      "Ġà¤ķà¤Īà¤²": 7200,
      "Ġà¤ªà¤Łà¤ķà¤¨": 7201,
      "Ġà¥§à¥ªà¥ª": 7202,
      "Ġà¤µà¤²à¤¯": 7203,
      "Ġà¤ķà¤Łà¤Ĩà¤īà¤Ł": 7204,
      "Ġà¤ıà¤¸à¤ıà¤²à¤¬": 7205,
      "Ġà¤īà¤Ńà¤¯à¤ļà¤°": 7206,
      "Ġà¤¸à¤®à¤°à¤¸": 7207,
      "à¤¬à¤¤à¤ª": 7208,
      "Ġà¤Ŀà¤¬à¤°": 7209,
      "à¤¯à¤²à¤¸": 7210,
      "Ġà¥¨à¥¦à¥¦à¥¨": 7211,
      "à¤·à¤¹": 7212,
      "Ġà¤ħà¤Ĺà¤°à¤ķà¤°": 7213,
      "Ġà¤ħà¤¸à¤¹à¤ľà¤¤": 7214,
      "à¥Īà¥Īà¥Īà¥Īà¥Ī": 7215,
      "à¤¹à¤ĸ": 7216,
      "Ġà¤¹à¤°à¤¹à¤°": 7217,
      "à¤·à¤ķà¤¨": 7218,
      "Ġà¤¬à¤²à¤µà¤¤": 7219,
      "à¤¨à¤°à¤¹": 7220,
      "à¤Ķà¤¦": 7221,
      "à¤®à¤Łà¤¤": 7222,
      "à¤¹à¤¨à¤ķ": 7223,
      "à¤Łà¤¬à¤¨": 7224,
      "Ġà¤ıà¤®à¤Ĩà¤Īà¤¸": 7225,
      "Ġà¤ķà¤Łà¤¡": 7226,
      "Ġà¤Īà¤¶à¤µà¤°": 7227,
      "à¤°à¤Ľà¤Ĺ": 7228,
      "Ġà¤¨à¤²à¤Ĺ": 7229,
      "à¤²à¤ĳà¤°": 7230,
      "Ġà¤Īà¤ıà¤®à¤ıà¤¸": 7231,
      "à¤Ĭà¤¡à¤°": 7232,
      "à¥¨à¥§à¥¨": 7233,
      "Ġà¤ļà¤Łà¤Ĺ": 7234,
      "Ġà¥§à¥¯à¥¯à¥®": 7235,
      "à¤¥à¤¦à¤£": 7236,
      "à¤ĵà¤¨à¤¸": 7237,
      "à¤ıà¤¸à¤¬à¤¸": 7238,
      "Ġà¤¯à¤Ĺ": 7239,
      "Ġà¤ķà¤ķà¤°": 7240,
      "à¤¢à¤ķà¤°": 7241,
      "Ġà¤¸à¤¹à¤¸à¤µ": 7242,
      "Ġà¤Ĩà¤¯à¤¶à¤°": 7243,
      "à¤īà¤ªà¤²à¤¬": 7244,
      "à¤¯à¤¬à¤¹": 7245,
      "à¤ıà¤ĵ": 7246,
      "à¤īà¤¨à¤Ĺ": 7247,
      "Ġà¤ľà¤²à¤¶à¤ķ": 7248,
      "Ġà¤ĩà¤¶à¤°à¤¤": 7249,
      "à¤łà¤¯": 7250,
      "à¤·à¤¯à¤Ĺà¤¤": 7251,
      "Ġà¤µà¤µ": 7252,
      "Ġà¤®à¤¶à¤µà¤°": 7253,
      "Ġà¤ħà¤§à¤¯à¤¯à¤¨": 7254,
      "à¤ľà¤°à¤ª": 7255,
      "Ġà¤ĩà¤²à¤¸": 7256,
      "à¤¸à¤®à¤¨": 7257,
      "Ġà¤Ńà¤Īà¤²": 7258,
      "à¤ħà¤Ł": 7259,
      "Ġà¤Ĩà¤°à¤£": 7260,
      "Ġà¤Ĺà¤µà¤¨": 7261,
      "à¤ĩà¤²à¤ķ": 7262,
      "à¤¸à¤ĳà¤«": 7263,
      "Ġà¤§à¤§à¤ķà¤¤": 7264,
      "Ġà¤ĳà¤«à¤¶": 7265,
      "à¤°à¤ľà¤Ĺà¤¤": 7266,
      "Ġà¥¨à¥¦à¥¦à¥§": 7267,
      "Ġà¥¨à¥¬à¥¦": 7268,
      "Ġà¤ķà¤¬à¤°": 7269,
      "Ġà¤Ĩà¤Ĳ": 7270,
      "Ġà¤Ńà¤īà¤ľ": 7271,
      "Ġà¤Ĺà¤łà¤¬à¤¨": 7272,
      "Ġà¤ıà¤¹à¤®": 7273,
      "à¤ķà¤°à¤°": 7274,
      "à¤¯à¤ķà¤¨": 7275,
      "Ġà¤ħà¤łà¤ĸ": 7276,
      "à¤¸à¤ķà¤²": 7277,
      "Ġà¤ªà¤°à¤¯à¤¹": 7278,
      "Ġà¤ĸà¤¡à¤µ": 7279,
      "à¤¨à¤ĳà¤«": 7280,
      "à¤ªà¤¬à¤¦": 7281,
      "Ġà¤¸à¤¨à¤Ĺ": 7282,
      "Ġà¤Ķà¤¡": 7283,
      "à¤¯à¤ķà¤ĩà¤¸": 7284,
      "à¤°à¤£à¤ıà¤ķ": 7285,
      "Ġà¥§à¥¨à¥ª": 7286,
      "Ġà¤¸à¤¹à¤ļà¤°": 7287,
      "Ġà¤ķà¤²à¤°à¤«": 7288,
      "Ġà¤¨à¤µà¤īà¤¦": 7289,
      "Ġà¤¬à¤°à¤«": 7290,
      "Ġà¤Ĺà¤²à¤Ĺ": 7291,
      "à¤¨à¤ĺ": 7292,
      "à¤¹à¤®à¤¯": 7293,
      "Ġà¤ħà¤¸à¤®à¤®": 7294,
      "à¤®à¤Łà¤°": 7295,
      "à¤²à¤®à¤®à¤¤": 7296,
      "à¤ķà¤¬à¤§": 7297,
      "Ġà¤¸à¤ªà¤¤": 7298,
      "Ġà¤¶à¤¯à¤¨à¤ķ": 7299,
      "à¤µà¤¨à¤°à¤ķ": 7300,
      "Ġà¤ĭà¤ľ": 7301,
      "à¤¯à¤£à¤ķ": 7302,
      "Ġà¥§à¥«à¥ª": 7303,
      "à¤®à¤¦à¤²": 7304,
      "à¤ĭà¤£": 7305,
      "à¤¸à¤£": 7306,
      "Ġà¤¹à¤£": 7307,
      "Ġà¤®à¤²à¤¨": 7308,
      "Ġà¤ĭà¤ķ": 7309,
      "Ġà¥ªà¥¦à¥¦": 7310,
      "à¤¯à¤ħà¤¨": 7311,
      "à¤¸à¤ıà¤®": 7312,
      "à¤¬à¤°à¤¨à¤µà¤®": 7313,
      "Ġà¥¤à¥¤à¥¤à¥¤": 7314,
      "Ġà¤Ĭà¤ł": 7315,
      "Ġà¤¶à¤¤à¤Ń": 7316,
      "à¤Łà¤¹à¤®": 7317,
      "Ġà¤¤à¤Ĺà¤®": 7318,
      "Ġà¤®à¤¨à¤¬": 7319,
      "à¤ĥà¥¤à¥¤": 7320,
      "Ġà¤²à¤µà¤®": 7321,
      "Ġà¤²à¤«à¤¡": 7322,
      "Ġà¤µà¤¹à¤¶à¤¤": 7323,
      "Ġà¤Īà¤Ń": 7324,
      "à¤¸à¤¦à¤°": 7325,
      "à¤¬à¤ķà¤¤": 7326,
      "Ġà¤ĸà¤ĸ": 7327,
      "à¤Łà¤°à¤¯": 7328,
      "Ġà¤ķà¤®à¤²à¤ķ": 7329,
      "Ġà¤¤à¤£": 7330,
      "à¤ĵà¤«": 7331,
      "à¤°à¤¬à¤ķ": 7332,
      "Ġà¤µà¤¬": 7333,
      "à¤¡à¤¬à¤²": 7334,
      "à¤Īà¤ıà¤ķ": 7335,
      "à¤°à¤¸à¤¶à¤ķ": 7336,
      "Ġà¤¸à¤¤à¤¬": 7337,
      "à¥Ĥà¤Ĥà¥¤à¥¤": 7338,
      "à¤ķà¤¤à¤ķà¤¨": 7339,
      "Ġà¤ıà¤®à¤ıà¤¸à¤ıà¤¨": 7340,
      "à¥§à¥§à¥§": 7341,
      "Ġà¤¸à¤¹à¤ľà¤µ": 7342,
      "Ġà¤ĺà¤°à¤Ĺ": 7343,
      "Ġà¤ļà¤¯à¤¨à¤ª": 7344,
      "à¤°à¤Ĩ": 7345,
      "Ġà¤ħà¤¸à¤ķ": 7346,
      "à¤ĩà¤¨à¤ª": 7347,
      "à¤¯à¤īà¤¤": 7348,
      "à¤Ĺà¤²à¤¦": 7349,
      "à¥©à¥¨": 7350,
      "à¤ªà¤Łà¤¨à¤®": 7351,
      "Ġà¤ıà¤¸à¤ıà¤ļà¤ľ": 7352,
      "à¤Ĺà¤°à¤µ": 7353,
      "Ġà¥¬à¥¦à¥¦": 7354,
      "Ġà¤īà¤Ľà¤²à¤ķ": 7355,
      "Ġà¤¬à¤Ńà¤¨": 7356,
      "Ġà¤Ķà¤ª": 7357,
      "Ġà¤ĸà¤¨à¤ķà¤¤": 7358,
      "Ġà¤ľà¤®à¤µ": 7359,
      "Ġà¤Ĺà¤¡à¤¬à¤¡": 7360,
      "Ġà¤ķà¤¤à¤°à¤¬": 7361,
      "à¤ªà¤Ĺà¤¨": 7362,
      "à¤¡à¤²à¤®": 7363,
      "Ġà¤¬à¤Ī": 7364,
      "Ġà¤ľà¤¨à¤Ĺà¤£": 7365,
      "Ġà¤ħà¤«à¤¸à¤°à¤¶": 7366,
      "Ġà¥¨à¥«à¥¦": 7367,
      "Ġà¤ªà¤°à¤Ńà¤£": 7368,
      "Ġà¤°à¤¹à¤¬à¤°": 7369,
      "Ġà¤ıà¤¨à¤ıà¤®à¤¸": 7370,
      "à¤Ĺà¤Īà¤Ĺ": 7371,
      "à¤Ĺà¤°à¤¨": 7372,
      "à¤¤à¤ķà¤¥": 7373,
      "Ġà¤¢à¤¬": 7374,
      "Ġà¤·à¤°": 7375,
      "à¤Łà¤¸à¤°": 7376,
      "Ġà¤īà¤§à¤¡": 7377,
      "Ġà¤ħà¤¨à¤¡": 7378,
      "à¤µà¤¨à¤ļà¤°": 7379,
      "à¥§à¥§à¥¦": 7380,
      "Ġà¤ĸà¤¡à¤¸": 7381,
      "à¤Īà¤ħà¤ª": 7382,
      "Ġà¤Łà¤²à¤¨": 7383,
      "à¤µà¤¨à¤²": 7384,
      "à¤°à¤¸à¤¹": 7385,
      "Ġà¤ħà¤ĸà¤²": 7386,
      "Ġà¤ķà¤¥à¤°": 7387,
      "Ġà¤ıà¤Ĩà¤Īà¤ıà¤«à¤ıà¤«": 7388,
      "Ġà¤ıà¤¸à¤ıà¤¸à¤ıà¤²": 7389,
      "Ġà¤īà¤¨à¤ķà¤°": 7390,
      "Ġà¤īà¤¦à¤¯à¤¸": 7391,
      "Ġà¤¸à¤¤à¤µ": 7392,
      "à¤ĩà¤®à¤Ł": 7393,
      "à¤¦à¤¯à¤µ": 7394,
      "Ġà¤Ĩà¤ĩà¤¶": 7395,
      "à¤ķà¤¨à¤¸": 7396,
      "à¤Īà¤ķà¤¹": 7397,
      "à¤¦à¤®à¤¨": 7398,
      "à¤°à¤¹à¤¶": 7399,
      "Ġà¤ĵà¤ļ": 7400,
      "à¤ıà¤¸à¤ıà¤¸à¤¸": 7401,
      "à¤°à¤¤à¤®à¤¨": 7402,
      "à¤¬à¤°à¤ľ": 7403,
      "à¤²à¤¬à¤Ł": 7404,
      "à¤¬à¤¨à¤Ĺà¤°": 7405,
      "à¤ĺà¤ª": 7406,
      "à¤¸à¤ªà¤ļ": 7407,
      "Ġà¤®à¤²à¤¹à¤®": 7408,
      "à¤ıà¤¸à¤ıà¤¸à¤ıà¤¸à¤¸": 7409,
      "à¤ĩà¤¬à¤°à¤ª": 7410,
      "Ġà¤¸à¤²à¤ķà¤¨à¤ª": 7411,
      "à¤·à¤Ł": 7412,
      "Ġà¤¶à¤°à¤¤à¤ļ": 7413,
      "Ġà¤ĳà¤ķà¤¸": 7414,
      "à¤²à¤¤à¤ª": 7415,
      "à¤¨à¤ĸà¤Ł": 7416,
      "Ġà¥§à¥¨à¥§": 7417,
      "à¤¡à¤°à¤Ĩà¤°": 7418,
      "Ġà¤¤à¤¬à¤¤à¤¬": 7419,
      "à¤ıà¤ļà¤ıà¤«à¤ıà¤²": 7420,
      "à¤¶à¤°à¤®": 7421,
      "Ġà¤ħà¤¨à¤ĺ": 7422,
      "Ġà¤Ŀà¤®à¤ķà¤²": 7423,
      "à¤°à¤Ĩà¤²": 7424,
      "à¤ĺà¤°à¤¬": 7425,
      "Ġà¤ªà¤ļà¤¡": 7426,
      "à¤µà¤ļà¤°": 7427,
      "Ġà¤¥à¤¤": 7428,
      "Ġà¤¸à¤¬à¤Ł": 7429,
      "à¤¨à¤ħà¤ĸ": 7430,
      "à¤¯à¤Ńà¤°": 7431,
      "Ġà¤Ĺà¤³": 7432,
      "Ġà¤¯à¤ĸ": 7433,
      "à¤ķà¤°à¤¦": 7434,
      "à¤·à¤£à¤Ń": 7435,
      "Ġà¥§à¥«à¥¦à¥¦": 7436,
      "Ġà¤ıà¤·": 7437,
      "Ġà¤Īà¤ķà¤ļà¤°": 7438,
      "Ġà¤ķà¤Ľà¤µ": 7439,
      "à¤°à¤¹à¤°à¤£": 7440,
      "Ġà¤ĩà¤¸à¤¹": 7441,
      "Ġà¤ĸà¤¬à¤°à¤ķ": 7442,
      "Ġà¤Ĩà¤°à¤ĵà¤¬": 7443,
      "Ġà¥§à¥¬à¥«": 7444,
      "Ġà¤ķà¤¸à¤®à¤¸": 7445,
      "à¤¤à¤ķà¤¤": 7446,
      "à¤¡à¤Ĺà¤¢": 7447,
      "à¤ļà¤ľà¤°": 7448,
      "Ġà¤¥à¤®à¤¤": 7449,
      "à¤µà¤¨à¤¨": 7450,
      "Ġà¤Ľà¤°à¤¹à¤°": 7451,
      "à¤°à¤¨à¤¹": 7452,
      "Ġà¤¦à¤°à¤¸": 7453,
      "Ġà¤ķà¤¹à¤ķà¤¶": 7454,
      "Ġà¤ĵà¤µà¤°à¤«": 7455,
      "Ġà¤ľà¤Ń": 7456,
      "à¤²à¤ķà¤Ł": 7457,
      "à¤ķà¤Łà¤¸": 7458,
      "à¤µà¤Ľà¤¤": 7459,
      "à¤¯à¤Ĺà¤°": 7460,
      "à¤®à¤¤à¤²": 7461,
      "à¤¦à¤°à¤ļ": 7462,
      "Ġà¤ıà¤¸à¤ıà¤®à¤¸": 7463,
      "Ġà¤°à¤§": 7464,
      "Ġà¤Ĩà¤®à¤°": 7465,
      "à¤¼à¥Īà¤Ĥ": 7466,
      "Ġà¤īà¤¥": 7467,
      "Ġà¤Īà¤¤": 7468,
      "Ġà¤łà¤°": 7469,
      "à¤·à¤ķà¤¤": 7470,
      "à¤ĵà¤¯": 7471,
      "Ġà¥©à¥¯": 7472,
      "Ġà¤²à¤µà¤¸": 7473,
      "à¤łà¤¡": 7474,
      "Ġà¤ĵà¤Łà¤®": 7475,
      "Ġà¤Ĩà¤Īà¤°": 7476,
      "Ġà¥¨à¥©à¥¦": 7477,
      "à¤ķà¤Łà¤¨": 7478,
      "à¤ĺà¤¸": 7479,
      "Ġà¤Ĭà¤Ĺ": 7480,
      "à¤ķà¤¨à¤°": 7481,
      "à¤Ĺà¤Ĩà¤īà¤Ł": 7482,
      "Ġà¤§à¤ª": 7483,
      "à¤®à¤¨à¤¹": 7484,
      "Ġà¤¤à¤®à¤¤à¤®": 7485,
      "Ġà¤ıà¤¤à¤¨": 7486,
      "Ġà¤¶à¤ķà¤²": 7487,
      "Ġà¤ľà¤°à¤¨": 7488,
      "à¤ķà¤¬à¤²": 7489,
      "à¤łà¤¬": 7490,
      "Ġà¤ĵà¤®à¤°": 7491,
      "Ġà¤Ĩà¤Īà¤ıà¤¸à¤ª": 7492,
      "Ġà¤Ĩà¤¸à¤µà¤¨": 7493,
      "à¥§à¥§à¥©": 7494,
      "Ġà¤¸à¤¸à¤®": 7495,
      "Ġà¤Ĳà¤µ": 7496,
      "à¤²à¤¤à¤«": 7497,
      "Ġà¤łà¤Ł": 7498,
      "Ġà¤¶à¤¯à¤¨à¤ķà¤ķ": 7499,
      "à¤¶à¤£": 7500,
      "Ġà¤Ĩà¤ħ": 7501,
      "à¤²à¤¨à¤µ": 7502,
      "à¤Ĳà¤¬": 7503,
      "à¤§à¤²à¤ķ": 7504,
      "Ġà¤«à¤Łà¤¤": 7505,
      "Ġà¤²à¤¹à¤°à¤ª": 7506,
      "à¥§à¥¨à¥Ń": 7507,
      "à¤¦à¤°à¤¬à¤¨": 7508,
      "Ġà¤Ĩà¤Īà¤ıà¤¨à¤ıà¤ķ": 7509,
      "à¤¥à¤¨à¤¸": 7510,
      "à¤Ĩà¤ĩà¤¡": 7511,
      "à¤°à¤ķà¤¸": 7512,
      "à¤¨à¤¶à¤ķ": 7513,
      "Ġà¤Ĳà¤łà¤¨": 7514,
      "à¤¯à¤®à¤ª": 7515,
      "à¤·à¤£à¤¤": 7516,
      "à¤Ĺà¤²à¤Ĺ": 7517,
      "Ġà¤ĵà¤¥": 7518,
      "à¤¦à¤®à¤¸": 7519,
      "Ġà¥§à¥«à¥«": 7520,
      "à¤ıà¤²à¤¡": 7521,
      "Ġà¤ĩà¤°à¤¡": 7522,
      "Ġà¥§à¥¨à¥©": 7523,
      "à¤®à¤¬à¤¨": 7524,
      "à¤Ńà¤µà¤®": 7525,
      "Ġà¤Ĩà¤ļà¤®à¤¨": 7526,
      "à¤²à¤µà¤²à¤ķà¤°": 7527,
      "Ġà¤¬à¤²à¤ķ": 7528,
      "à¤°à¤¬à¤¹": 7529,
      "à¤ıà¤ļà¤Ī": 7530,
      "Ġà¤Ĩà¤ĩà¤ıà¤ıà¤¸": 7531,
      "à¤¸à¤¤à¤¸": 7532,
      "Ġà¥¨à¥¨à¥¬": 7533,
      "Ġà¤²à¤§": 7534,
      "à¤¯à¤®à¤¹": 7535,
      "Ġà¥¨à¥§à¥«": 7536,
      "Ġà¤Īà¤¥à¤°à¤¨": 7537,
      "à¥§à¥¦à¥©": 7538,
      "Ġà¤¤à¤¶à¤°": 7539,
      "à¤·à¤Ĺà¤£à¤¨": 7540,
      "Ġà¤Ŀà¤¬": 7541,
      "Ġà¤Ĩà¤µà¤Ńà¤Ĺà¤¤": 7542,
      "Ġà¤Ĩà¤¬à¤¦": 7543,
      "Ġà¤ħà¤²à¤¬à¤°": 7544,
      "Ġà¤¶à¤°à¤Ī": 7545,
      "à¤¨à¤®à¤¯": 7546,
      "Ġà¤²à¤ªà¤µ": 7547,
      "à¤¯à¤ħà¤ª": 7548,
      "Ġà¤°à¤Ĺà¤°": 7549,
      "Ġà¤§à¤²": 7550,
      "à¤īà¤¸à¤²": 7551,
      "à¤¦à¤¯à¤Ĺ": 7552,
      "à¤®à¤¤à¤¨à¤Ĺà¤°": 7553,
      "Ġà¤ľà¤¥": 7554,
      "Ġà¤ķà¤ĩà¤¸à¤¨": 7555,
      "à¤ĵà¤Ĩà¤Īà¤¸": 7556,
      "à¤ħà¤¡": 7557,
      "Ġà¤ıà¤«à¤ĵà¤¬": 7558,
      "à¤¹à¤ľà¤¨": 7559,
      "à¤¡à¤®à¤°": 7560,
      "à¤ķà¤Ĳà¤¤": 7561,
      "à¤²à¤ıà¤ļà¤¡": 7562,
      "à¤Ĩà¤°à¤Ĩà¤°": 7563,
      "à¥¨à¥¦à¥¨à¥§": 7564,
      "à¥§à¥¦à¥ª": 7565,
      "Ġà¤°à¤·": 7566,
      "à¤ıà¤Ń": 7567,
      "à¤ĸà¤Ĩà¤²": 7568,
      "Ġà¤ıà¤¨à¤ıà¤ļà¤Ĩà¤°à¤¸": 7569,
      "à¥Īà¥¥à¥¥": 7570,
      "Ġà¤ħà¤§à¤ľà¤²": 7571,
      "Ġà¤Ĩà¤°à¤ıà¤¸à¤ª": 7572,
      "Ġà¤ľà¤¬à¤¤à¤¬": 7573,
      "à¤«à¤ľà¤Ī": 7574,
      "Ġà¤ħà¤ªà¤ĺà¤Łà¤¨": 7575,
      "Ġà¤¨à¤µà¤ķ": 7576,
      "à¤Ĺà¤¨à¤¹à¤°": 7577,
      "Ġà¥¯à¥¯": 7578,
      "à¤¹à¤¸à¤¨": 7579,
      "à¤Ŀà¤ķà¤¤": 7580,
      "Ġà¤Īà¤ıà¤²": 7581,
      "Ġà¤¨à¤µà¤°à¤¤à¤¨": 7582,
      "Ġà¤°à¤¨à¤«": 7583,
      "à¤ıà¤«à¤Ĩà¤°": 7584,
      "Ġà¤¶à¤µà¤¦": 7585,
      "Ġà¤Ĩà¤Ĺà¤¤": 7586,
      "Ġà¤ıà¤²à¤ķ": 7587,
      "à¤Īà¤Ĩà¤°": 7588,
      "Ġà¤Ŀà¤µ": 7589,
      "Ġà¤Ĭà¤¸": 7590,
      "Ġà¤Ĩà¤ĩà¤°": 7591,
      "Ġà¤·à¤Łà¤¤": 7592,
      "à¤°à¤Ĩà¤§": 7593,
      "Ġà¤¹à¤¨à¤ķ": 7594,
      "Ġà¤Ķà¤¤": 7595,
      "à¤°à¤®à¤®": 7596,
      "Ġà¤īà¤«à¤¨à¤¤": 7597,
      "Ġà¤Ĩà¤®à¤²à¤ķ": 7598,
      "à¤µà¤°à¤Ł": 7599,
      "Ġà¤¸à¤ĺà¤¨à¤¤": 7600,
      "à¤Łà¤¨à¤¹": 7601,
      "à¤ĺà¤£": 7602,
      "Ġà¤°à¤¸à¤Ńà¤°": 7603,
      "à¥§à¥¦à¥®": 7604,
      "à¤¡à¤ĩà¤¨à¤«": 7605,
      "Ġà¥¨à¥§à¥©": 7606,
      "à¤°à¤Łà¤°": 7607,
      "à¤¸à¤¹à¤®": 7608,
      "Ġà¤Ķà¤·": 7609,
      "à¤¥à¤ķà¤°à¤£": 7610,
      "Ġà¤®à¤¶à¤µ": 7611,
      "Ġà¤ķà¤¸à¤ª": 7612,
      "à¤ıà¤Ĩà¤¨": 7613,
      "Ġà¤¦à¤¸à¤¦à¤¸": 7614,
      "Ġà¥łà¤¤": 7615,
      "à¤¤à¤Ĺà¤¢": 7616,
      "à¤ıà¤Ķà¤°": 7617,
      "à¤£à¤®à¤¯": 7618,
      "Ġà¤ĳà¤µà¤°": 7619,
      "Ġà¤¨à¤°à¤¹à¤°": 7620,
      "Ġà¤ıà¤®à¤ĵà¤ıà¤ļà¤ıà¤«": 7621,
      "Ġà¤Ĭà¤«": 7622,
      "Ġà¤¹à¤ī": 7623,
      "Ġà¤ªà¤°à¤¸à¤¦": 7624,
      "Ġà¤¦à¤²à¤ªà¤¤": 7625,
      "Ġà¥§à¥¯à¥ªà¥¨": 7626,
      "à¤¤à¤¸à¤®": 7627,
      "à¤Ĩà¤ªà¤¦": 7628,
      "à¤¹à¤¤à¤Ńà¤°": 7629,
      "Ġà¤¢à¤ª": 7630,
      "Ġà¤īà¤ªà¤¨à¤¯à¤¨": 7631,
      "à¥¨à¥¦à¥§": 7632,
      "Ġà¤ıà¤ħà¤°à¤ª": 7633,
      "à¤°à¤Ĩà¤¤": 7634,
      "à¤¨à¤µà¤ľà¤¨": 7635,
      "Ġà¥®à¥ª": 7636,
      "Ġà¤ħà¤¸à¤µ": 7637,
      "Ġà¤ıà¤¡à¤¹": 7638,
      "Ġà¤ıà¤¨à¤ıà¤¸à¤ıà¤¨": 7639,
      "à¤ıà¤²à¤¬": 7640,
      "à¤Īà¤¯à¤°": 7641,
      "à¤¢à¤ª": 7642,
      "à¤Łà¤°à¤¨à¤°": 7643,
      "Ġà¤ĵà¤ªà¤¨à¤¸": 7644,
      "Ġà¤°à¤¨à¤°à¤ħà¤ª": 7645,
      "à¤ĸà¤¤à¤°": 7646,
      "à¤Ńà¤ķà¤°à¤£": 7647,
      "Ġà¤¥à¤µ": 7648,
      "à¤ļà¤ļ": 7649,
      "Ġà¤¤à¤Ī": 7650,
      "Ġà¤Ľà¤¥": 7651,
      "à¤¯à¤¸à¤¸": 7652,
      "à¤¸à¤Ĺà¤°": 7653,
      "Ġà¤ıà¤ļà¤¡à¤¬": 7654,
      "Ġà¤ıà¤«à¤ıà¤²": 7655,
      "à¤¯à¤ħà¤¤": 7656,
      "Ġà¤¶à¤ľà¤°": 7657,
      "Ġà¤¡à¤¡": 7658,
      "Ġà¤¡à¤ķà¤µà¤°": 7659,
      "Ġà¤£à¤¹": 7660,
      "à¤Ĺà¤¸à¤²": 7661,
      "à¤ľà¤ļ": 7662,
      "Ġà¤µà¤®à¤¨": 7663,
      "Ġà¤¶à¤ľ": 7664,
      "Ġà¥¨à¥¦à¥¬": 7665,
      "à¤·à¤®à¤¨": 7666,
      "Ġà¤¶à¤Łà¤²à¤°": 7667,
      "à¤¨à¤®à¤§": 7668,
      "à¥§à¥¦à¥«": 7669,
      "à¤ĵà¤¯à¤¨": 7670,
      "Ġà¥¨à¥§à¥®": 7671,
      "à¤Ĺà¤¸à¤¬": 7672,
      "à¤°à¤¹à¤®à¤£": 7673,
      "à¥§à¥¦à¥Ń": 7674,
      "à¤¡à¤ķà¤²": 7675,
      "Ġà¤Ĩà¤¦à¤°à¤ª": 7676,
      "Ġà¥§à¥«à¥¯": 7677,
      "à¤¨à¤Ķà¤°": 7678,
      "à¤§à¤Ńà¤ķ": 7679,
      "Ġà¤Łà¤¥": 7680,
      "Ġà¥¨à¥¦à¥¨à¥¨": 7681,
      "à¤¬à¤Īà¤ıà¤ķ": 7682,
      "à¤®à¤µà¤¨": 7683,
      "à¤ıà¤¨à¤ķ": 7684,
      "Ġà¤ıà¤ıà¤®à¤ª": 7685,
      "Ġà¤¨à¤Ĺà¤°à¤ķ": 7686,
      "Ġà¥§à¥®à¥Ń": 7687,
      "à¥§à¥§à¥Ń": 7688,
      "Ġà¤²à¤ī": 7689,
      "à¤§à¤¨à¤ķ": 7690,
      "à¤Ĩà¤¢": 7691,
      "à¤¨à¤µà¤Ĺ": 7692,
      "Ġà¤ĸà¤Łà¤®à¤²": 7693,
      "à¤µà¤°à¤¦": 7694,
      "Ġà¤ļà¤°à¤£à¤¦": 7695,
      "à¤µà¤Ĺà¤£": 7696,
      "Ġà¤¨à¤§": 7697,
      "à¤¾à¥¤à¥¤à¥¤": 7698,
      "à¤°à¤ħà¤ķ": 7699,
      "Ġà¤ľà¤¨à¤¸à¤®à¤°": 7700,
      "Ġà¤²à¤¹à¤¨": 7701,
      "à¤īà¤¦à¤¨à¤Ĺà¤°": 7702,
      "à¥§à¥¦à¥¯": 7703,
      "à¤µà¤ĸ": 7704,
      "Ġà¤ĵà¤¸à¤µ": 7705,
      "à¤Łà¤Ĩà¤°": 7706,
      "à¤Īà¤Łà¤°": 7707,
      "à¤§à¤£": 7708,
      "à¤°à¤¤à¤ĸ": 7709,
      "Ġà¤ħà¤ªà¤¦à¤¸": 7710,
      "à¤¨à¤¹à¤®": 7711,
      "Ġà¤ıà¤Ń": 7712,
      "Ġà¤¬à¤²à¤Ńà¤¦": 7713,
      "Ġà¥©à¥¦à¥ª": 7714,
      "à¤ĸà¤¸à¤¤": 7715,
      "à¤¦à¤°à¤ĸ": 7716,
      "Ġà¤Ĭà¤ĵ": 7717,
      "à¤ĩà¤®à¤¹": 7718,
      "Ġà¤ķà¤¡à¤µ": 7719,
      "Ġà¥©à¥§à¥©": 7720,
      "à¤¬à¤°à¤ľà¤¨à¤µà¤°": 7721,
      "à¤°à¤¬à¤²à¤¤": 7722,
      "Ġà¤ķà¤¨à¤µ": 7723,
      "à¤Łà¤ıà¤ķ": 7724,
      "Ġà¤¬à¤³": 7725,
      "à¤¹à¤¤à¤¸": 7726,
      "à¤Ĭà¤¥": 7727,
      "Ġà¥ªà¥Ń": 7728,
      "à¥§à¥§à¥«": 7729,
      "à¤Ĩà¤łà¤µ": 7730,
      "Ġà¤ħà¤ķà¤¬à¤°à¤¬": 7731,
      "Ġà¥§à¥¬à¥¬": 7732,
      "Ġà¤¸à¤ħ": 7733,
      "Ġà¥§à¥¨à¥¬": 7734,
      "à¥§à¥¦à¥¬": 7735,
      "à¤¹à¤¨à¤¸": 7736,
      "à¤³à¤ª": 7737,
      "à¥§à¥§à¥¬": 7738,
      "Ġà¤¹à¤®à¤ªà¤°": 7739,
      "à¤ĺà¤łà¤¨": 7740,
      "Ġà¥§à¥«à¥¬": 7741,
      "Ġà¤¦à¤²à¤¸": 7742,
      "Ġà¤Ĩà¤°à¤ıà¤®à¤ķ": 7743,
      "Ġà¤ħà¤ľà¤ľ": 7744,
      "à¤¦à¤ķà¤¶": 7745,
      "à¤²à¤¸à¤«": 7746,
      "à¤¯à¤¹à¤µ": 7747,
      "Ġà¤ıà¤®à¤ıà¤¸à¤Ł": 7748,
      "Ġà¤®à¤®à¤²": 7749,
      "Ġà¤¡à¤µà¤²à¤ªà¤®": 7750,
      "à¤ľà¤¨à¤ªà¤¥": 7751,
      "Ġà¤Ķà¤¬": 7752,
      "à¤°à¤¹à¤ł": 7753,
      "à¤¨à¤°à¤¬": 7754,
      "à¤ªà¤µà¤¯à¤¸": 7755,
      "Ġà¥¨à¥ªà¥¦": 7756,
      "à¥§à¥¨à¥«": 7757,
      "Ġà¤ķà¤ı": 7758,
      "à¤¯à¤²à¤¨": 7759,
      "Ġà¤¯à¤ļ": 7760,
      "Ġà¤ĺà¤¨à¤®": 7761,
      "à¤ıà¤¨à¤Ĩà¤°à¤¸": 7762,
      "à¥ĩà¥ĩà¥ĩ": 7763,
      "à¤¬à¤ļà¤ªà¤¨": 7764,
      "à¥Ĳà¥Ĳ": 7765,
      "Ġà¤īà¤ķà¤¤": 7766,
      "à¥Īà¤Ĥà¤Ĥà¥¤": 7767,
      "à¤¸à¤¨à¤Ī": 7768,
      "Ġà¤¬à¤ķà¤¬à¤ķ": 7769,
      "Ġà¥®à¥«": 7770,
      "à¤°à¤ī": 7771,
      "à¤¬à¤¦à¤°": 7772,
      "à¤Īà¤ªà¤Ł": 7773,
      "Ġà¤ľà¤¯à¤ĺ": 7774,
      "à¤§à¤Ĺà¤®": 7775,
      "Ġà¤ĸà¤²à¤¤": 7776,
      "Ġà¤Ĩà¤¯à¤¦": 7777,
      "Ġà¥¨à¥§à¥¬": 7778,
      "à¤²à¤ļà¤ķ": 7779,
      "Ġà¤Ĩà¤®à¤ļ": 7780,
      "Ġà¤µà¤¨à¤Ń": 7781,
      "à¤Īà¤ıà¤¸à¤Ĩà¤°": 7782,
      "à¤²à¤ıà¤¦": 7783,
      "à¤¶à¤°à¤µ": 7784,
      "Ġà¤īà¤¨à¤¨": 7785,
      "à¤¨à¤¤à¤¶": 7786,
      "à¤Łà¤«à¤Ł": 7787,
      "Ġà¥¨à¥ªà¥©": 7788,
      "à¤°à¤ıà¤²": 7789,
      "à¤¨à¤ļà¤¨": 7790,
      "à¤¯à¤Ĺà¤¤": 7791,
      "Ġà¤¹à¤·": 7792,
      "Ġà¤īà¤ªà¤ľà¤¤": 7793,
      "Ġà¤§à¤¡à¤ķà¤¨": 7794,
      "Ġà¥§à¥Ńà¥¬": 7795,
      "Ġà¤Ĭà¤ļà¤Ī": 7796,
      "Ġà¤¯à¤ª": 7797,
      "Ġà¤Ĩà¤Īà¤¡à¤¬": 7798,
      "Ġà¤Ĩà¤Ĺà¤¨": 7799,
      "à¥§à¥§à¥®": 7800,
      "à¤ķà¤§à¤¨": 7801,
      "Ġà¤Ĺà¤¬à¤°": 7802,
      "à¤ĩà¤ĵ": 7803,
      "à¤·à¤£à¤¶": 7804,
      "Ġà¤ħà¤®à¤°à¤¸": 7805,
      "à¤Ĺà¤®à¤¹": 7806,
      "Ġà¥©à¥¨à¥ª": 7807,
      "à¤ķà¤ıà¤®à¤ļ": 7808,
      "à¥½": 7809,
      "à¤ķà¤¶à¤ķ": 7810,
      "à¤²à¤ĸà¤¨": 7811,
      "Ġà¤®à¤¬": 7812,
      "Ġà¤°à¤ł": 7813,
      "Ġà¤ªà¤°à¤ĸà¤¤": 7814,
      "à¤ĸà¤¹": 7815,
      "à¤Łà¤¨à¤¸": 7816,
      "Ġà¤Ľà¤²à¤ķà¤ªà¤Ł": 7817,
      "à¤·à¤£à¤°": 7818,
      "Ġà¤ķà¤¨à¤«": 7819,
      "à¤¹à¤²à¤¸": 7820,
      "Ġà¤ľà¤¨à¤¸à¤ĸ": 7821,
      "Ġà¥§à¥¯à¥«à¥ª": 7822,
      "à¤¯à¤¡à¤°": 7823,
      "à¤£à¤¹": 7824,
      "à¤Ĺà¤²à¤ªà¤Ł": 7825,
      "Ġà¤ħà¤ªà¤«": 7826,
      "à¥§à¥«à¥¦": 7827,
      "à¤¯à¤¨à¤¬": 7828,
      "à¤ħà¤ķà¤¬à¤°": 7829,
      "Ġà¤°à¤Ī": 7830,
      "à¤µà¤¨à¤ľ": 7831,
      "à¤²à¤¸à¤®": 7832,
      "à¤²à¤ħà¤ª": 7833,
      "à¤¯à¤¤à¤°": 7834,
      "à¤¹à¤Łà¤¨": 7835,
      "à¤ļà¤«": 7836,
      "à¤¤à¤¨à¤¹": 7837,
      "Ġà¥§à¥¦à¥§": 7838,
      "Ġà¥¨à¥Ńà¥«": 7839,
      "Ġà¤Łà¤¡": 7840,
      "Ġà¤ıà¤¨à¤ıà¤¸à¤¸": 7841,
      "à¤Īà¤Īà¤ĵ": 7842,
      "Ġà¤Ńà¤°à¤¤à¤®": 7843,
      "à¤¹à¤®à¤¦": 7844,
      "Ġà¤°à¤Ľ": 7845,
      "à¤¹à¤²à¤ķ": 7846,
      "à¤ªà¤°à¤ľ": 7847,
      "Ġà¥©à¥¦à¥«": 7848,
      "à¤¬à¤Ĩà¤°": 7849,
      "Ġà¤ıà¤®à¤ıà¤«": 7850,
      "Ġà¤ħà¤²à¤¬à¤®": 7851,
      "à¤²à¤µà¤Ł": 7852,
      "Ġà¥ªà¥¨": 7853,
      "à¥Ģà¥¥à¥¥": 7854,
      "à¤ķà¤ľà¤¬": 7855,
      "à¤Ĺà¤°à¤²": 7856,
      "à¤°à¤²à¤ĸà¤¨à¤Ĭ": 7857,
      "à¤¹à¤¤à¤°à¤®": 7858,
      "Ġà¤¶à¤¹à¤¬": 7859,
      "à¥§à¥¯à¥«": 7860,
      "Ġà¤ĸà¤ķ": 7861,
      "à¤¹à¤¨à¤¨": 7862,
      "Ġà¤ĵà¤µà¤°à¤Ĩà¤²": 7863,
      "à¤ıà¤ļà¤Ł": 7864,
      "Ġà¥§à¥«à¥Ń": 7865,
      "Ġà¤ĸà¤Łà¤ķà¤¨": 7866,
      "à¥Īà¥į": 7867,
      "à¤ķà¤²à¤¶": 7868,
      "Ġà¤ĵà¤ķà¤²": 7869,
      "Ġà¤¤à¤¯à¤¶": 7870,
      "Ġà¤Ĺà¤¡à¤°": 7871,
      "à¤¬à¤ĩ": 7872,
      "à¤¬à¤°à¤¨à¤µ": 7873,
      "Ġà¤¨à¤Ĺà¤°à¤®": 7874,
      "Ġà¤ıà¤ļà¤ıà¤¸à¤¸": 7875,
      "Ġà¤®à¤Ŀà¤§": 7876,
      "à¤¨à¤§à¤°": 7877,
      "Ġà¤¬à¤Łà¤°à¤«": 7878,
      "à¤ıà¤«à¤ıà¤ķ": 7879,
      "à¥Īà¤¾": 7880,
      "à¤Łà¤Ĺà¤°": 7881,
      "Ġà¤ľà¤¸à¤®": 7882,
      "Ġà¤īà¤ªà¤¯à¤Ĺ": 7883,
      "Ġà¥©à¥¨à¥¦": 7884,
      "Ġà¥©à¥¨à¥«": 7885,
      "Ġà¥§à¥¬à¥©": 7886,
      "Ġà¤Ĩà¤Īà¤ıà¤«à¤ıà¤«à¤Ĩà¤Ī": 7887,
      "Ġà¥§à¥¯à¥®à¥¦": 7888,
      "à¤ªà¤°à¤£": 7889,
      "à¤Ĩà¤Īà¤ıà¤¨": 7890,
      "à¤ıà¤ļà¤Ĩà¤°": 7891,
      "Ġà¤·à¤ķ": 7892,
      "Ġà¥¨à¥ªà¥«": 7893,
[...]
